{
  "version": "1.0",
  "truncation": null,
  "padding": null,
  "added_tokens": [
    {
      "id": 0,
      "content": "<pad>",
      "single_word": false,
      "lstrip": false,
      "rstrip": false,
      "normalized": false,
      "special": true
    },
    {
      "id": 1,
      "content": "<unk>",
      "single_word": false,
      "lstrip": false,
      "rstrip": false,
      "normalized": false,
      "special": true
    },
    {
      "id": 2,
      "content": "<bos>",
      "single_word": false,
      "lstrip": false,
      "rstrip": false,
      "normalized": false,
      "special": true
    },
    {
      "id": 3,
      "content": "<eos>",
      "single_word": false,
      "lstrip": false,
      "rstrip": false,
      "normalized": false,
      "special": true
    }
  ],
  "normalizer": null,
  "pre_tokenizer": {
    "type": "ByteLevel",
    "add_prefix_space": false,
    "trim_offsets": true,
    "use_regex": true
  },
  "post_processor": null,
  "decoder": {
    "type": "ByteLevel",
    "add_prefix_space": true,
    "trim_offsets": true,
    "use_regex": true
  },
  "model": {
    "type": "BPE",
    "dropout": null,
    "unk_token": null,
    "continuing_subword_prefix": null,
    "end_of_word_suffix": null,
    "fuse_unk": false,
    "byte_fallback": false,
    "ignore_merges": false,
    "vocab": {
      "<pad>": 0,
      "<unk>": 1,
      "<bos>": 2,
      "<eos>": 3,
      "!": 4,
      "\"": 5,
      "#": 6,
      "$": 7,
      "%": 8,
      "&": 9,
      "'": 10,
      "(": 11,
      ")": 12,
      "*": 13,
      "+": 14,
      ",": 15,
      "-": 16,
      ".": 17,
      "/": 18,
      "0": 19,
      "1": 20,
      "2": 21,
      "3": 22,
      "4": 23,
      "5": 24,
      "6": 25,
      "7": 26,
      "8": 27,
      "9": 28,
      ":": 29,
      ";": 30,
      "<": 31,
      "=": 32,
      ">": 33,
      "?": 34,
      "@": 35,
      "A": 36,
      "B": 37,
      "C": 38,
      "D": 39,
      "E": 40,
      "F": 41,
      "G": 42,
      "H": 43,
      "I": 44,
      "J": 45,
      "K": 46,
      "L": 47,
      "M": 48,
      "N": 49,
      "O": 50,
      "P": 51,
      "Q": 52,
      "R": 53,
      "S": 54,
      "T": 55,
      "U": 56,
      "V": 57,
      "W": 58,
      "X": 59,
      "Y": 60,
      "Z": 61,
      "[": 62,
      "\\": 63,
      "]": 64,
      "^": 65,
      "_": 66,
      "`": 67,
      "a": 68,
      "b": 69,
      "c": 70,
      "d": 71,
      "e": 72,
      "f": 73,
      "g": 74,
      "h": 75,
      "i": 76,
      "j": 77,
      "k": 78,
      "l": 79,
      "m": 80,
      "n": 81,
      "o": 82,
      "p": 83,
      "q": 84,
      "r": 85,
      "s": 86,
      "t": 87,
      "u": 88,
      "v": 89,
      "w": 90,
      "x": 91,
      "y": 92,
      "z": 93,
      "{": 94,
      "|": 95,
      "}": 96,
      "~": 97,
      "¡": 98,
      "¢": 99,
      "£": 100,
      "¤": 101,
      "¥": 102,
      "¦": 103,
      "§": 104,
      "¨": 105,
      "©": 106,
      "ª": 107,
      "«": 108,
      "¬": 109,
      "®": 110,
      "¯": 111,
      "°": 112,
      "±": 113,
      "²": 114,
      "³": 115,
      "´": 116,
      "µ": 117,
      "¶": 118,
      "·": 119,
      "¸": 120,
      "¹": 121,
      "º": 122,
      "»": 123,
      "¼": 124,
      "½": 125,
      "¾": 126,
      "¿": 127,
      "Â": 128,
      "Ã": 129,
      "Ä": 130,
      "Å": 131,
      "Æ": 132,
      "Ç": 133,
      "È": 134,
      "É": 135,
      "Ê": 136,
      "Ë": 137,
      "Ì": 138,
      "Í": 139,
      "Î": 140,
      "Ï": 141,
      "Ð": 142,
      "Ñ": 143,
      "Ö": 144,
      "×": 145,
      "Ø": 146,
      "Ù": 147,
      "Û": 148,
      "à": 149,
      "á": 150,
      "â": 151,
      "ã": 152,
      "ä": 153,
      "å": 154,
      "æ": 155,
      "ç": 156,
      "è": 157,
      "é": 158,
      "ê": 159,
      "ë": 160,
      "ì": 161,
      "í": 162,
      "î": 163,
      "ï": 164,
      "ð": 165,
      "Ā": 166,
      "ĉ": 167,
      "Ċ": 168,
      "Đ": 169,
      "Ġ": 170,
      "Ģ": 171,
      "ģ": 172,
      "Ĥ": 173,
      "ĥ": 174,
      "Ħ": 175,
      "ħ": 176,
      "Ĩ": 177,
      "ĩ": 178,
      "Ī": 179,
      "ī": 180,
      "Ĭ": 181,
      "ĭ": 182,
      "Į": 183,
      "į": 184,
      "İ": 185,
      "ı": 186,
      "Ĳ": 187,
      "ĳ": 188,
      "Ĵ": 189,
      "ĵ": 190,
      "Ķ": 191,
      "ķ": 192,
      "ĸ": 193,
      "Ĺ": 194,
      "ĺ": 195,
      "Ļ": 196,
      "ļ": 197,
      "Ľ": 198,
      "ľ": 199,
      "Ŀ": 200,
      "ŀ": 201,
      "Ł": 202,
      "ł": 203,
      "Ń": 204,
      "Ġt": 205,
      "in": 206,
      "Ġa": 207,
      "he": 208,
      "ut": 209,
      "re": 210,
      "Ġs": 211,
      "er": 212,
      "le": 213,
      "on": 214,
      "Ġthe": 215,
      "is": 216,
      "put": 217,
      "en": 218,
      "Ġo": 219,
      "ing": 220,
      "Ġin": 221,
      "te": 222,
      "ou": 223,
      "ti": 224,
      "mp": 225,
      "Ġf": 226,
      "Ġc": 227,
      "Ġn": 228,
      "Ġof": 229,
      "mple": 230,
      "Ġl": 231,
      "Ġan": 232,
      "ist": 233,
      "tion": 234,
      "ample": 235,
      "Ġw": 236,
      "Sample": 237,
      "Ġre": 238,
      "or": 239,
      "es": 240,
      "ha": 241,
      "tr": 242,
      "utput": 243,
      "In": 244,
      "al": 245,
      "ent": 246,
      "Ġlist": 247,
      "ers": 248,
      "Output": 249,
      "Input": 250,
      "You": 251,
      "Ġe": 252,
      "Ġis": 253,
      "Ġp": 254,
      "ction": 255,
      "Ġand": 256,
      "un": 257,
      "ac": 258,
      "um": 259,
      "as": 260,
      "ar": 261,
      "teg": 262,
      "Ġd": 263,
      "Ġto": 264,
      "Ġinteg": 265,
      "th": 266,
      "Ġb": 267,
      "tring": 268,
      "unction": 269,
      "Ġstring": 270,
      "Ġfunction": 271,
      "Ġare": 272,
      "Ġi": 273,
      "ĠA": 274,
      "tu": 275,
      "Ġm": 276,
      "ĠInput": 277,
      "ĠOutput": 278,
      "Ġ1": 279,
      "Ġtha": 280,
      "Ġg": 281,
      "ĠT": 282,
      "iv": 283,
      "Ġnum": 284,
      "Ġâ": 285,
      "Ġâī": 286,
      "Ġâī¤": 287,
      "ed": 288,
      "Ġthat": 289,
      "Ġcon": 290,
      "ld": 291,
      "tur": 292,
      "turn": 293,
      "ment": 294,
      "ro": 295,
      "Ġsh": 296,
      "res": 297,
      "ould": 298,
      "ĠYou": 299,
      "Ġshould": 300,
      "ask": 301,
      "Ġtask": 302,
      "Ġreturn": 303,
      "Ġnumb": 304,
      "ĠThe": 305,
      "ĠYour": 306,
      "iven": 307,
      "ta": 308,
      "Ġgiven": 309,
      "Ġintegers": 310,
      "ri": 311,
      "Ġwi": 312,
      "ra": 313,
      "Ġ(": 314,
      "Ġinteger": 315,
      "me": 316,
      "ic": 317,
      "Ġ10": 318,
      "Ġwith": 319,
      "Ġle": 320,
      "qu": 321,
      "ach": 322,
      "Ġv": 323,
      "ted": 324,
      "ll": 325,
      "ts": 326,
      "pres": 327,
      "Ġbe": 328,
      "ce": 329,
      "Ġor": 330,
      "Ġrepres": 331,
      "st": 332,
      "se": 333,
      "ve": 334,
      "tain": 335,
      "Ġeach": 336,
      "an": 337,
      "Ġas": 338,
      "ge": 339,
      "mplement": 340,
      "Ġco": 341,
      "Ġrepresent": 342,
      "at": 343,
      "Ġcontain": 344,
      "Ġwhe": 345,
      "Ġval": 346,
      "Ġnumber": 347,
      "de": 348,
      "Ġdi": 349,
      "si": 350,
      "ly": 351,
      "Ġse": 352,
      "ter": 353,
      "Ġwhere": 354,
      "ate": 355,
      "Ġrepresenting": 356,
      "up": 357,
      "ary": 358,
      "Ġno": 359,
      "ĠI": 360,
      "Ġimplement": 361,
      "ĠF": 362,
      "ir": 363,
      "ow": 364,
      "act": 365,
      "ord": 366,
      "ue": 367,
      "Ġlen": 368,
      "Ġfor": 369,
      "Ġde": 370,
      "Ġnumbers": 371,
      "ation": 372,
      "ul": 373,
      "lement": 374,
      "Ġar": 375,
      "Ġreturns": 376,
      "ke": 377,
      "Ġ\"": 378,
      "Ġelement": 379,
      "ci": 380,
      "Ġ2": 381,
      "wo": 382,
      "Ġha": 383,
      "Ġon": 384,
      "rom": 385,
      "Ġinput": 386,
      "Ġma": 387,
      "Ġsing": 388,
      "Ġif": 389,
      "Ġall": 390,
      "Ġsingle": 391,
      "tive": 392,
      "ase": 393,
      "pe": 394,
      "der": 395,
      "it": 396,
      "Ġdiction": 397,
      "Ġsu": 398,
      "00": 399,
      "Ġpro": 400,
      "ine": 401,
      "Ġex": 402,
      "ding": 403,
      "Ġcha": 404,
      "ct": 405,
      "ind": 406,
      "ame": 407,
      "Ġfrom": 408,
      "Ġ-": 409,
      "quen": 410,
      "),": 411,
      "rite": 412,
      "Ġsor": 413,
      "nd": 414,
      "Ġorder": 415,
      "ĠP": 416,
      "Ġby": 417,
      "Ġtwo": 418,
      "Ġpo": 419,
      "Ġdictionary": 420,
      ").": 421,
      "Ġchar": 422,
      "us": 423,
      "Ġstrings": 424,
      "her": 425,
      "Ġth": 426,
      "Ġword": 427,
      "ĠIf": 428,
      "Ġne": 429,
      "key": 430,
      "Ġcom": 431,
      "ray": 432,
      "Ġwrite": 433,
      "id": 434,
      "Ġkey": 435,
      "Ġ[": 436,
      "Ġ=": 437,
      "Ġnot": 438,
      "Ġun": 439,
      "Ġ'": 440,
      "Ġcons": 441,
      "im": 442,
      "Ġelements": 443,
      "il": 444,
      "acters": 445,
      "ues": 446,
      "ib": 447,
      "Ġarray": 448,
      "Ġcharacters": 449,
      "nt": 450,
      "ther": 451,
      "ver": 452,
      "Ġany": 453,
      "Ġpri": 454,
      "Ġvalues": 455,
      "Ġra": 456,
      "int": 457,
      "Ġ3": 458,
      "lo": 459,
      "Ġsub": 460,
      "Ġy": 461,
      "ĠE": 462,
      "gth": 463,
      "est": 464,
      "ĠAn": 465,
      "Ġ0": 466,
      "Ġcontains": 467,
      "irst": 468,
      "quence": 469,
      "fi": 470,
      "Ġcontaining": 471,
      "ur": 472,
      "pac": 473,
      "ces": 474,
      "num": 475,
      "od": 476,
      "Ġfirst": 477,
      "ĠN": 478,
      "Ġal": 479,
      "iz": 480,
      "Ġlength": 481,
      "ch": 482,
      "uple": 483,
      "Ġsorted": 484,
      "Ġtasked": 485,
      "Ġtuple": 486,
      "yth": 487,
      "ython": 488,
      "ty": 489,
      "case": 490,
      "ĠPython": 491,
      "Ġconsist": 492,
      "Ġus": 493,
      "Ġthis": 494,
      "ĠĊ": 495,
      "Ġap": 496,
      "ise": 497,
      "ated": 498,
      "que": 499,
      "xt": 500,
      "arge": 501,
      "ĠR": 502,
      "per": 503,
      "Ġhand": 504,
      "Ġ<": 505,
      "Ġwords": 506,
      "to": 507,
      "cl": 508,
      "Ġvalue": 509,
      "Ġother": 510,
      "ff": 511,
      "Ġspac": 512,
      "term": 513,
      "Ġemp": 514,
      "Ġprime": 515,
      "Ġen": 516,
      "dd": 517,
      "ig": 518,
      "ique": 519,
      "Ġlists": 520,
      "age": 521,
      "Ġ\\": 522,
      "ree": 523,
      "Ġ<=": 524,
      "Ġme": 525,
      "Ġhandle": 526,
      "ion": 527,
      "ters": 528,
      "Ġ5": 529,
      "Ġimplementing": 530,
      "Ġnew": 531,
      "ng": 532,
      "Ġform": 533,
      "10": 534,
      "Ġ1000": 535,
      "Ġcomput": 536,
      "Ġwh": 537,
      "gest": 538,
      "Ġunique": 539,
      "ble": 540,
      "string": 541,
      "Ġdeterm": 542,
      "Ġsequence": 543,
      "Ġfind": 544,
      "Ġte": 545,
      "Ġ|": 546,
      "acci": 547,
      "onacci": 548,
      "Ġup": 549,
      "ibonacci": 550,
      "sitive": 551,
      "ates": 552,
      "Ġit": 553,
      "Ġkeys": 554,
      "one": 555,
      "Ġsum": 556,
      "alse": 557,
      "ower": 558,
      "ol": 559,
      "ĠRe": 560,
      "ust": 561,
      "Ġempty": 562,
      "ints": 563,
      "Ġres": 564,
      "Ġthan": 565,
      "Ġline": 566,
      "rue": 567,
      "Ġat": 568,
      "ori": 569,
      "ass": 570,
      "ative": 571,
      "Ġpa": 572,
      "wise": 573,
      "Ġcl": 574,
      "ĠFalse": 575,
      "str": 576,
      "Ġcan": 577,
      "arget": 578,
      "par": 579,
      "ive": 580,
      "Ġbo": 581,
      "alind": 582,
      "Ġusing": 583,
      "lic": 584,
      "cur": 585,
      "ĠTrue": 586,
      "mo": 587,
      "Ġtarget": 588,
      "ount": 589,
      "cen": 590,
      "Ġtheir": 591,
      "ma": 592,
      "ĠFibonacci": 593,
      "val": 594,
      "ting": 595,
      "imum": 596,
      "oll": 597,
      "red": 598,
      "Ġnon": 599,
      "ile": 600,
      "Ġlet": 601,
      "',": 602,
      "Ġdetermine": 603,
      "Ġsame": 604,
      "cending": 605,
      "co": 606,
      "Ġper": 607,
      "Ġonly": 608,
      "ollow": 609,
      "Ġlower": 610,
      "Ġits": 611,
      "Ġfollow": 612,
      "Ġcor": 613,
      "Ġvalid": 614,
      "nge": 615,
      "tw": 616,
      "rig": 617,
      "ĠC": 618,
      "Ġincl": 619,
      "Ġlowercase": 620,
      "Ġpalind": 621,
      "Ġda": 622,
      "Ġro": 623,
      "Ġclass": 624,
      "Ġotherwise": 625,
      "ctu": 626,
      "ffic": 627,
      "Ġmust": 628,
      "gra": 629,
      "ffici": 630,
      "twe": 631,
      "tween": 632,
      "Ġ4": 633,
      "Ġst": 634,
      "Ġcal": 635,
      "Ġbetween": 636,
      "ĠReturn": 637,
      "mal": 638,
      "sion": 639,
      "am": 640,
      "cul": 641,
      "Ġmo": 642,
      "Ġmax": 643,
      "ĠNone": 644,
      "con": 645,
      "Ġta": 646,
      "ren": 647,
      "Ġconsisting": 648,
      "gative": 649,
      "parated": 650,
      "Ġone": 651,
      "ses": 652,
      "fficient": 653,
      "Ġletters": 654,
      "peci": 655,
      "numb": 656,
      "Ġstr": 657,
      "rint": 658,
      "Ġnums": 659,
      "Ġpositive": 660,
      "ulti": 661,
      "ener": 662,
      "Ġyou": 663,
      "ds": 664,
      "thod": 665,
      "Ġfact": 666,
      "Ġspaces": 667,
      "Ġappe": 668,
      "ari": 669,
      "Ġformat": 670,
      "ity": 671,
      "Ġdo": 672,
      "fin": 673,
      "Ġrange": 674,
      "list": 675,
      "ĠS": 676,
      "for": 677,
      "inary": 678,
      "Ġappear": 679,
      "ating": 680,
      "Ġgener": 681,
      "Ġmethod": 682,
      "Ġsuch": 683,
      "Ġefficient": 684,
      "pon": 685,
      "ultip": 686,
      "vers": 687,
      "el": 688,
      "form": 689,
      "Ġconver": 690,
      "Ġspeci": 691,
      "Ġtext": 692,
      "ime": 693,
      "Ġbinary": 694,
      "tic": 695,
      "ht": 696,
      "Con": 697,
      "ror": 698,
      "Ġthese": 699,
      "rome": 700,
      "inal": 701,
      "ested": 702,
      "Ġpar": 703,
      "numbers": 704,
      "Ġarr": 705,
      "Ġk": 706,
      "Ġbu": 707,
      "ss": 708,
      "Ġmaximum": 709,
      "fined": 710,
      "Ġremo": 711,
      "Ġmultip": 712,
      "Ġac": 713,
      "Ġinclu": 714,
      "ations": 715,
      "Ġlon": 716,
      "gram": 717,
      "po": 718,
      "aints": 719,
      "Ġdata": 720,
      "Ġhave": 721,
      "Ġadd": 722,
      "Constr": 723,
      "ĠJ": 724,
      "Ġ100": 725,
      "mon": 726,
      "Ġcalcul": 727,
      "Ġx": 728,
      "ich": 729,
      "Ġdefined": 730,
      "Ġsecon": 731,
      "Ġresul": 732,
      "Ġmay": 733,
      "Ġflo": 734,
      "Ġnested": 735,
      "pha": 736,
      "uct": 737,
      "Ġwhich": 738,
      "Ġorig": 739,
      "Ġdist": 740,
      "ix": 741,
      "Ġh": 742,
      "Constraints": 743,
      "ize": 744,
      "Ġoutput": 745,
      "Ġtree": 746,
      "ution": 747,
      "Ġu": 748,
      "Ġhe": 749,
      "ĠEach": 750,
      "\",": 751,
      "Ġlongest": 752,
      "Ġinto": 753,
      "Ġfre": 754,
      "Ġtuples": 755,
      "Ġsol": 756,
      "lis": 757,
      "Ġascending": 758,
      "Ġfile": 759,
      "dic": 760,
      "Ġpalindrome": 761,
      "Ġtra": 762,
      "ect": 763,
      "ance": 764,
      "Ġcase": 765,
      "uplic": 766,
      "Ġthere": 767,
      "Ġtime": 768,
      "Ġoper": 769,
      "Ġoriginal": 770,
      "ven": 771,
      "Ġfollowing": 772,
      "rent": 773,
      "Ġuse": 774,
      "Ġstar": 775,
      "enti": 776,
      "pl": 777,
      "fied": 778,
      "].": 779,
      "respon": 780,
      "Ġhas": 781,
      "ne": 782,
      "ap": 783,
      "Ġcorrespon": 784,
      "its": 785,
      "enten": 786,
      "Ġdiv": 787,
      "ie": 788,
      "ĠImplement": 789,
      "Ġproces": 790,
      "dex": 791,
      "Ġsecond": 792,
      "ack": 793,
      "Ġseparated": 794,
      "Ġsubstring": 795,
      "ns": 796,
      "Ġboth": 797,
      "Ġnam": 798,
      "om": 799,
      "Ġapp": 800,
      "ally": 801,
      "Ġop": 802,
      "ear": 803,
      "Ġcorresponding": 804,
      "ound": 805,
      "Ġprod": 806,
      "lish": 807,
      "unctu": 808,
      "Ġalpha": 809,
      "unctuation": 810,
      "Ġsolution": 811,
      "ator": 812,
      "ON": 813,
      "orial": 814,
      "ĠB": 815,
      "Ġcompute": 816,
      "out": 817,
      "Ġdig": 818,
      "atu": 819,
      "SON": 820,
      "Ġcomputes": 821,
      "()": 822,
      "ĠJSON": 823,
      "ay": 824,
      "Ġmultiple": 825,
      "Ġid": 826,
      "Ġequ": 827,
      "'s": 828,
      "Ġduplic": 829,
      "ĠEng": 830,
      "Ġpres": 831,
      "ard": 832,
      "ition": 833,
      "ot": 834,
      "Ġpunctuation": 835,
      "ĠEnglish": 836,
      "Ġsubse": 837,
      "Ġname": 838,
      "rect": 839,
      "cy": 840,
      "ilt": 841,
      "Ġob": 842,
      "Ġremov": 843,
      "Ġfrequen": 844,
      "pri": 845,
      "Ġbuilt": 846,
      "\".": 847,
      "Ġcount": 848,
      "eric": 849,
      "trix": 850,
      "Ġ{": 851,
      "Ġrecur": 852,
      "Ġ\\(": 853,
      "Ġdes": 854,
      "Ġwithin": 855,
      "ess": 856,
      "thm": 857,
      "Ġnode": 858,
      "gn": 859,
      "Ġspace": 860,
      "Ġpre": 861,
      "gori": 862,
      "Ġindex": 863,
      "Ġoc": 864,
      "Ġfactorial": 865,
      "Ġwill": 866,
      "des": 867,
      "gorithm": 868,
      "Ġalgorithm": 869,
      "Ġlo": 870,
      "ok": 871,
      "Ġconsists": 872,
      "ĠTwo": 873,
      "Ġprogram": 874,
      "ast": 875,
      "entence": 876,
      "oun": 877,
      "Ġfunctions": 878,
      "Ġwithout": 879,
      "Ġr": 880,
      "cep": 881,
      "tem": 882,
      "argest": 883,
      "fies": 884,
      "qua": 885,
      "tes": 886,
      "Ġconsi": 887,
      "ases": 888,
      "Ġcommon": 889,
      "Ġcomp": 890,
      "Ġeven": 891,
      "ĠFor": 892,
      "ĠPrint": 893,
      "Ġmin": 894,
      "Ġobj": 895,
      "ĠU": 896,
      "Ġset": 897,
      "aries": 898,
      "tim": 899,
      "ented": 900,
      "Ġtak": 901,
      "Ġz": 902,
      "Ġend": 903,
      "Ġmatrix": 904,
      "Ġexist": 905,
      "Ġproduct": 906,
      "ad": 907,
      "word": 908,
      "Ġ6": 909,
      "negative": 910,
      "Ġcode": 911,
      "ĠD": 912,
      "ors": 913,
      "rence": 914,
      "Ġoccur": 915,
      "ĠO": 916,
      "Ġupper": 917,
      "Ġrevers": 918,
      "inct": 919,
      "be": 920,
      "Ġcomple": 921,
      "Ġidenti": 922,
      "ero": 923,
      "Ġ+": 924,
      "Ġdistinct": 925,
      "acter": 926,
      "000": 927,
      "Ġsort": 928,
      "Ġdoes": 929,
      "ck": 930,
      "Ġdigits": 931,
      "Ġdivis": 932,
      "Ġmod": 933,
      "Ġign": 934,
      "point": 935,
      "ced": 936,
      "Ġyour": 937,
      "Ġcases": 938,
      "Ġcol": 939,
      "Ġprocesses": 940,
      "Ġgenerate": 941,
      "Ġequal": 942,
      "rror": 943,
      "essage": 944,
      "Ġperform": 945,
      "Ġtakes": 946,
      "Ġspecified": 947,
      "Ġpl": 948,
      "Ġnegative": 949,
      "ĠW": 950,
      "cre": 951,
      "Error": 952,
      "Ġpair": 953,
      "sing": 954,
      "],": 955,
      "Ġcharacter": 956,
      "Ġuppercase": 957,
      "Ġsqua": 958,
      "sive": 959,
      "ide": 960,
      "Ġless": 961,
      "Ġlargest": 962,
      "mper": 963,
      "ab": 964,
      "mperatu": 965,
      "pec": 966,
      "Ġsmal": 967,
      "Ġcomplex": 968,
      "pression": 969,
      "Ġsentence": 970,
      "lest": 971,
      "Ġzero": 972,
      "so": 973,
      "ous": 974,
      "ĠH": 975,
      "Ġnth": 976,
      "able": 977,
      "et": 978,
      "fy": 979,
      "Ġoptim": 980,
      "Ġrepresented": 981,
      "ĠL": 982,
      "Ġfloating": 983,
      "count": 984,
      "Ġmessage": 985,
      "Ġthey": 986,
      "Ġresult": 987,
      "Ġfrequency": 988,
      "owel": 989,
      "Ġrepresents": 990,
      "verage": 991,
      "Ġefficiently": 992,
      "Ġappears": 993,
      "ater": 994,
      "ins": 995,
      "ines": 996,
      "Ġindic": 997,
      "ub": 998,
      "cimal": 999,
      "iti": 1000,
      "numeric": 1001,
      "Ġgre": 1002,
      "Ġrecursive": 1003,
      "ĠV": 1004,
      "Ġmer": 1005,
      "Ġ[-": 1006,
      "Ġdis": 1007,
      "Ġprov": 1008,
      "Ġaddres": 1009,
      "trib": 1010,
      "Ġstart": 1011,
      "ight": 1012,
      "tribut": 1013,
      "ace": 1014,
      "Ġobject": 1015,
      "ĠIn": 1016,
      "ft": 1017,
      "Ġer": 1018,
      "ized": 1019,
      "ign": 1020,
      "Ġprint": 1021,
      "Ġsmallest": 1022,
      "Ġyear": 1023,
      "text": 1024,
      "dered": 1025,
      "Ġexpression": 1026,
      "ument": 1027,
      "Ġbas": 1028,
      "ĠM": 1029,
      "Ġwe": 1030,
      "uctu": 1031,
      "fic": 1032,
      "ten": 1033,
      "Ġmat": 1034,
      "Ġpresent": 1035,
      "owels": 1036,
      "Ġcomplexity": 1037,
      "Ġ20": 1038,
      "Ġ7": 1039,
      "Ġnamed": 1040,
      "Ġinclude": 1041,
      "Ġtim": 1042,
      "Ġthree": 1043,
      "Ġoperations": 1044,
      "Ġtemperatu": 1045,
      "Ġrea": 1046,
      "Ġpos": 1047,
      "Ġconstr": 1048,
      "Ġattribut": 1049,
      "name": 1050,
      "Ġtimes": 1051,
      "ph": 1052,
      "Ġdictionaries": 1053,
      "Ġlarge": 1054,
      "Ġstructu": 1055,
      "ort": 1056,
      "Ġ8": 1057,
      "Ġexists": 1058,
      "Ġconsidered": 1059,
      "cta": 1060,
      "Ġdescending": 1061,
      "--": 1062,
      "ffe": 1063,
      "ctang": 1064,
      "cri": 1065,
      "Ġed": 1066,
      "betic": 1067,
      "Ġconvert": 1068,
      "les": 1069,
      "sition": 1070,
      "Ġfound": 1071,
      "Ġappro": 1072,
      "Ġgra": 1073,
      "pective": 1074,
      "Ġerror": 1075,
      "Ġpossi": 1076,
      "Ġrespective": 1077,
      "Ġqu": 1078,
      "Ġinter": 1079,
      "Ġcalculate": 1080,
      "dent": 1081,
      "Ġparame": 1082,
      "Ġcoun": 1083,
      "Ġincluding": 1084,
      "renthe": 1085,
      "Ġduplicate": 1086,
      "Ġpalindrom": 1087,
      "Ġgreater": 1088,
      "cts": 1089,
      "Ġsubsequence": 1090,
      "Ġallow": 1091,
      "our": 1092,
      "ure": 1093,
      "ward": 1094,
      "Ġmost": 1095,
      "Ġins": 1096,
      "usive": 1097,
      "ided": 1098,
      "Ġbal": 1099,
      "Ġextr": 1100,
      "Ġpath": 1101,
      "ĠG": 1102,
      "ps": 1103,
      "arch": 1104,
      "Ġcorrect": 1105,
      "Ġthem": 1106,
      "Ġaverage": 1107,
      "Ġty": 1108,
      "ctangle": 1109,
      "Ġitem": 1110,
      "Ġroot": 1111,
      "creas": 1112,
      "Ġbut": 1113,
      "loy": 1114,
      "Ġman": 1115,
      "tal": 1116,
      "Ġreads": 1117,
      "Ġremoved": 1118,
      "Ġarg": 1119,
      "Ġparenthe": 1120,
      "Ġexample": 1121,
      "ensitive": 1122,
      "creasing": 1123,
      "uth": 1124,
      "mail": 1125,
      "Ġposition": 1126,
      "Ġso": 1127,
      "main": 1128,
      "Ġaccep": 1129,
      "ĠVal": 1130,
      "Ġfl": 1131,
      "Ġpoint": 1132,
      "words": 1133,
      "separated": 1134,
      "Ġmodi": 1135,
      "Ġallowed": 1136,
      "value": 1137,
      "Ġdiffe": 1138,
      "ict": 1139,
      "atis": 1140,
      "uthor": 1141,
      "Ġsatis": 1142,
      "):": 1143,
      "No": 1144,
      "cut": 1145,
      "ĠValue": 1146,
      "Ġargument": 1147,
      "valid": 1148,
      "Ġback": 1149,
      "vel": 1150,
      "Ġprovided": 1151,
      "tudent": 1152,
      "Ġminimum": 1153,
      "ĠValueError": 1154,
      "ges": 1155,
      "oring": 1156,
      "Ġ\\)": 1157,
      "cha": 1158,
      "Ġsco": 1159,
      "Ġtotal": 1160,
      "nums": 1161,
      "Ġad": 1162,
      "Ġj": 1163,
      "right": 1164,
      "itle": 1165,
      "anced": 1166,
      "Ġleast": 1167,
      "Ġnodes": 1168,
      "Ġget": 1169,
      "ore": 1170,
      "ither": 1171,
      "Ġbased": 1172,
      "fix": 1173,
      "Ġpoints": 1174,
      "ee": 1175,
      "Ġtrans": 1176,
      "Ġalphabetic": 1177,
      "ping": 1178,
      "Ġlst": 1179,
      "Ġrequ": 1180,
      "Ġcounts": 1181,
      "Ġbook": 1182,
      "Ġenc": 1183,
      "ip": 1184,
      "ild": 1185,
      "dict": 1186,
      "Ġlea": 1187,
      "Ġmethods": 1188,
      "Ġalphanumeric": 1189,
      "Ġimplementation": 1190,
      "Ġ9": 1191,
      "Ġreverse": 1192,
      "Ġresulting": 1193,
      "insensitive": 1194,
      "Ġter": 1195,
      "crip": 1196,
      "Ġattributes": 1197,
      "quent": 1198,
      "Ġrow": 1199,
      "YY": 1200,
      "del": 1201,
      "Ġarea": 1202,
      "lication": 1203,
      "Ġwhether": 1204,
      "Ġconverts": 1205,
      "ving": 1206,
      "ndom": 1207,
      "Ġfloat": 1208,
      "Ġsy": 1209,
      "ordin": 1210,
      "..": 1211,
      "Ġsatisfies": 1212,
      "Ġvowels": 1213,
      "Ġodd": 1214,
      "Ġinterval": 1215,
      "Ġfil": 1216,
      "di": 1217,
      "Ġaddress": 1218,
      "Ġedge": 1219,
      "com": 1220,
      "Ġterm": 1221,
      ".,": 1222,
      "Ġnames": 1223,
      "Ġvari": 1224,
      "Ġexact": 1225,
      "Ġflat": 1226,
      "reate": 1227,
      "ner": 1228,
      "Ġpossible": 1229,
      "Ġeither": 1230,
      "Ġraise": 1231,
      "Ġsta": 1232,
      "Ġmain": 1233,
      "Ġcalculates": 1234,
      "Ġsquare": 1235,
      "itial": 1236,
      "\":": 1237,
      "and": 1238,
      "Ġright": 1239,
      "Ġpalindromic": 1240,
      "Ġ12": 1241,
      "util": 1242,
      "Ġprice": 1243,
      "Ġsto": 1244,
      "cutive": 1245,
      "secutive": 1246,
      "Ġgr": 1247,
      "'.": 1248,
      "ards": 1249,
      "Ġemail": 1250,
      "ĠAdd": 1251,
      "Ġfollows": 1252,
      "Ġsearch": 1253,
      "Ġutil": 1254,
      "Ġstudent": 1255,
      "Ġduplicates": 1256,
      "sed": 1257,
      "ks": 1258,
      "Ġwhile": 1259,
      "Ġleft": 1260,
      "Ġinclusive": 1261,
      "Ġheight": 1262,
      "Ġformatted": 1263,
      "ies": 1264,
      "gu": 1265,
      "fter": 1266,
      "Ġdecimal": 1267,
      "Ġignoring": 1268,
      "Ġexactly": 1269,
      "Ġalso": 1270,
      "Ġparameters": 1271,
      "Ġoptimized": 1272,
      "Ġrandom": 1273,
      "Ġclo": 1274,
      "Ġindices": 1275,
      "ume": 1276,
      "Ġcoordin": 1277,
      "Ġrectangle": 1278,
      "Ġconsecutive": 1279,
      "igh": 1280,
      "Ġoccurrence": 1281,
      "ull": 1282,
      "tern": 1283,
      "12": 1284,
      "Ġidentifies": 1285,
      "tan": 1286,
      "lean": 1287,
      "Ġbalanced": 1288,
      "prime": 1289,
      "Ġstructure": 1290,
      "Ġden": 1291,
      "Ġtemperature": 1292,
      "rac": 1293,
      "Ġiter": 1294,
      "loyee": 1295,
      "Ġch": 1296,
      "Ġbase": 1297,
      "Ġfe": 1298,
      "Ġmore": 1299,
      "arr": 1300,
      "Ġremain": 1301,
      "cript": 1302,
      "Ġstack": 1303,
      "Ġ->": 1304,
      "issing": 1305,
      "Ġab": 1306,
      "ell": 1307,
      "Ġlevel": 1308,
      "Implement": 1309,
      "Ġsorting": 1310,
      "Ġsize": 1311,
      "Ġmerge": 1312,
      "edi": 1313,
      "pace": 1314,
      "Ġcolum": 1315,
      "Ġinputs": 1316,
      "Ġdistance": 1317,
      "Ġremove": 1318,
      "Ġdate": 1319,
      "ieve": 1320,
      "The": 1321,
      "Ġens": 1322,
      "rences": 1323,
      "ink": 1324,
      "ming": 1325,
      "Ġ50": 1326,
      "Ġmaintain": 1327,
      "II": 1328,
      "da": 1329,
      "Ġcoordinates": 1330,
      "Ġtitle": 1331,
      "wards": 1332,
      "Ġ>": 1333,
      "ization": 1334,
      "Ġleading": 1335,
      "Ġsup": 1336,
      "Ġlog": 1337,
      "Ġparentheses": 1338,
      "heck": 1339,
      "Ġpr": 1340,
      "Ġday": 1341,
      "ites": 1342,
      "Ġcur": 1343,
      "Ġflatten": 1344,
      "RL": 1345,
      "Ġrequi": 1346,
      "Ġuser": 1347,
      "Ġsorts": 1348,
      "imit": 1349,
      "hen": 1350,
      "Ġdirect": 1351,
      "Ġmodel": 1352,
      "ory": 1353,
      "Ġser": 1354,
      "hest": 1355,
      "Ġspecific": 1356,
      "itespace": 1357,
      "ĠURL": 1358,
      "1000": 1359,
      "ucts": 1360,
      "Ġmissing": 1361,
      "cies": 1362,
      "Ġfactors": 1363,
      "Ġafter": 1364,
      "__": 1365,
      "Ġ$": 1366,
      "itionally": 1367,
      "Ġdivision": 1368,
      "SC": 1369,
      "':": 1370,
      "ĠTh": 1371,
      "Ġ(-": 1372,
      "Ġover": 1373,
      "mut": 1374,
      "ook": 1375,
      "bin": 1376,
      "Ġpreser": 1377,
      "Ġarrays": 1378,
      "Ġinitial": 1379,
      "input": 1380,
      "Ġstarting": 1381,
      "Ġonce": 1382,
      "wer": 1383,
      "tical": 1384,
      "Ġpairs": 1385,
      "ĠIP": 1386,
      "Ġhig": 1387,
      "Ġinvalid": 1388,
      "Ġsubstrings": 1389,
      "Ġam": 1390,
      "SCII": 1391,
      "Ġwhitespace": 1392,
      "Ġvers": 1393,
      "inked": 1394,
      "Ġinstan": 1395,
      "cord": 1396,
      "fact": 1397,
      "array": 1398,
      "Ġutilize": 1399,
      "ST": 1400,
      "Ġrepresentation": 1401,
      "Ġtype": 1402,
      "son": 1403,
      "ML": 1404,
      "Ġfilter": 1405,
      "emp": 1406,
      "ose": 1407,
      "ĠASCII": 1408,
      ".\"": 1409,
      "leq": 1410,
      "ield": 1411,
      "av": 1412,
      "sius": 1413,
      "ery": 1414,
      "Ġdetermines": 1415,
      "iling": 1416,
      "Ġlast": 1417,
      "Ġtravers": 1418,
      "Ġincreasing": 1419,
      "():": 1420,
      "Ġintervals": 1421,
      "Ġversion": 1422,
      "Ġdeno": 1423,
      "data": 1424,
      "Ġloo": 1425,
      "ĠAdditionally": 1426,
      "Ġtake": 1427,
      "Ġexcep": 1428,
      "Ġnext": 1429,
      "ssume": 1430,
      "Ġbrac": 1431,
      "Ġaddition": 1432,
      "ice": 1433,
      "ex": 1434,
      "ĠDe": 1435,
      "Ġwhen": 1436,
      "Ġsublist": 1437,
      "blem": 1438,
      "cle": 1439,
      "element": 1440,
      "Ġcheck": 1441,
      "edian": 1442,
      "Ġcorrectly": 1443,
      "Ġtop": 1444,
      "Ġout": 1445,
      "Ġcap": 1446,
      "Ġsupp": 1447,
      "Ġpermut": 1448,
      "quences": 1449,
      "},": 1450,
      "nged": 1451,
      "Ġtest": 1452,
      "ders": 1453,
      "Ġ/": 1454,
      "Ġauthor": 1455,
      "Ġhex": 1456,
      "cor": 1457,
      "ĠWrite": 1458,
      "ĠX": 1459,
      "ĠAssume": 1460,
      "Ġhighest": 1461,
      "Ex": 1462,
      "cted": 1463,
      "ĠHT": 1464,
      "Ġrota": 1465,
      "sions": 1466,
      "Ġcombin": 1467,
      "Given": 1468,
      "Ġproblem": 1469,
      "Ġfrequencies": 1470,
      "ico": 1471,
      "Ġlines": 1472,
      "Ġmake": 1473,
      "Ġna": 1474,
      "Ġcurrent": 1475,
      "Ġrequired": 1476,
      "Ġprefix": 1477,
      "Ġdict": 1478,
      "tions": 1479,
      "Ġspecial": 1480,
      "Ġlinked": 1481,
      "Ġgenerates": 1482,
      "Ġlimit": 1483,
      "Ġconc": 1484,
      "Ġapproach": 1485,
      "Ġprogramming": 1486,
      "Ġconsider": 1487,
      "Ġfewer": 1488,
      "Ġcomm": 1489,
      "Ġnumeric": 1490,
      "Ġforward": 1491,
      "ale": 1492,
      "Ġmodified": 1493,
      "Ġneed": 1494,
      "ility": 1495,
      "priate": 1496,
      "Ġpat": 1497,
      "MM": 1498,
      "Ġappropriate": 1499,
      "ork": 1500,
      "agram": 1501,
      "very": 1502,
      "ĠThis": 1503,
      "ant": 1504,
      "Ġsquares": 1505,
      "Ġcar": 1506,
      "empty": 1507,
      "Ġdep": 1508,
      "Ġunders": 1509,
      "cess": 1510,
      "Ġtri": 1511,
      "yp": 1512,
      "play": 1513,
      "Ġrecursion": 1514,
      "Ġsi": 1515,
      "Ġtrailing": 1516,
      "dition": 1517,
      "Ġaccept": 1518,
      "Ġperformance": 1519,
      "Ġbracke": 1520,
      "Ġ\\).": 1521,
      "Ġpreserving": 1522,
      "Ġwid": 1523,
      "ah": 1524,
      "order": 1525,
      "ibr": 1526,
      "Ġconverted": 1527,
      "Ġinstance": 1528,
      "Ġwidth": 1529,
      "Ġdiscount": 1530,
      "gh": 1531,
      "ĠHTML": 1532,
      "by": 1533,
      "Ġbackward": 1534,
      "decimal": 1535,
      "Ġfactor": 1536,
      "tural": 1537,
      "lst": 1538,
      "Ġgraph": 1539,
      "Ġmar": 1540,
      "Ġcir": 1541,
      "Ġtransform": 1542,
      "place": 1543,
      "Ġcreate": 1544,
      "heit": 1545,
      "renheit": 1546,
      "ahrenheit": 1547,
      "Ġlibr": 1548,
      "clu": 1549,
      "graph": 1550,
      "olean": 1551,
      "alary": 1552,
      "Ġanagram": 1553,
      "ights": 1554,
      "Ġitems": 1555,
      "of": 1556,
      "Ġletter": 1557,
      "ute": 1558,
      "Ġcondition": 1559,
      "ves": 1560,
      "velo": 1561,
      "Ġach": 1562,
      "elf": 1563,
      "ĠIPv": 1564,
      "Ġevery": 1565,
      "ĠBook": 1566,
      "Ġtraversal": 1567,
      "izes": 1568,
      "ature": 1569,
      "elsius": 1570,
      "Ġitself": 1571,
      "ĠY": 1572,
      "ho": 1573,
      "Ġboolean": 1574,
      "ough": 1575,
      "Ġdifference": 1576,
      "Ġoccurrences": 1577,
      "Ġ25": 1578,
      "Ġthen": 1579,
      "Ġscore": 1580,
      "Ġnatural": 1581,
      "art": 1582,
      "elements": 1583,
      "Ġmedian": 1584,
      "Ġensure": 1585,
      "full": 1586,
      "here": 1587,
      "cent": 1588,
      "Ġround": 1589,
      "tric": 1590,
      "len": 1591,
      "led": 1592,
      "Ġextrac": 1593,
      "Ġfrequent": 1594,
      "Ġpattern": 1595,
      "Ġinner": 1596,
      "mb": 1597,
      "sis": 1598,
      "Note": 1599,
      "ceed": 1600,
      "cores": 1601,
      "Ġprices": 1602,
      "Ġdenotes": 1603,
      "Ġscores": 1604,
      "li": 1605,
      "Ġaccepts": 1606,
      "Ġconstruct": 1607,
      "gs": 1608,
      "Ġhexa": 1609,
      "sor": 1610,
      "Write": 1611,
      "Ġmaintaining": 1612,
      "ning": 1613,
      "Ġtre": 1614,
      "strings": 1615,
      "uring": 1616,
      "Ġint": 1617,
      "Ġemployee": 1618,
      "Ġarguments": 1619,
      "Ġextract": 1620,
      "cording": 1621,
      "Ġdepth": 1622,
      "alpha": 1623,
      "sub": 1624,
      "rid": 1625,
      "ava": 1626,
      "Ġdisplay": 1627,
      "Ġgo": 1628,
      "fully": 1629,
      "Ġrun": 1630,
      "Ġreversed": 1631,
      "max": 1632,
      "----": 1633,
      "Ġsequences": 1634,
      "aces": 1635,
      "Ġamount": 1636,
      "Ġaccording": 1637,
      "Ġscript": 1638,
      "Ġage": 1639,
      "pa": 1640,
      "Ġappearance": 1641,
      "time": 1642,
      "Ġhexadecimal": 1643,
      "vent": 1644,
      "ple": 1645,
      "Ġru": 1646,
      "hed": 1647,
      "date": 1648,
      "Ġpreced": 1649,
      "Ġoperator": 1650,
      "ical": 1651,
      "Ġreg": 1652,
      "ling": 1653,
      "Ġremoves": 1654,
      "end": 1655,
      "ability": 1656,
      "aten": 1657,
      "year": 1658,
      "25": 1659,
      "Ġexceed": 1660,
      "gle": 1661,
      "Ġmatter": 1662,
      "Ġtemperatures": 1663,
      "Ġrepe": 1664,
      "ĠCelsius": 1665,
      "fe": 1666,
      "Ġmean": 1667,
      "99": 1668,
      "**": 1669,
      "Ġsubarray": 1670,
      "ments": 1671,
      "lap": 1672,
      "Ġ15": 1673,
      "ird": 1674,
      "even": 1675,
      "Ġfour": 1676,
      "Ġvalidate": 1677,
      "ats": 1678,
      "Ġproper": 1679,
      "bly": 1680,
      "Ġsn": 1681,
      "Ġperforms": 1682,
      "entences": 1683,
      "common": 1684,
      "Ġplay": 1685,
      "Ġver": 1686,
      "Ġadj": 1687,
      "Ġdigit": 1688,
      "nging": 1689,
      "Ġpower": 1690,
      "Ġfunctional": 1691,
      "ords": 1692,
      "])": 1693,
      "changed": 1694,
      "Ġoperation": 1695,
      "Ġcolor": 1696,
      "thme": 1697,
      "Ġreturning": 1698,
      "Ġunchanged": 1699,
      "thmetic": 1700,
      "Ġbuild": 1701,
      "fect": 1702,
      "version": 1703,
      "Ġremoving": 1704,
      "nam": 1705,
      "Ġaddresses": 1706,
      "ular": 1707,
      "rithmetic": 1708,
      "action": 1709,
      "are": 1710,
      "own": 1711,
      "Ġconcaten": 1712,
      "Ġidentify": 1713,
      "Ġtyp": 1714,
      "other": 1715,
      "Ġwri": 1716,
      "Ġread": 1717,
      "Ġarithmetic": 1718,
      "Ġchild": 1719,
      "sum": 1720,
      "Ġgrace": 1721,
      ":**": 1722,
      "Ġgracefully": 1723,
      "imeter": 1724,
      "Ġgrou": 1725,
      "ays": 1726,
      "stem": 1727,
      "Ġyield": 1728,
      "ĠReturns": 1729,
      "ze": 1730,
      "Ġ'(": 1731,
      "palind": 1732,
      "Ġconstructs": 1733,
      "Ġ')": 1734,
      "vi": 1735,
      "orld": 1736,
      "ĠCS": 1737,
      "Ġsc": 1738,
      "Ġca": 1739,
      "Ġsim": 1740,
      "length": 1741,
      "fore": 1742,
      "soci": 1743,
      "ĠWords": 1744,
      "Ġcont": 1745,
      "Your": 1746,
      "Ġseconds": 1747,
      "ĠJava": 1748,
      "Ġanagrams": 1749,
      "Ġdirectly": 1750,
      "Ġassoci": 1751,
      "Ġmodify": 1752,
      "Ġgrid": 1753,
      "ĠNo": 1754,
      "Ġcolumn": 1755,
      "Ġsalary": 1756,
      "number": 1757,
      "Ġgenerator": 1758,
      "ded": 1759,
      "Ġerrors": 1760,
      "Ġplaces": 1761,
      "ped": 1762,
      "Ġrules": 1763,
      "Ġthird": 1764,
      "ello": 1765,
      "Ġfra": 1766,
      "tigu": 1767,
      "tiguous": 1768,
      "Ġrows": 1769,
      "Ġvariable": 1770,
      "Ġquery": 1771,
      "ake": 1772,
      "queue": 1773,
      "ored": 1774,
      "sequence": 1775,
      "Ġignore": 1776,
      "Ġanother": 1777,
      "pro": 1778,
      "Ġdifferent": 1779,
      "Ġ{\"": 1780,
      "Ġcontiguous": 1781,
      "div": 1782,
      "ible": 1783,
      "ils": 1784,
      "Ġperfect": 1785,
      "Ġvary": 1786,
      "ĠCar": 1787,
      "Ġassociated": 1788,
      "(\"": 1789,
      "Ġterms": 1790,
      "Ġlex": 1791,
      "Ġdivisors": 1792,
      "Ġreturned": 1793,
      "ong": 1794,
      "Ġsw": 1795,
      "decreasing": 1796,
      "izing": 1797,
      "Ġachieve": 1798,
      "Ġloops": 1799,
      "Ġsimple": 1800,
      "20": 1801,
      "Ġparti": 1802,
      "line": 1803,
      "sorted": 1804,
      "Ġsome": 1805,
      "Ġstructures": 1806,
      "ects": 1807,
      "Ġtable": 1808,
      "Ġprocess": 1809,
      "Ġbuilding": 1810,
      "ignature": 1811,
      "Ġformed": 1812,
      "ĠID": 1813,
      "Ġindicating": 1814,
      "Ġabs": 1815,
      "men": 1816,
      "Ġmarks": 1817,
      "icograph": 1818,
      "123": 1819,
      "Ġlengths": 1820,
      "not": 1821,
      "centage": 1822,
      "Ġsystem": 1823,
      "Ġlexicograph": 1824,
      "Ġnumer": 1825,
      "Ġmap": 1826,
      "Ġvarious": 1827,
      "Ġtypes": 1828,
      "alcul": 1829,
      "ities": 1830,
      "XX": 1831,
      "Ġpreceding": 1832,
      "Ġunit": 1833,
      "Ġstrict": 1834,
      "Ġdivide": 1835,
      "Ġgu": 1836,
      "Ġopen": 1837,
      "tered": 1838,
      "Ġlibraries": 1839,
      "start": 1840,
      "termine": 1841,
      "Ġrais": 1842,
      "read": 1843,
      "De": 1844,
      "erson": 1845,
      "Ġcompre": 1846,
      "ia": 1847,
      "ĠFahrenheit": 1848,
      "19": 1849,
      "Ġ..": 1850,
      "ustom": 1851,
      "Ġcompar": 1852,
      "Ġunderscores": 1853,
      "hes": 1854,
      "Ġdecor": 1855,
      "Ġwriting": 1856,
      "Ġextracts": 1857,
      "Ġroll": 1858,
      "Ġav": 1859,
      "Ġgame": 1860,
      "Ġapplication": 1861,
      "ĠCon": 1862,
      "Ġaccount": 1863,
      "45": 1864,
      "Ġperimeter": 1865,
      "ĠIt": 1866,
      "Ġmemo": 1867,
      "Ġstrictly": 1868,
      "Ġbefore": 1869,
      "Ġdimen": 1870,
      "Ġrespectively": 1871,
      "sentence": 1872,
      "Ġsets": 1873,
      "txt": 1874,
      "Ġignored": 1875,
      "ital": 1876,
      "Ġmatch": 1877,
      "Ġrounded": 1878,
      "Ġoptimize": 1879,
      "Ġsentences": 1880,
      "all": 1881,
      "Function": 1882,
      "Ġsubsequent": 1883,
      "ĠK": 1884,
      "Ġparenthesis": 1885,
      "Ġfollowed": 1886,
      "ucl": 1887,
      "Ġzeros": 1888,
      "Ġadditional": 1889,
      "Ġpub": 1890,
      "uclide": 1891,
      "ĠBST": 1892,
      "ection": 1893,
      "uclidean": 1894,
      "Ġbrackets": 1895,
      "integ": 1896,
      "Ġ30": 1897,
      "Ġpositions": 1898,
      "Ġremaining": 1899,
      "ura": 1900,
      "Ġmerg": 1901,
      "Ġli": 1902,
      "ĠUse": 1903,
      "Ġconsidering": 1904,
      "Ġph": 1905,
      "char": 1906,
      "fo": 1907,
      "json": 1908,
      "palindrome": 1909,
      "ĠDetermine": 1910,
      "lf": 1911,
      "ĠEuclidean": 1912,
      "Hello": 1913,
      "Ġcolumns": 1914,
      "Ġbackwards": 1915,
      "Ġste": 1916,
      "Ġforwards": 1917,
      "base": 1918,
      "tails": 1919,
      "Ġconversion": 1920,
      "Ġmemoization": 1921,
      "Ġradi": 1922,
      "low": 1923,
      "tit": 1924,
      "valu": 1925,
      "olute": 1926,
      "100": 1927,
      "Ġpot": 1928,
      "ĠSignature": 1929,
      "ĠCSV": 1930,
      "Ġpotenti": 1931,
      "ison": 1932,
      "Ġexclu": 1933,
      "Ġparse": 1934,
      "Ġweb": 1935,
      "Ġadjac": 1936,
      "Ġswap": 1937,
      "Ġstock": 1938,
      "Ġidentifi": 1939,
      "Ġexe": 1940,
      "Ġpermutation": 1941,
      "Ġinters": 1942,
      "Ġvis": 1943,
      "().": 1944,
      "Ġprints": 1945,
      "Ġsimul": 1946,
      "Ġiterative": 1947,
      "oth": 1948,
      "Ġable": 1949,
      "Ġhandling": 1950,
      "Ġwell": 1951,
      "Ġformul": 1952,
      "Ġfinal": 1953,
      "Ġimp": 1954,
      "fit": 1955,
      "duplic": 1956,
      "Ġabsolute": 1957,
      "Ġfinds": 1958,
      "Ġcomparison": 1959,
      "Ġgoal": 1960,
      "Ġobjects": 1961,
      "ule": 1962,
      "hell": 1963,
      "Ġsolve": 1964,
      "assi": 1965,
      "')": 1966,
      "ages": 1967,
      "Ġused": 1968,
      "//": 1969,
      "Ġcapital": 1970,
      "ency": 1971,
      "lapping": 1972,
      "nsure": 1973,
      "Ġdimensions": 1974,
      "ents": 1975,
      "Ġthose": 1976,
      "Ġparameter": 1977,
      "ĠTree": 1978,
      "oc": 1979,
      "Ġfibonacci": 1980,
      "Node": 1981,
      "Ġ#": 1982,
      "Ġevalu": 1983,
      "hema": 1984,
      "sest": 1985,
      "angu": 1986,
      "fre": 1987,
      "}.": 1988,
      "hold": 1989,
      "Ġdou": 1990,
      "Ġopening": 1991,
      "min": 1992,
      "16": 1993,
      "Ġcri": 1994,
      "Ġmultiplication": 1995,
      "mes": 1996,
      "\")": 1997,
      "ivale": 1998,
      "def": 1999,
      "Ġexpon": 2000,
      "Ġnumeral": 2001,
      "ite": 2002,
      "Ġclosing": 2003,
      "Ġdoc": 2004,
      "Ġequivale": 2005,
      "aran": 2006,
      "ag": 2007,
      "Ġrepl": 2008,
      "Ġevent": 2009,
      "66": 2010,
      "YYYY": 2011,
      "Ġdesign": 2012,
      "Ġshi": 2013,
      "arante": 2014,
      "ĠEnsure": 2015,
      "ision": 2016,
      "Ġred": 2017,
      "Ġinser": 2018,
      "mbol": 2019,
      "Ġsupport": 2020,
      "largest": 2021,
      "ties": 2022,
      "Ġcustom": 2023,
      "abc": 2024,
      "dig": 2025,
      "Ġones": 2026,
      "Ġclassi": 2027,
      "Ġguarante": 2028,
      "htt": 2029,
      "log": 2030,
      "arra": 2031,
      "Ġformula": 2032,
      "Ġoperators": 2033,
      "ser": 2034,
      "ved": 2035,
      "Ġhow": 2036,
      "plan": 2037,
      "ways": 2038,
      "Ġgrades": 2039,
      "Ġtags": 2040,
      "Ġlike": 2041,
      "Ġplan": 2042,
      "DD": 2043,
      "Ġ32": 2044,
      "Ġprofit": 2045,
      "ob": 2046,
      "Ġheights": 2047,
      "Ġalways": 2048,
      "Ġpass": 2049,
      "ual": 2050,
      "Ġintersection": 2051,
      "([": 2052,
      "Ġbit": 2053,
      "Ġcateg": 2054,
      "QL": 2055,
      "hello": 2056,
      "Ġcriter": 2057,
      "Ġcomprehen": 2058,
      "Ġprin": 2059,
      "duplicates": 2060,
      "Ġsymbol": 2061,
      "CD": 2062,
      "Ġencoun": 2063,
      "Ġmodule": 2064,
      "Ġrearra": 2065,
      "Ġattribute": 2066,
      "Ġdevelo": 2067,
      "Ġ__": 2068,
      "tiv": 2069,
      "Ġbalance": 2070,
      "Ġmy": 2071,
      "ĠTreeNode": 2072,
      "))": 2073,
      "formation": 2074,
      "18": 2075,
      "Ġmerged": 2076,
      "Ġequivalent": 2077,
      "orts": 2078,
      "Ġbasic": 2079,
      "Ġsha": 2080,
      "Ġsepar": 2081,
      "Ġmathema": 2082,
      "test": 2083,
      "lished": 2084,
      "reshold": 2085,
      "alculator": 2086,
      "Ġ{'": 2087,
      "Ġlangu": 2088,
      "Ġsa": 2089,
      "table": 2090,
      "Create": 2091,
      "ĠGiven": 2092,
      "ep": 2093,
      "ith": 2094,
      "Ġpossibly": 2095,
      "Ġdecorator": 2096,
      "Ġvect": 2097,
      "planation": 2098,
      "Ġseries": 2099,
      "Ġcriteria": 2100,
      "atase": 2101,
      "ĠTo": 2102,
      "Ġpart": 2103,
      "Ġ('": 2104,
      "Ġ[]": 2105,
      "info": 2106,
      "Ġ\"\"": 2107,
      "hens": 2108,
      "cular": 2109,
      "Ġsign": 2110,
      "Ġreplac": 2111,
      "ĠRemo": 2112,
      "Ġguaranteed": 2113,
      "Ġgrade": 2114,
      "Ġprovide": 2115,
      "Ġexcept": 2116,
      "hat": 2117,
      "sort": 2118,
      "Ġmathematical": 2119,
      "rough": 2120,
      "oman": 2121,
      "Ġsubtr": 2122,
      "CS": 2123,
      "Ġpotential": 2124,
      "Ġstand": 2125,
      "clusive": 2126,
      "Ġranging": 2127,
      "Ġexten": 2128,
      "Ġdivisible": 2129,
      "Ġencountered": 2130,
      "|,": 2131,
      "Ġstudents": 2132,
      "hn": 2133,
      "ain": 2134,
      "Ġpalindromes": 2135,
      "ĠList": 2136,
      "ryp": 2137,
      "Ġrel": 2138,
      "Ġthrough": 2139,
      "Ġcircle": 2140,
      "vious": 2141,
      "han": 2142,
      "ĠRoman": 2143,
      "vowels": 2144,
      "ĠUn": 2145,
      "Ġflattened": 2146,
      "mployee": 2147,
      "ides": 2148,
      "Ġresults": 2149,
      "Ġpercentage": 2150,
      "ial": 2151,
      "oid": 2152,
      "Ġhead": 2153,
      "Ġdef": 2154,
      "Ġcre": 2155,
      "Ġ255": 2156,
      "Ġclean": 2157,
      "Ġperson": 2158,
      "Ġthreshold": 2159,
      "Ġcalc": 2160,
      "ru": 2161,
      "Ġdetails": 2162,
      "://": 2163,
      "bi": 2164,
      "file": 2165,
      "Example": 2166,
      "ically": 2167,
      "Ġstarts": 2168,
      "cal": 2169,
      "Ġdatase": 2170,
      "Ġhyp": 2171,
      "SB": 2172,
      "Ġinformation": 2173,
      "Ġenti": 2174,
      "gre": 2175,
      "Ġnecess": 2176,
      "Ġregular": 2177,
      "part": 2178,
      "Ġprevious": 2179,
      "Ġdy": 2180,
      "Ġsele": 2181,
      "Ġstate": 2182,
      "Ġ...,": 2183,
      "Ġcombinations": 2184,
      "idd": 2185,
      "tivity": 2186,
      "price": 2187,
      "Ġapply": 2188,
      "ence": 2189,
      "Script": 2190,
      "tead": 2191,
      "ĠRectangle": 2192,
      "values": 2193,
      "pected": 2194,
      "Ġ16": 2195,
      "Ġdele": 2196,
      "Ġdays": 2197,
      "ger": 2198,
      "Ġplayer": 2199,
      "Ġpermutations": 2200,
      "less": 2201,
      "tamp": 2202,
      "Ġgroup": 2203,
      "Ġdynam": 2204,
      "Ġradius": 2205,
      "Ġsen": 2206,
      "Ġcommas": 2207,
      "Ġclosest": 2208,
      "index": 2209,
      "Ġwas": 2210,
      "code": 2211,
      "Ġspl": 2212,
      "(),": 2213,
      "ult": 2214,
      "Ġdivisor": 2215,
      "Ġcombination": 2216,
      "Ġdice": 2217,
      "Ġhour": 2218,
      "Ġqueue": 2219,
      "lon": 2220,
      "Ġfrequently": 2221,
      "bitr": 2222,
      "Ġexcluding": 2223,
      "os": 2224,
      "Ġarbitr": 2225,
      "Ġpop": 2226,
      "Ġwould": 2227,
      "Ġmon": 2228,
      "indow": 2229,
      "11": 2230,
      "For": 2231,
      "Ġsupports": 2232,
      "Ġstandard": 2233,
      "size": 2234,
      "ĠEmployee": 2235,
      "py": 2236,
      "ĠJavaScript": 2237,
      "entical": 2238,
      "SBN": 2239,
      "pose": 2240,
      "nges": 2241,
      "ĠEx": 2242,
      "mong": 2243,
      "Ġjson": 2244,
      "unique": 2245,
      "NA": 2246,
      "ĠAuthor": 2247,
      "Ġ,": 2248,
      "ĠNote": 2249,
      "Ġnumerical": 2250,
      "ippe": 2251,
      "factor": 2252,
      "01": 2253,
      "title": 2254,
      "ĠSQL": 2255,
      "Ġcall": 2256,
      "item": 2257,
      "average": 2258,
      "ference": 2259,
      "Ġconditions": 2260,
      "ually": 2261,
      "ĠYear": 2262,
      "umul": 2263,
      "over": 2264,
      "trices": 2265,
      "ill": 2266,
      "Ġalong": 2267,
      "PI": 2268,
      "Ġidentical": 2269,
      "tices": 2270,
      "Ġamong": 2271,
      "where": 2272,
      "fibonacci": 2273,
      "Ġcompon": 2274,
      "Ġarbitrary": 2275,
      "Ġduring": 2276,
      "Ġ`": 2277,
      "Ġmerges": 2278,
      "Ġfloats": 2279,
      "Ġdots": 2280,
      "Ġraising": 2281,
      "bal": 2282,
      "168": 2283,
      "aly": 2284,
      "til": 2285,
      "Ġincre": 2286,
      "78": 2287,
      "Ġcannot": 2288,
      "ĠHow": 2289,
      "tant": 2290,
      "Ġidentifier": 2291,
      "Ġcard": 2292,
      "row": 2293,
      "Ġappropriately": 2294,
      "Ġbeing": 2295,
      "Ġ123": 2296,
      "integer": 2297,
      "col": 2298,
      "ca": 2299,
      "sitivity": 2300,
      "Ġtrian": 2301,
      "oded": 2302,
      "Ġemploy": 2303,
      "Ġmeaning": 2304,
      "23": 2305,
      "inclusive": 2306,
      "ippet": 2307,
      "alphanumeric": 2308,
      "Ġtie": 2309,
      "Ġensuring": 2310,
      "15": 2311,
      "Ġgenerated": 2312,
      "ĠAPI": 2313,
      "Ġmatrices": 2314,
      "Ġ[\"": 2315,
      "192": 2316,
      "ĠISBN": 2317,
      "SS": 2318,
      "Des": 2319,
      "Ġseg": 2320,
      "cution": 2321,
      "Ġnor": 2322,
      "Ġtimestamp": 2323,
      "sthen": 2324,
      "sthenes": 2325,
      "Ġdescri": 2326,
      "Ġ==": 2327,
      "comp": 2328,
      "iddle": 2329,
      "Ġplane": 2330,
      "Ġyears": 2331,
      "Ġdeveloping": 2332,
      "ĊĊ": 2333,
      "Ġrespon": 2334,
      "Explanation": 2335,
      "factors": 2336,
      "ever": 2337,
      "Ġcontent": 2338,
      "tree": 2339,
      "ove": 2340,
      "duct": 2341,
      "Ġtr": 2342,
      "Ġ')',": 2343,
      "Ġsole": 2344,
      "Ġunsorted": 2345,
      "Ġmix": 2346,
      "ross": 2347,
      "Ġbuildings": 2348,
      "Ġcell": 2349,
      "utes": 2350,
      "Ġdirectory": 2351,
      "ĠOther": 2352,
      "Ġconstructor": 2353,
      "Ġcompe": 2354,
      "Ġsolely": 2355,
      "frequen": 2356,
      "Ġalphabetical": 2357,
      "alphabetic": 2358,
      "Ġrob": 2359,
      "amel": 2360,
      "Ġcommand": 2361,
      "primes": 2362,
      "Ġwork": 2363,
      "Ġ19": 2364,
      "Ġlanguage": 2365,
      "Ġadhere": 2366,
      "partment": 2367,
      "Ġencryp": 2368,
      "digit": 2369,
      "Ġdataset": 2370,
      "Ġreadability": 2371,
      "add": 2372,
      "Ġ13": 2373,
      "Ġchildren": 2374,
      "Ġ'{": 2375,
      "ĠSieve": 2376,
      "ctions": 2377,
      "velop": 2378,
      "ĠEra": 2379,
      "Title": 2380,
      "Ġframe": 2381,
      "Ġstore": 2382,
      "tosthenes": 2383,
      "ĠEratosthenes": 2384,
      "matrix": 2385,
      "Ġcompeti": 2386,
      "Ġdynamic": 2387,
      "level": 2388,
      "Ġ'('": 2389,
      "Ġloop": 2390,
      "umulative": 2391,
      ");": 2392,
      "Ġbeg": 2393,
      "ug": 2394,
      "anti": 2395,
      "rest": 2396,
      "Ġsnippet": 2397,
      "longest": 2398,
      "sv": 2399,
      "bn": 2400,
      "Ġ120": 2401,
      "Ġproducts": 2402,
      "iod": 2403,
      "tation": 2404,
      "Ġmiddle": 2405,
      "Ġdomain": 2406,
      "Ġim": 2407,
      "Ġcapable": 2408,
      "Ġcumulative": 2409,
      "Ġshift": 2410,
      "Ġsensitivity": 2411,
      "cip": 2412,
      "Ġabove": 2413,
      "ĠFl": 2414,
      "arily": 2415,
      "Ġwindow": 2416,
      "Ġexpressions": 2417,
      "Ġmany": 2418,
      "Ġsnake": 2419,
      "Ġincludes": 2420,
      "Develop": 2421,
      "ject": 2422,
      "ohn": 2423,
      "ĠCalculator": 2424,
      "Ġfilename": 2425,
      "Ġreplaced": 2426,
      "Ġshor": 2427,
      "ĠDNA": 2428,
      "Ġrecursively": 2429,
      "Ġphone": 2430,
      "ak": 2431,
      "tter": 2432,
      "formed": 2433,
      "efficient": 2434,
      "Ġhyphens": 2435,
      "work": 2436,
      "ited": 2437,
      "Ġmonth": 2438,
      "Ġentr": 2439,
      "ĠOtherwise": 2440,
      "Ġfunctionality": 2441,
      "Ġserver": 2442,
      "Ġpur": 2443,
      "Ġperiod": 2444,
      "!\"": 2445,
      "Ġrotated": 2446,
      "aps": 2447,
      "Ġexceptions": 2448,
      "Ġconverting": 2449,
      "ĠSpeci": 2450,
      "Ġadjacent": 2451,
      "Design": 2452,
      "Ġcalled": 2453,
      "Ġsplit": 2454,
      "Ġmultiply": 2455,
      "uce": 2456,
      "Ġsubset": 2457,
      "ogram": 2458,
      "Ġsizes": 2459,
      "temperatu": 2460,
      "self": 2461,
      "squa": 2462,
      "Ġhtt": 2463,
      "Ġbytes": 2464,
      "Ġdocument": 2465,
      "Ġoutputs": 2466,
      "Ġlexicographical": 2467,
      "0000": 2468,
      "Ġorigin": 2469,
      "rected": 2470,
      "Ġpage": 2471,
      "raw": 2472,
      "Ġcity": 2473,
      "Ġdura": 2474,
      "icode": 2475,
      "ml": 2476,
      "Ġdot": 2477,
      "both": 2478,
      "Ġrepeated": 2479,
      "izer": 2480,
      "Ġsp": 2481,
      "Ġfunctionalities": 2482,
      "ĠInitial": 2483,
      "\\)": 2484,
      "ulation": 2485,
      "Ġexp": 2486,
      "Ġconstant": 2487,
      "Ġsell": 2488,
      "Ġ'(',": 2489,
      "ĠFlask": 2490,
      "Re": 2491,
      "Ġel": 2492,
      "author": 2493,
      "Ġdel": 2494,
      "Ġcalculations": 2495,
      "ied": 2496,
      "Ġpointers": 2497,
      "Ġfield": 2498,
      "Ġpoly": 2499,
      "ring": 2500,
      "ĠHowever": 2501,
      "set": 2502,
      "Ġmanage": 2503,
      "Ġsteps": 2504,
      "Ġmode": 2505,
      "Ġreplace": 2506,
      "ush": 2507,
      "Ġrece": 2508,
      "Ġsubsets": 2509,
      "Ġ'[": 2510,
      "ler": 2511,
      "times": 2512,
      "Ġbelow": 2513,
      "Ġenough": 2514,
      "Ġexecution": 2515,
      "Ġtriangle": 2516,
      "Ġminim": 2517,
      "Ġwhose": 2518,
      "esting": 2519,
      "Ġframework": 2520,
      "Ġcalculated": 2521,
      "Ġrelative": 2522,
      "Ġpaths": 2523,
      "Ġvector": 2524,
      "Ġsample": 2525,
      "mented": 2526,
      "Ġanaly": 2527,
      "core": 2528,
      "Ġ11": 2529,
      "Ġsublists": 2530,
      "ken": 2531,
      "Ġhist": 2532,
      "Ġpe": 2533,
      "ĠSample": 2534,
      "Ġenhan": 2535,
      "Ġavoid": 2536,
      "Ġbracket": 2537,
      "Ġvertices": 2538,
      "Ġinitializer": 2539,
      "path": 2540,
      "dis": 2541,
      "ĠUnicode": 2542,
      "Ġparses": 2543,
      "Ġ'}": 2544,
      "Ġcy": 2545,
      "Ġes": 2546,
      "sider": 2547,
      "Ġ']": 2548,
      "odd": 2549,
      "ches": 2550,
      "Ġdeep": 2551,
      "Ġstop": 2552,
      "Ġbeen": 2553,
      "Ġloc": 2554,
      "Ġmanner": 2555,
      "Ġnesting": 2556,
      "Ġfiles": 2557,
      "Ġ'{',": 2558,
      "Ġkn": 2559,
      "csv": 2560,
      "ĠSpecific": 2561,
      "None": 2562,
      "ĠQ": 2563,
      "Ġ.": 2564,
      "Ġdue": 2565,
      "Ġmulti": 2566,
      "Ġminutes": 2567,
      "ĠPro": 2568,
      "Ġacross": 2569,
      "user": 2570,
      "Ġ%": 2571,
      "Ġpost": 2572,
      "Ġcompetition": 2573,
      "ĠDo": 2574,
      "Ġcould": 2575,
      "'t": 2576,
      "ension": 2577,
      "CM": 2578,
      "ET": 2579,
      "Ġreal": 2580,
      "Ġupdate": 2581,
      "with": 2582,
      "Ġquanti": 2583,
      "Ġkeyword": 2584,
      "Ġhours": 2585,
      "Ġentire": 2586,
      "456": 2587,
      "ĠSpecifically": 2588,
      "Ġinv": 2589,
      "pre": 2590,
      "unc": 2591,
      "Ġdescrib": 2592,
      "und": 2593,
      "ail": 2594,
      "Ġdown": 2595,
      "coun": 2596,
      "Ġdatabase": 2597,
      "Ġrepeating": 2598,
      "mory": 2599,
      "divid": 2600,
      "Ġduration": 2601,
      "Ġsubtraction": 2602,
      "50": 2603,
      "ful": 2604,
      "ana": 2605,
      "Ġbuy": 2606,
      "Ġbyte": 2607,
      "email": 2608,
      "Ġke": 2609,
      "Ġwho": 2610,
      "grees": 2611,
      "ness": 2612,
      "inning": 2613,
      "('": 2614,
      "Ġindivid": 2615,
      "Ġslic": 2616,
      "come": 2617,
      "Ġtransaction": 2618,
      "vert": 2619,
      "Ġoption": 2620,
      "sh": 2621,
      "omin": 2622,
      "por": 2623,
      "lease": 2624,
      "ased": 2625,
      "Ġmade": 2626,
      "posi": 2627,
      "Ġbitwise": 2628,
      "Ġcomputation": 2629,
      "ĠHH": 2630,
      "ees": 2631,
      "no": 2632,
      "ily": 2633,
      "Ġ['": 2634,
      "Ġincor": 2635,
      "do": 2636,
      "Ġmanip": 2637,
      "Ġupd": 2638,
      "Ġlexicographically": 2639,
      "fficiency": 2640,
      "Ġfru": 2641,
      "names": 2642,
      "Ġnormal": 2643,
      "Ġlevels": 2644,
      "search": 2645,
      "Ġocte": 2646,
      "Ġretr": 2647,
      "Ġtransforms": 2648,
      "Ġproperties": 2649,
      "Ġappl": 2650,
      "Ġextension": 2651,
      "Ġsales": 2652,
      "Ġdegrees": 2653,
      "Invalid": 2654,
      "Ġmodul": 2655,
      "Ġ18": 2656,
      "Ġ14": 2657,
      "ick": 2658,
      "ault": 2659,
      "bit": 2660,
      "rone": 2661,
      "expression": 2662,
      "overlapping": 2663,
      "ĠRa": 2664,
      "Ġbits": 2665,
      "Ġencaps": 2666,
      "Ġunder": 2667,
      "Ġbetter": 2668,
      "Ġbar": 2669,
      "]]": 2670,
      "Ġoptimizing": 2671,
      "Ġconne": 2672,
      "pub": 2673,
      "ready": 2674,
      "the": 2675,
      "Ġcomprehensions": 2676,
      "lock": 2677,
      "Ġalphabe": 2678,
      "vie": 2679,
      "Ġvariables": 2680,
      "Ġprob": 2681,
      "Ġoverlapping": 2682,
      "Ġexponent": 2683,
      "finite": 2684,
      "html": 2685,
      "256": 2686,
      "To": 2687,
      "first": 2688,
      "Ġefficiency": 2689,
      "aba": 2690,
      "Ġmemory": 2691,
      "Ġobtain": 2692,
      "Ġalready": 2693,
      "Ġcamel": 2694,
      "Ġ-,": 2695,
      "Ġdouble": 2696,
      "30": 2697,
      "ify": 2698,
      "Ġangle": 2699,
      "dim": 2700,
      "Ġcolle": 2701,
      "init": 2702,
      "ories": 2703,
      "Ġrate": 2704,
      "ived": 2705,
      "Ġfull": 2706,
      "Ġ}": 2707,
      "Ġspecifications": 2708,
      "roneous": 2709,
      "Ġhistogram": 2710,
      "Ġimpro": 2711,
      "divide": 2712,
      "Ġindividual": 2713,
      "message": 2714,
      "side": 2715,
      "atest": 2716,
      "use": 2717,
      "ĠMe": 2718,
      "--------": 2719,
      "Ġleap": 2720,
      "Ġdates": 2721,
      "ĠGCD": 2722,
      "zero": 2723,
      "Ġcho": 2724,
      "Ġalphabetically": 2725,
      "Ġclassify": 2726,
      "example": 2727,
      "multip": 2728,
      "Ġpublication": 2729,
      "Ġrecord": 2730,
      "Ġappend": 2731,
      "ron": 2732,
      "IS": 2733,
      "Ġ&": 2734,
      "21": 2735,
      "product": 2736,
      "Ġmodels": 2737,
      "Ġmanually": 2738,
      "secon": 2739,
      "Ġfilters": 2740,
      "Ġyields": 2741,
      "Ġencapsul": 2742,
      "substring": 2743,
      "lists": 2744,
      "Ġshare": 2745,
      "BST": 2746,
      "Ġ'}',": 2747,
      "iter": 2748,
      "class": 2749,
      "ises": 2750,
      "Ġtech": 2751,
      ".)": 2752,
      "(-": 2753,
      "Ġdepartment": 2754,
      "area": 2755,
      "peed": 2756,
      "temp": 2757,
      "Ġsix": 2758,
      "Ġrotation": 2759,
      "Ġpie": 2760,
      "Ġplace": 2761,
      "ĠAdds": 2762,
      "Ġedges": 2763,
      "Ġenclo": 2764,
      "Ġenhance": 2765,
      "Ġlibrary": 2766,
      "Ġoccurring": 2767,
      "Ġder": 2768,
      "ĠRemove": 2769,
      "Ġlong": 2770,
      "Ġacc": 2771,
      "ank": 2772,
      "Ġway": 2773,
      "'m": 2774,
      "na": 2775,
      "Ġconcatenated": 2776,
      "lle": 2777,
      "Ġdenomin": 2778,
      "Ġproperly": 2779,
      "Ġapplying": 2780,
      "Ġstep": 2781,
      "hic": 2782,
      "ĠIns": 2783,
      "Ġmove": 2784,
      "\"]": 2785,
      "Ġoperate": 2786,
      "Ġcreating": 2787,
      "Ġreading": 2788,
      "ices": 2789,
      "Ġslicing": 2790,
      "ests": 2791,
      "Ġuses": 2792,
      "Ġrequest": 2793,
      "Case": 2794,
      "range": 2795,
      "}\".": 2796,
      "Ġtw": 2797,
      "Ġtriple": 2798,
      "ince": 2799,
      "fication": 2800,
      "Ġdoubly": 2801,
      "Ġ']'.": 2802,
      "ucted": 2803,
      "Ġtoken": 2804,
      "Ġip": 2805,
      "Ġmee": 2806,
      "icks": 2807,
      "Ġexecut": 2808,
      "lice": 2809,
      "Ġrunning": 2810,
      "Ġendpoint": 2811,
      "Examples": 2812,
      "ome": 2813,
      "Ġavail": 2814,
      "Ġmile": 2815,
      "arest": 2816,
      "Ġcomputed": 2817,
      "op": 2818,
      "Ġflattens": 2819,
      "Ġ200": 2820,
      "frequency": 2821,
      "Ġrobust": 2822,
      "Ġrandomly": 2823,
      "Ġag": 2824,
      "Ġusername": 2825,
      "Ġnotation": 2826,
      "left": 2827,
      "Ġisbn": 2828,
      "url": 2829,
      "').": 2830,
      "ehic": 2831,
      "Ġprocessing": 2832,
      "Ġ\"\"\"": 2833,
      "ĠAll": 2834,
      "Ġnecessarily": 2835,
      "Ġiterable": 2836,
      "dimension": 2837,
      "Ġdescribed": 2838,
      "if": 2839,
      "Ġchecks": 2840,
      "Ġsingly": 2841,
      "Ġshortest": 2842,
      "Ġ'['": 2843,
      "Ġconstraints": 2844,
      "from": 2845,
      ">>": 2846,
      "Ġpublished": 2847,
      "oti": 2848,
      "ĠRaises": 2849,
      "John": 2850,
      "Ġsumm": 2851,
      "33": 2852,
      "function": 2853,
      "Ġparticular": 2854,
      "789": 2855,
      "based": 2856,
      "Ġvisited": 2857,
      "255": 2858,
      "dimensional": 2859,
      "Ġgree": 2860,
      "999": 2861,
      "Ġlow": 2862,
      "cel": 2863,
      "Ġmixed": 2864,
      "defined": 2865,
      "draw": 2866,
      "Ġ[[": 2867,
      "Ġmeas": 2868,
      "temperature": 2869,
      "Ġmoving": 2870,
      "Ġdaily": 2871,
      "Ġpred": 2872,
      "List": 2873,
      "gon": 2874,
      "Ġsymbols": 2875,
      "ĠLCS": 2876,
      "Ġnu": 2877,
      "ĠInstead": 2878,
      "lt": 2879,
      "Ġgreatest": 2880,
      "Ġexception": 2881,
      "Ġadjacency": 2882,
      "Ġerroneous": 2883,
      "Ġhash": 2884,
      "ĠMethod": 2885,
      "']": 2886,
      "Ġsegment": 2887,
      "Ġbeginning": 2888,
      "ĠGET": 2889,
      "icksort": 2890,
      "Ġconstructed": 2891,
      "ading": 2892,
      "Ġaltern": 2893,
      "Ġtreat": 2894,
      "Ġexceeds": 2895,
      "abel": 2896,
      "cision": 2897,
      "ans": 2898,
      "Ġuntil": 2899,
      "Ġhel": 2900,
      "Ġcomma": 2901,
      "Ġbound": 2902,
      "Ġcomplete": 2903,
      "Ġevaluate": 2904,
      "cenari": 2905,
      "rate": 2906,
      "redit": 2907,
      "ands": 2908,
      "Ġgroups": 2909,
      "Ġscale": 2910,
      "Ġ\\)).": 2911,
      "write": 2912,
      "ĊĠĊ": 2913,
      "posit": 2914,
      "ource": 2915,
      "Ġutilizing": 2916,
      "64": 2917,
      "ype": 2918,
      "Ġavailable": 2919,
      "uc": 2920,
      "tom": 2921,
      "Ġ(\\": 2922,
      "Ġ>=": 2923,
      "Ġsk": 2924,
      "Ġpush": 2925,
      "urther": 2926,
      "Ġcategory": 2927,
      "vice": 2928,
      "31": 2929,
      "apple": 2930,
      "Ġtechn": 2931,
      "Name": 2932,
      "Ġcomponents": 2933,
      "Ġextra": 2934,
      "Ġcomprehension": 2935,
      "Ġlinear": 2936,
      "Ġprocessed": 2937,
      "Ġsubtree": 2938,
      "ress": 2939,
      "Ġ\"(": 2940,
      "Ġseparate": 2941,
      "ĠWorld": 2942,
      "undant": 2943,
      "Ġseparator": 2944,
      "ivision": 2945,
      "Ġencoded": 2946,
      "Ġcircular": 2947,
      "Ġcorresponds": 2948,
      "ants": 2949,
      "anana": 2950,
      "cum": 2951,
      "Ġworld": 2952,
      "nested": 2953,
      "Th": 2954,
      "Ġprintable": 2955,
      "tc": 2956,
      "Ġscenari": 2957,
      "Ġ36": 2958,
      "++": 2959,
      "Ġjob": 2960,
      "Ġdatetime": 2961,
      "Ġconcise": 2962,
      "reg": 2963,
      "Ġchalle": 2964,
      "Ġcapitalized": 2965,
      "Ġemployees": 2966,
      "Ġsides": 2967,
      "sign": 2968,
      "ĠIDs": 2969,
      "Ġusage": 2970,
      "ati": 2971,
      "Ġiss": 2972,
      "Ġ`,": 2973,
      "Ġobtained": 2974,
      "Construct": 2975,
      "Ġvarying": 2976,
      "tra": 2977,
      "Ġconfi": 2978,
      "Ġdetermin": 2979,
      "ehicle": 2980,
      "Ġetc": 2981,
      "ĠOutputs": 2982,
      "ĠOp": 2983,
      "24": 2984,
      "Ġmodulo": 2985,
      "Ġapplied": 2986,
      "$.": 2987,
      "Ġass": 2988,
      "Ġphr": 2989,
      "Ġcredit": 2990,
      "ĠRemoves": 2991,
      "Ġnearest": 2992,
      "Ġweight": 2993,
      "Ġquantity": 2994,
      "Ġques": 2995,
      "urate": 2996,
      "Ġenclosed": 2997,
      "make": 2998,
      "Ġmanipulation": 2999,
      "Ġdesigned": 3000,
      "sensitive": 3001,
      "ipher": 3002,
      "Can": 3003,
      "Ġcopy": 3004,
      "Ġdifferences": 3005,
      "Ġchange": 3006,
      "Ġpiece": 3007,
      "Ġtreated": 3008,
      "Ġextracted": 3009,
      "Ġ24": 3010,
      "umb": 3011,
      "discount": 3012,
      "positive": 3013,
      "book": 3014,
      "ĠInputs": 3015,
      "Ġcleaned": 3016,
      "Ġredundant": 3017,
      "otes": 3018,
      "Ġcompo": 3019,
      "Ġvery": 3020,
      "Ġachie": 3021,
      "ures": 3022,
      "Ġimprove": 3023,
      "Ġseq": 3024,
      "ration": 3025,
      "Ġaccurate": 3026,
      "32": 3027,
      "Ġswapped": 3028,
      "Ġalphabet": 3029,
      "celsius": 3030,
      "Ġentries": 3031,
      "lves": 3032,
      "ffix": 3033,
      "ĠAfter": 3034,
      "Ġfin": 3035,
      "integers": 3036,
      "Ġwant": 3037,
      "Ġreverses": 3038,
      "]\".": 3039,
      "ĠConsider": 3040,
      "Ġspeed": 3041,
      "rib": 3042,
      "Ġparticip": 3043,
      "][": 3044,
      "Ġraised": 3045,
      "Ġsyn": 3046,
      "Ġacces": 3047,
      "ctive": 3048,
      "bble": 3049,
      "Ġdefault": 3050,
      "student": 3051,
      "ĠAl": 3052,
      "Ġrotate": 3053,
      "GB": 3054,
      "Ġnecessary": 3055,
      "Ġfruit": 3056,
      "Ġformats": 3057,
      "Ġhttp": 3058,
      "Ġsmaller": 3059,
      "LCS": 3060,
      "tus": 3061,
      "ms": 3062,
      "balanced": 3063,
      "Ġtag": 3064,
      "Ġfix": 3065,
      "model": 3066,
      "Ġinstead": 3067,
      "cription": 3068,
      "Ġsuc": 3069,
      "Ġcipher": 3070,
      "occur": 3071,
      "Ġtasks": 3072,
      "eek": 3073,
      "Ġbubble": 3074,
      "inter": 3075,
      "Ġquicksort": 3076,
      "Ġ')'.": 3077,
      "Ġinten": 3078,
      "mplemented": 3079,
      "tings": 3080,
      "();": 3081,
      "Ġmatches": 3082,
      "Ġleaf": 3083,
      "cumference": 3084,
      "\\).": 3085,
      "most": 3086,
      "Ġside": 3087,
      "dist": 3088,
      "^{": 3089,
      "Ġrefactor": 3090,
      "Ġgen": 3091,
      "ared": 3092,
      "tract": 3093,
      "arning": 3094,
      "Ĥ¬": 3095,
      "GCD": 3096,
      "binary": 3097,
      "arger": 3098,
      "Ġcorner": 3099,
      "Ġ>>>": 3100,
      "Ġfraction": 3101,
      "Ġbot": 3102,
      "Ġtrees": 3103,
      "Ġindicates": 3104,
      "su": 3105,
      "True": 3106,
      "tax": 3107,
      "())": 3108,
      "Ġimplemented": 3109,
      "Ġhi": 3110,
      "ĠURLs": 3111,
      "Ġactu": 3112,
      "Ġrearranged": 3113,
      "Add": 3114,
      "ĠType": 3115,
      "Ġproduce": 3116,
      "Ġcalls": 3117,
      "cleoti": 3118,
      "Ġwhat": 3119,
      "Ġ+,": 3120,
      "Ġranges": 3121,
      "Ġpages": 3122,
      "world": 3123,
      "Ġlarger": 3124,
      "get": 3125,
      "ĠMo": 3126,
      "Ġreceive": 3127,
      "This": 3128,
      "14": 3129,
      "Ġvol": 3130,
      "Ġimage": 3131,
      "Ġai": 3132,
      "istic": 3133,
      "Ġsums": 3134,
      "Ġpostfix": 3135,
      "gine": 3136,
      "Ġcontin": 3137,
      "Ġunless": 3138,
      "keys": 3139,
      "Ġhandles": 3140,
      "percentage": 3141,
      "idth": 3142,
      "Ġhigh": 3143,
      "Ġquestion": 3144,
      "5000": 3145,
      "Ġtwice": 3146,
      "Ġgenerating": 3147,
      "}}": 3148,
      "âĤ¬": 3149,
      "Ġplayers": 3150,
      "HH": 3151,
      "als": 3152,
      "squares": 3153,
      "Ġtransformed": 3154,
      "ason": 3155,
      "Ġbl": 3156,
      "ry": 3157,
      "Ġinfinite": 3158,
      "Ġspecifically": 3159,
      "gree": 3160,
      "Ġ45": 3161,
      "Pro": 3162,
      "scores": 3163,
      "Ġequals": 3164,
      "ĠNon": 3165,
      "Ġresponse": 3166,
      "old": 3167,
      "6666": 3168,
      "Ġderived": 3169,
      "ific": 3170,
      "Ġtrue": 3171,
      "Ġblock": 3172,
      "current": 3173,
      "Ġsubsequences": 3174,
      "Ġdenominator": 3175,
      "Ġcoefficient": 3176,
      "Ġexpected": 3177,
      "ash": 3178,
      "Ġsimp": 3179,
      "smal": 3180,
      "Ġmultipli": 3181,
      "Ġaccomp": 3182,
      "Ġ90": 3183,
      "ediate": 3184,
      "banana": 3185,
      "Ġmark": 3186,
      "ĠZ": 3187,
      "Ġ\\),": 3188,
      "ader": 3189,
      "Ġachieved": 3190,
      "ĠBoth": 3191,
      "bug": 3192,
      "ube": 3193,
      "Ġprobability": 3194,
      "Ġusers": 3195,
      "Ġsimulate": 3196,
      "posed": 3197,
      "type": 3198,
      "Ġcomponent": 3199,
      "vide": 3200,
      "Ġconnected": 3201,
      "Ġinvol": 3202,
      "ek": 3203,
      "day": 3204,
      "Ġidentifiers": 3205,
      "sta": 3206,
      "Ġ80": 3207,
      "thing": 3208,
      "Ġrolls": 3209,
      "Ġbin": 3210,
      "lines": 3211,
      "Ġeas": 3212,
      "Ġlabel": 3213,
      "Ġ21": 3214,
      "alk": 3215,
      "ID": 3216,
      "Ġweights": 3217,
      "Ġcost": 3218,
      "Ġbottom": 3219,
      "bo": 3220,
      "Ġdefin": 3221,
      "cd": 3222,
      "Ġ60": 3223,
      "oin": 3224,
      "random": 3225,
      "Ġminimize": 3226,
      "ĠCa": 3227,
      "ket": 3228,
      "verse": 3229,
      "tex": 3230,
      "Ġdivides": 3231,
      "Ġpolygon": 3232,
      "ext": 3233,
      "plain": 3234,
      "coordin": 3235,
      "84": 3236,
      "Ġchallenge": 3237,
      "Ġwater": 3238,
      "ĠTypeError": 3239,
      "format": 3240,
      "Ġpurpose": 3241,
      "Ġrearrange": 3242,
      "ilar": 3243,
      "Ġtranspose": 3244,
      "Ġvowel": 3245,
      "Ġselect": 3246,
      "cause": 3247,
      "Ġaround": 3248,
      "ĠConvert": 3249,
      "esar": 3250,
      "ging": 3251,
      "Ġoccurs": 3252,
      "Ġ:": 3253,
      "Ġdire": 3254,
      "Ġactual": 3255,
      "zA": 3256,
      "Ġwere": 3257,
      "ayer": 3258,
      "ĠYYYY": 3259,
      "ĠAt": 3260,
      "character": 3261,
      "Ġsuffix": 3262,
      "vise": 3263,
      "Ġpartition": 3264,
      "Ġexponenti": 3265,
      "Ġcompare": 3266,
      "factorial": 3267,
      "Ġmight": 3268,
      "Ġstored": 3269,
      "Ġkee": 3270,
      "Ġincluded": 3271,
      "omial": 3272,
      "Ġcoding": 3273,
      "Ġcircumference": 3274,
      "Ġconson": 3275,
      "Ġoptional": 3276,
      "Ġreference": 3277,
      "Ġwins": 3278,
      "Ġold": 3279,
      "ertain": 3280,
      "smallest": 3281,
      "34": 3282,
      "Ġdeck": 3283,
      "Ġnucleoti": 3284,
      "prices": 3285,
      "twork": 3286,
      "Ġdie": 3287,
      "ĠOr": 3288,
      "Ġdisreg": 3289,
      "Ġabout": 3290,
      "Ġconcatenating": 3291,
      "Ġfive": 3292,
      "tein": 3293,
      "Ġkeywords": 3294,
      "ata": 3295,
      "pped": 3296,
      "Ġcomplement": 3297,
      "ired": 3298,
      "Ġwor": 3299,
      "Ġiterate": 3300,
      "Ġcycle": 3301,
      "wh": 3302,
      "Ġprecision": 3303,
      "[]": 3304,
      "ĠQu": 3305,
      "sa": 3306,
      "host": 3307,
      "gt": 3308,
      "Ġpredefined": 3309,
      "Ġconsecutively": 3310,
      "width": 3311,
      "Ġencrypted": 3312,
      "Ġassume": 3313,
      "coded": 3314,
      "tude": 3315,
      "Ġsubs": 3316,
      "Ġpeek": 3317,
      "ĠDivision": 3318,
      "Ġclosed": 3319,
      "Ġsyntax": 3320,
      "Ġregard": 3321,
      "Ġshif": 3322,
      "Ġsatisfy": 3323,
      "Ġdenoted": 3324,
      "Ġsignific": 3325,
      "clude": 3326,
      "Ġadding": 3327,
      "print": 3328,
      "Ġsl": 3329,
      "ircle": 3330,
      "timal": 3331,
      "den": 3332,
      "Ġbooks": 3333,
      "port": 3334,
      "Ġfa": 3335,
      "ota": 3336,
      "FF": 3337,
      "ads": 3338,
      "ĠPo": 3339,
      "Ġgreeting": 3340,
      "LIS": 3341,
      "speci": 3342,
      "Ġconfigu": 3343,
      "counted": 3344,
      "Ġkeeping": 3345,
      "Ġbecause": 3346,
      "any": 3347,
      "coding": 3348,
      "published": 3349,
      "OR": 3350,
      "rt": 3351,
      "Ġincorpor": 3352,
      "Ġdistrib": 3353,
      "Ġoutside": 3354,
      "Ġmileage": 3355,
      "ĠCaesar": 3356,
      "characters": 3357,
      "prefix": 3358,
      "Ġ40": 3359,
      "Ġmill": 3360,
      "Ġnewline": 3361,
      "ĠReplace": 3362,
      "mod": 3363,
      "color": 3364,
      "13": 3365,
      "Ġreach": 3366,
      "Ġbox": 3367,
      "tically": 3368,
      "Ġoptimal": 3369,
      "nk": 3370,
      "eries": 3371,
      "Ġans": 3372,
      "ĠAlso": 3373,
      "Ġvectors": 3374,
      "fahrenheit": 3375,
      "median": 3376,
      "Ġserial": 3377,
      "Ġprinted": 3378,
      "Ġ...": 3379,
      "repe": 3380,
      "22": 3381,
      "ĠXML": 3382,
      "Ġcounter": 3383,
      "ĠLe": 3384,
      "Ġinsert": 3385,
      "Ġlowest": 3386,
      "oted": 3387,
      "hour": 3388,
      "Ġ3999": 3389,
      "flo": 3390,
      "heights": 3391,
      "Ġattemp": 3392,
      "Ġ\".": 3393,
      "Ġcapitalization": 3394,
      "Ġphrase": 3395,
      "Ġstra": 3396,
      "ots": 3397,
      "agon": 3398,
      "Ġmess": 3399,
      "Ġsimulates": 3400,
      "Ġinserted": 3401,
      "Ġparsing": 3402,
      "Ġperforming": 3403,
      "ĠIndex": 3404,
      "Ġadded": 3405,
      "Ġ!": 3406,
      "Ġow": 3407,
      "Ġregardless": 3408,
      "Ġfields": 3409,
      "Ġoctet": 3410,
      "actorial": 3411,
      "Ġsuccess": 3412,
      "well": 3413,
      "Ġcategories": 3414,
      "Ġnull": 3415,
      "Ġ(\"": 3416,
      "Ġstatements": 3417,
      "atch": 3418,
      "multiply": 3419,
      "diction": 3420,
      "monstr": 3421,
      "Ġclock": 3422,
      "Ġmeet": 3423,
      "dep": 3424,
      "Ġmapping": 3425,
      "Ġvertex": 3426,
      "Ġlook": 3427,
      "ĠSt": 3428,
      "Ġjust": 3429,
      "comes": 3430,
      "Ġtry": 3431,
      "Ġcards": 3432,
      "mm": 3433,
      "Ġindent": 3434,
      "Ġinitializes": 3435,
      "7890": 3436,
      "Ġwalk": 3437,
      "How": 3438,
      "Ġunderscore": 3439,
      "Ġscenarios": 3440,
      "calhost": 3441,
      "Ġretrieve": 3442,
      "ĠCo": 3443,
      "Ġtreating": 3444,
      "flow": 3445,
      "Ġconcatenation": 3446,
      "Ġedit": 3447,
      "Ġdebug": 3448,
      "Co": 3449,
      "ĠInitialize": 3450,
      "sian": 3451,
      "gether": 3452,
      "points": 3453,
      "oo": 3454,
      "tware": 3455,
      "Ġoverlap": 3456,
      "yota": 3457,
      "iding": 3458,
      "Ġcontr": 3459,
      "ivot": 3460,
      "achine": 3461,
      "distance": 3462,
      "Ġtaken": 3463,
      "]+": 3464,
      "Ġintended": 3465,
      "Ġelse": 3466,
      "Ġmaps": 3467,
      "Ġinitialize": 3468,
      "ons": 3469,
      "Ġfib": 3470,
      "ism": 3471,
      "aa": 3472,
      "Ġtogether": 3473,
      "Ġge": 3474,
      "Ġknow": 3475,
      "ĠProvide": 3476,
      "ĠThree": 3477,
      "shtein": 3478,
      "uff": 3479,
      "Ġsignificant": 3480,
      "digits": 3481,
      ")]": 3482,
      "sided": 3483,
      "Ġending": 3484,
      "tributes": 3485,
      "ĠExpected": 3486,
      "Ġnetwork": 3487,
      "Ġchecking": 3488,
      "\").": 3489,
      "ĠCom": 3490,
      "Ġinorder": 3491,
      "ority": 3492,
      "Ġheader": 3493,
      "Ġ17": 3494,
      ".).": 3495,
      "Ġlocated": 3496,
      "Ġsubtract": 3497,
      "items": 3498,
      "indices": 3499,
      "Ġ//": 3500,
      "clo": 3501,
      "my": 3502,
      "Ġrectang": 3503,
      "Ġhalf": 3504,
      "square": 3505,
      "Ġissues": 3506,
      "Ġeasy": 3507,
      "sn": 3508,
      "Ac": 3509,
      "Ġcalculator": 3510,
      "$,": 3511,
      "Ġstatus": 3512,
      "Ġmessages": 3513,
      "Ġsee": 3514,
      "ĠSort": 3515,
      "Ġfalse": 3516,
      "Ġexpres": 3517,
      "Ġ42": 3518,
      "Ġincrement": 3519,
      "umber": 3520,
      "Ġmultiples": 3521,
      "String": 3522,
      "Ġchanging": 3523,
      "evenshtein": 3524,
      "Ġencapsulates": 3525,
      "car": 3526,
      "Ġadv": 3527,
      "qrt": 3528,
      "more": 3529,
      "Alice": 3530,
      "agraph": 3531,
      "Ġbest": 3532,
      "Ġsec": 3533,
      "ĠIndexError": 3534,
      "imiter": 3535,
      ")^": 3536,
      "Ġvolume": 3537,
      "ople": 3538,
      "Ġwin": 3539,
      "ternal": 3540,
      "Ġrect": 3541,
      "Ġoff": 3542,
      "Ġmeets": 3543,
      "Ġreadings": 3544,
      "ax": 3545,
      "Ġalter": 3546,
      "ending": 3547,
      "Ġroute": 3548,
      "let": 3549,
      "Ġpeak": 3550,
      "second": 3551,
      "Ġcube": 3552,
      "Ġreason": 3553,
      "Ġevaluated": 3554,
      "35": 3555,
      "Ġpivot": 3556,
      "Ġmeans": 3557,
      "Ġdirected": 3558,
      "Ġages": 3559,
      "site": 3560,
      "inate": 3561,
      "ĠFurther": 3562,
      "Ġprim": 3563,
      "Ġconditional": 3564,
      "Ġperformed": 3565,
      "Ġdefinition": 3566,
      "occurrences": 3567,
      "Ġcollection": 3568,
      "imp": 3569,
      "directed": 3570,
      "hex": 3571,
      "Ġrequests": 3572,
      "Ġtimestamps": 3573,
      "Ġexisting": 3574,
      "Ġown": 3575,
      "ream": 3576,
      "pop": 3577,
      "Ġfinding": 3578,
      "mme": 3579,
      "Ġ(,": 3580,
      "view": 3581,
      "Ġcomposed": 3582,
      "Ġindentation": 3583,
      "Ġdivided": 3584,
      "Ġref": 3585,
      "root": 3586,
      "amb": 3587,
      "nown": 3588,
      "Ġpredic": 3589,
      "nomial": 3590,
      "Ġsimilar": 3591,
      "mains": 3592,
      "Ġagain": 3593,
      "ish": 3594,
      "Ġinefficient": 3595,
      "ĠNe": 3596,
      "Ġhttps": 3597,
      "olla": 3598,
      "limit": 3599,
      "try": 3600,
      "ĠLevenshtein": 3601,
      "eor": 3602,
      "orolla": 3603,
      "score": 3604,
      "Ġdefine": 3605,
      "Ġtaking": 3606,
      "roman": 3607,
      "ĠMethods": 3608,
      "Ġcub": 3609,
      "ĠPr": 3610,
      "ĠRGB": 3611,
      "Ġ_": 3612,
      "Ġclassification": 3613,
      "Ġunits": 3614,
      "mit": 3615,
      "pair": 3616,
      "localhost": 3617,
      "ĠLCM": 3618,
      "eorge": 3619,
      "Ġpreserved": 3620,
      "bab": 3621,
      "tesian": 3622,
      "Ġexternal": 3623,
      "Ġpreviously": 3624,
      "Ġtrapped": 3625,
      "Ġqueries": 3626,
      "grade": 3627,
      "Ġdemonstr": 3628,
      "ump": 3629,
      "Ġsimpli": 3630,
      "Ġsur": 3631,
      "Ġneeded": 3632,
      "ĠName": 3633,
      "Ġinitialized": 3634,
      "Ġfun": 3635,
      "ĠDoe": 3636,
      "ression": 3637,
      "Ġrequire": 3638,
      "Ġcoordinate": 3639,
      "Ġconfiguration": 3640,
      "What": 3641,
      "Ġsetter": 3642,
      "Ġselected": 3643,
      "Ġfunc": 3644,
      "Ġpow": 3645,
      "Ġneeds": 3646,
      "FS": 3647,
      "Ġundirected": 3648,
      "Ġhum": 3649,
      "ĠRE": 3650,
      "ste": 3651,
      "Ġreversing": 3652,
      "Ġmath": 3653,
      "ĠCircle": 3654,
      "ĠCartesian": 3655,
      "Ġanalysis": 3656,
      "subtract": 3657,
      "Ġclockwise": 3658,
      "target": 3659,
      "Ġvisible": 3660,
      "ront": 3661,
      "Ġends": 3662,
      "pp": 3663,
      "ĠOrwell": 3664,
      "Ġcodes": 3665,
      "chan": 3666,
      "Ġbi": 3667,
      "Ġrewrite": 3668,
      "Ġexplain": 3669,
      "grades": 3670,
      "Ġupdated": 3671,
      "ĠHam": 3672,
      "Ġperiods": 3673,
      "Ġaccurately": 3674,
      "An": 3675,
      "Ġquotes": 3676,
      "ĠcamelCase": 3677,
      "mmetric": 3678,
      "ĠCSS": 3679,
      "special": 3680,
      "Ġlonger": 3681,
      "Ġear": 3682,
      "Ġcounting": 3683,
      "Ġlogic": 3684,
      "Ġhigher": 3685,
      "such": 3686,
      "down": 3687,
      "Ġinsertion": 3688,
      "tilize": 3689,
      "Ġsubstit": 3690,
      "ole": 3691,
      "Ġanswer": 3692,
      "mality": 3693,
      "Ġcalculation": 3694,
      "ĠAttributes": 3695,
      "Ġwra": 3696,
      "Ġport": 3697,
      "Ġfactorization": 3698,
      "sible": 3699,
      "licit": 3700,
      "Ġpolynomial": 3701,
      "ambda": 3702,
      "tre": 3703,
      "Ġrefact": 3704,
      "Ġprimality": 3705,
      "doc": 3706,
      "enerator": 3707,
      "ulate": 3708,
      "xx": 3709,
      "Ġtab": 3710,
      "Ġtransl": 3711,
      "cluding": 3712,
      "Ġexpressed": 3713,
      "frequencies": 3714,
      "Ġcand": 3715,
      "Ġnaive": 3716,
      "missing": 3717,
      "Ġknown": 3718,
      "ĠHe": 3719,
      "Ġmultiplied": 3720,
      "Ġlearning": 3721,
      "Ġadhe": 3722,
      "tand": 3723,
      "Ġmachine": 3724,
      "mic": 3725,
      "ĠPerson": 3726,
      "Ġlogical": 3727,
      "Ġoctets": 3728,
      "Ġfilled": 3729,
      "Calculator": 3730,
      "Car": 3731,
      "Ġsty": 3732,
      "Ġmultiplic": 3733,
      "Ġaccomplish": 3734,
      "Account": 3735,
      "Ġcomments": 3736,
      "Ġdeta": 3737,
      "hensive": 3738,
      "Ġupdates": 3739,
      "ered": 3740,
      "Ġcomprehensive": 3741,
      "77": 3742,
      "lear": 3743,
      "ĠHamming": 3744,
      "Ġways": 3745,
      "False": 3746,
      "ĠBank": 3747,
      "Ġvalidation": 3748,
      "ĠLu": 3749,
      "'),": 3750,
      "Ġblue": 3751,
      "Ġ')'": 3752,
      "ftware": 3753,
      "chars": 3754,
      "ww": 3755,
      "Ġencoding": 3756,
      "frequent": 3757,
      "Ġreplacing": 3758,
      "ĠModel": 3759,
      "Ġsince": 3760,
      "Ġgetter": 3761,
      "hable": 3762,
      "ols": 3763,
      "Ġdelimiter": 3764,
      "ÏĢ": 3765,
      "ang": 3766,
      "ĠAc": 3767,
      "Ġcategor": 3768,
      "Ġhaving": 3769,
      "import": 3770,
      "Ġincorrect": 3771,
      "Ġjoin": 3772,
      "Ġtraverse": 3773,
      "balance": 3774,
      "versal": 3775,
      "Ġtechnique": 3776,
      "Ġq": 3777,
      "Ġweek": 3778,
      "Ġ(+": 3779,
      "palindrom": 3780,
      "ĠBankAccount": 3781,
      "ĠPub": 3782,
      "Ġaccess": 3783,
      "diffe": 3784,
      "Ġ(/": 3785,
      "Ġadheres": 3786,
      "Ġexplicit": 3787,
      "Ġaut": 3788,
      "Ġdeleted": 3789,
      "Ġtriplets": 3790,
      "ĠPrints": 3791,
      "frac": 3792,
      "sentences": 3793,
      "Ġfront": 3794,
      "Ġassign": 3795,
      "ounding": 3796,
      "Ġcompany": 3797,
      "har": 3798,
      "Ġwithdraw": 3799,
      "Ġ),": 3800,
      "Ġmechan": 3801,
      "Ġparagraph": 3802,
      "Ġchun": 3803,
      "ances": 3804,
      "face": 3805,
      "Ġhelp": 3806,
      "seconds": 3807,
      "Ġparticipating": 3808,
      "pr": 3809,
      "readable": 3810,
      "details": 3811,
      "ĠFurthermore": 3812,
      "rency": 3813,
      "Ġconsole": 3814,
      "timize": 3815,
      "TP": 3816,
      "bb": 3817,
      "repeating": 3818,
      "ĠREST": 3819,
      "Ġentry": 3820,
      "Ġdequeue": 3821,
      "Ġexponentiation": 3822,
      "Ġevents": 3823,
      "ĠUtilize": 3824,
      "pi": 3825,
      "Ġwhereas": 3826,
      "Ġretrie": 3827,
      "Ġfall": 3828,
      "Ġ=>": 3829,
      "Ġhy": 3830,
      "Ġsubarrays": 3831,
      "Ġcertain": 3832,
      "Ġ34": 3833,
      "king": 3834,
      "Ġdesired": 3835,
      "like": 3836,
      "Ġshuff": 3837,
      "rity": 3838,
      "ighted": 3839,
      "enter": 3840,
      "tten": 3841,
      "Ġsquared": 3842,
      "ĠUT": 3843,
      "odes": 3844,
      "ĠSub": 3845,
      "Ġsoftware": 3846,
      "mis": 3847,
      "Ġfeature": 3848,
      "If": 3849,
      "last": 3850,
      "ĊĠ": 3851,
      "ĠRes": 3852,
      "Cannot": 3853,
      "ĠThese": 3854,
      "ER": 3855,
      "Ġcover": 3856,
      "Ġsymmetric": 3857,
      "Ġrolling": 3858,
      "Ġmet": 3859,
      "Ġ)": 3860,
      "layer": 3861,
      "Ġ[,": 3862,
      "Ġstatement": 3863,
      "Factorial": 3864,
      "difference": 3865,
      "IN": 3866,
      "Ġshow": 3867,
      "Ġdiagon": 3868,
      "erarch": 3869,
      "Ġbraces": 3870,
      "ĠFile": 3871,
      "yy": 3872,
      "XXXX": 3873,
      "Ġmoves": 3874,
      "quad": 3875,
      "Ġexceeding": 3876,
      "Ġappeared": 3877,
      "paces": 3878,
      "ĠVowels": 3879,
      "Ġ(),": 3880,
      "Ġscal": 3881,
      "Ġ},": 3882,
      "Ġsubstitution": 3883,
      "amount": 3884,
      "eb": 3885,
      "ones": 3886,
      "Pri": 3887,
      "Ġconcurrent": 3888,
      "Ġverify": 3889,
      "Ġ\"{": 3890,
      "Ġprecedence": 3891,
      "Ġexecute": 3892,
      "imple": 3893,
      "verages": 3894,
      "Ġcour": 3895,
      "Ġaccessed": 3896,
      "ched": 3897,
      "Ġmal": 3898,
      "Ġparts": 3899,
      "Ġhuman": 3900,
      "-]+": 3901,
      "ton": 3902,
      "Ġlocal": 3903,
      "âĢ": 3904,
      "Ġhierarch": 3905,
      "Ġcols": 3906,
      "denoted": 3907,
      "Ġ{,": 3908,
      "Ġtheta": 3909,
      "Ġsafe": 3910,
      "ashes": 3911,
      "address": 3912,
      "Ġrank": 3913,
      "city": 3914,
      "Ġlanguages": 3915,
      "enerate": 3916,
      "}{": 3917,
      "Ġpeople": 3918,
      "Ġconf": 3919,
      "emails": 3920,
      "stack": 3921,
      "Ġsource": 3922,
      "iled": 3923,
      "ĠOptimize": 3924,
      "Ġdete": 3925,
      "ques": 3926,
      "Ġproject": 3927,
      "Ġimm": 3928,
      "Ġprodu": 3929,
      "ey": 3930,
      "Ġ101": 3931,
      "Ġiteration": 3932,
      "two": 3933,
      "zz": 3934,
      "salary": 3935,
      "ivate": 3936,
      "Eng": 3937,
      "page": 3938,
      "dies": 3939,
      "ighb": 3940,
      "odify": 3941,
      "67": 3942,
      "Ġchanges": 3943,
      "Ġties": 3944,
      "elcome": 3945,
      "Ġrecords": 3946,
      "arthest": 3947,
      "Ġlis": 3948,
      "Ġretain": 3949,
      "Ġ28": 3950,
      "Ġ23": 3951,
      "ously": 3952,
      "Ġdiscounted": 3953,
      "cher": 3954,
      "Ġthread": 3955,
      "app": 3956,
      "ĠOn": 3957,
      "Ġparsed": 3958,
      "Ġrating": 3959,
      "Ġdiff": 3960,
      "Ġstrip": 3961,
      "Ġ10000": 3962,
      "Ġmeasure": 3963,
      "'ve": 3964,
      "Ne": 3965,
      "isbn": 3966,
      "Ġbool": 3967,
      "race": 3968,
      "closest": 3969,
      "card": 3970,
      "Ġfarthest": 3971,
      "Ġeffe": 3972,
      "Ġcolors": 3973,
      "Ġhalves": 3974,
      "Ġdeletions": 3975,
      "ĠSimple": 3976,
      "Ġbeha": 3977,
      "terns": 3978,
      "snake": 3979,
      "Ġcurrently": 3980,
      "traversal": 3981,
      "Ġsegments": 3982,
      "Ġworks": 3983,
      "tent": 3984,
      "Ġmerging": 3985,
      "Ġoverflow": 3986,
      "Ġimmediate": 3987,
      "__(": 3988,
      "ĠLuhn": 3989,
      "Ġtransformation": 3990,
      "Ġpotentially": 3991,
      "Ġmaintainability": 3992,
      "Ġhtml": 3993,
      "pat": 3994,
      "conds": 3995,
      "Ġunderstand": 3996,
      "entiment": 3997,
      "Ġstrateg": 3998,
      "Bu": 3999,
      "EL": 4000,
      "})": 4001,
      "ĠNode": 4002,
      "Ġmir": 4003,
      "Ġemb": 4004,
      "Ġdna": 4005,
      "power": 4006,
      "Ġformatting": 4007,
      "ĠInser": 4008,
      "Ġcoins": 4009,
      "ĠString": 4010,
      "Ġenqueue": 4011,
      "load": 4012,
      "Ġ/,": 4013,
      "check": 4014,
      "mer": 4015,
      "Ġtemp": 4016,
      "ĠThere": 4017,
      "Ġreduce": 4018,
      "123456": 4019,
      "Ġcoefficients": 4020,
      "Ġtur": 4021,
      "1010": 4022,
      "float": 4023,
      "non": 4024,
      "Ġinstances": 4025,
      "Ġradians": 4026,
      "ĠCalcul": 4027,
      "ĠAr": 4028,
      "Ġcustomer": 4029,
      ")).": 4030,
      "Ġprevent": 4031,
      "Ġchoice": 4032,
      "Ġpowers": 4033,
      "Ġinte": 4034,
      "Is": 4035,
      "ache": 4036,
      "Ġordered": 4037,
      "1984": 4038,
      "lot": 4039,
      "Ġsubject": 4040,
      "Ġlisted": 4041,
      "Ġcontents": 4042,
      "Ġnumerator": 4043,
      "temperatures": 4044,
      "acy": 4045,
      "Ġsure": 4046,
      "net": 4047,
      "Ġcombined": 4048,
      "atures": 4049,
      "bu": 4050,
      "Ġlim": 4051,
      "Ġinhe": 4052,
      "Ġboard": 4053,
      "tocol": 4054,
      "Ġdirection": 4055,
      "Ġdisregard": 4056,
      "Ġ26": 4057,
      "AB": 4058,
      "onus": 4059,
      "Ġtokens": 4060,
      "Ġproperty": 4061,
      "Ġbecomes": 4062,
      "ient": 4063,
      "Ġpositional": 4064,
      "Ġpurcha": 4065,
      "upper": 4066,
      "Ġmovie": 4067,
      "Ġcorrectness": 4068,
      "Ġhere": 4069,
      "Ġstream": 4070,
      "long": 4071,
      "lect": 4072,
      "cessing": 4073,
      "Ġprac": 4074,
      "Ġche": 4075,
      "Toyota": 4076,
      "generator": 4077,
      "Ġrobot": 4078,
      "ood": 4079,
      "Ġclose": 4080,
      "itude": 4081,
      "og": 4082,
      "Ġpack": 4083,
      "Ġvia": 4084,
      "sc": 4085,
      "ilities": 4086,
      "ĠVehicle": 4087,
      "Ġsci": 4088,
      "`.": 4089,
      "idate": 4090,
      "position": 4091,
      "Ġprinting": 4092,
      "}}},": 4093,
      "https": 4094,
      "greet": 4095,
      "Ġquad": 4096,
      "Ġunittest": 4097,
      "Ġselection": 4098,
      "Ġaverages": 4099,
      "known": 4100,
      "48": 4101,
      "ral": 4102,
      "70": 4103,
      "engine": 4104,
      "fine": 4105,
      "ĠPlease": 4106,
      "Ġla": 4107,
      "Ġfilenames": 4108,
      "Ġbrow": 4109,
      "cept": 4110,
      "Ġconcatenate": 4111,
      "ffect": 4112,
      "Ġproced": 4113,
      "Engine": 4114,
      "itles": 4115,
      "ĠCreate": 4116,
      "ili": 4117,
      "Ġleaving": 4118,
      "Ġcells": 4119,
      "Ġsig": 4120,
      "Ġtitles": 4121,
      "Ġwritten": 4122,
      "tio": 4123,
      "pacity": 4124,
      "Val": 4125,
      "Ġcalculating": 4126,
      "ture": 4127,
      "subsequence": 4128,
      "ĠExample": 4129,
      "Ġgreen": 4130,
      "lower": 4131,
      "Ġinfix": 4132,
      "Ġchoose": 4133,
      "jects": 4134,
      "Ġtriplet": 4135,
      "denti": 4136,
      "-----": 4137,
      "Ġrequires": 4138,
      "new": 4139,
      "!)": 4140,
      "gr": 4141,
      "Ġprivate": 4142,
      "39": 4143,
      "ĠMy": 4144,
      "Ġhelper": 4145,
      "ilter": 4146,
      "Ġmillise": 4147,
      "Ġprimes": 4148,
      "ends": 4149,
      "Ġevaluates": 4150,
      "osen": 4151,
      "Ġselling": 4152,
      "Ġneighb": 4153,
      "Ġtax": 4154,
      "Ġswaps": 4155,
      "Ġ(\\(": 4156,
      "ĠCan": 4157,
      "Ġanalyze": 4158,
      "using": 4159,
      "Ġ[],": 4160,
      "Ġmalformed": 4161,
      "Ġrearranging": 4162,
      "Ġdocstring": 4163,
      "Âł": 4164,
      "Ġkth": 4165,
      "Ġencryption": 4166,
      "ĠLeading": 4167,
      "Ġvehicle": 4168,
      "ĠXOR": 4169,
      "Ġnormalize": 4170,
      "Ġfixed": 4171,
      "Ġdelete": 4172,
      "alaries": 4173,
      "Ġ+=": 4174,
      "Ġreadable": 4175,
      "ĠHello": 4176,
      "Ġcomputational": 4177,
      "Ġcontrol": 4178,
      "Ġheaders": 4179,
      "Ġhyphen": 4180,
      "Ġsentiment": 4181,
      "ond": 4182,
      "aniti": 4183,
      "LCM": 4184,
      "Ġstrs": 4185,
      "Devise": 4186,
      "Ġdetermined": 4187,
      "struct": 4188,
      "Ġchosen": 4189,
      "Ġremainder": 4190,
      "Ġfig": 4191,
      "49": 4192,
      "PA": 4193,
      "gan": 4194,
      "ĠHTTP": 4195,
      "Ġdeposit": 4196,
      "vir": 4197,
      "ĠSimpleCalculator": 4198,
      "!\".": 4199,
      "Ġconsonants": 4200,
      "Ġcandies": 4201,
      "Ġworking": 4202,
      "Ġhashable": 4203,
      "Ġdone": 4204,
      "}\"": 4205,
      "Ġpatterns": 4206,
      "seq": 4207,
      "iral": 4208,
      "Ġguide": 4209,
      "Ar": 4210,
      "Ġintric": 4211,
      "rentheses": 4212,
      "filename": 4213,
      "Ġnormalized": 4214,
      "Ġfut": 4215,
      "prod": 4216,
      "XXX": 4217,
      "indexed": 4218,
      "Ġdecorates": 4219,
      "earch": 4220,
      "Ġprincip": 4221,
      "Ġ*": 4222,
      "Ġsaniti": 4223,
      "ark": 4224,
      "Ġtests": 4225,
      "ĠWhen": 4226,
      "Ġcontext": 4227,
      "iques": 4228,
      "Ġtransactions": 4229,
      "Ġlambda": 4230,
      "Ġ\"-": 4231,
      "imiters": 4232,
      "acri": 4233,
      "2023": 4234,
      "viron": 4235,
      "Ġrotates": 4236,
      "ĠInitialization": 4237,
      "Ġmeasures": 4238,
      "lar": 4239,
      "viation": 4240,
      "Ġshorter": 4241,
      "ventory": 4242,
      "Ġswapping": 4243,
      "Ġtrack": 4244,
      "Ġinvolves": 4245,
      "=\"": 4246,
      "Ġbegins": 4247,
      "Ġfactorials": 4248,
      "Ġimport": 4249,
      "trees": 4250,
      "Ġalternating": 4251,
      "Ġappearing": 4252,
      "Ġdevelop": 4253,
      "iew": 4254,
      "Ġ29": 4255,
      "Ġpython": 4256,
      "Ġmaj": 4257,
      "Ġ'-": 4258,
      "Ġheap": 4259,
      "Ġmodifying": 4260,
      "Ġ2023": 4261,
      "Ġrest": 4262,
      "ody": 4263,
      "ĠUp": 4264,
      "ĠQuick": 4265,
      "Ġpan": 4266,
      "irth": 4267,
      "Ġlogging": 4268,
      "Ġequation": 4269,
      "mber": 4270,
      "Ġmen": 4271,
      "Ġdescription": 4272,
      "Ġcities": 4273,
      "Ġgenre": 4274,
      "selves": 4275,
      "aging": 4276,
      "Ġadvanced": 4277,
      "_{": 4278,
      "pattern": 4279,
      "Ġteam": 4280,
      "Ġweighted": 4281,
      "ĠAlice": 4282,
      "Ġthemselves": 4283,
      "Ġinde": 4284,
      "Ġtechniques": 4285,
      "amp": 4286,
      "Ġ121": 4287,
      "Ġbounds": 4288,
      "Ġincrease": 4289,
      "cape": 4290,
      "Ġmechanism": 4291,
      "Ġgive": 4292,
      "Ġembed": 4293,
      "Ġentities": 4294,
      "Ġindividuals": 4295,
      "Ġsummary": 4296,
      "Ġ2020": 4297,
      "ĠÏĢ": 4298,
      "Ġhold": 4299,
      "Ġ\",": 4300,
      "Ġfuture": 4301,
      "fac": 4302,
      "height": 4303,
      "total": 4304,
      "89": 4305,
      "necess": 4306,
      "((": 4307,
      "we": 4308,
      "query": 4309,
      "Ġbehavi": 4310,
      "ĠPunctuation": 4311,
      "direct": 4312,
      "200": 4313,
      "atible": 4314,
      "Ġwinner": 4315,
      "orage": 4316,
      "imal": 4317,
      "Ġprotocol": 4318,
      "cogn": 4319,
      "Ġele": 4320,
      "Ġprog": 4321,
      "Ġunnecess": 4322,
      "ens": 4323,
      "Ġreac": 4324,
      "Ġ\"()": 4325,
      "top": 4326,
      "Ġstyle": 4327,
      "He": 4328,
      "gles": 4329,
      "Ġ).": 4330,
      "pect": 4331,
      "Ġrefactoring": 4332,
      "Ġ[(": 4333,
      "els": 4334,
      "Ġdistribution": 4335,
      "tup": 4336,
      "\"}": 4337,
      "Ġservice": 4338,
      "Ġchunk": 4339,
      "Ġbuying": 4340,
      "Ġencrypt": 4341,
      "Ġwrap": 4342,
      "ster": 4343,
      "Ġvalidated": 4344,
      "mat": 4345,
      "node": 4346,
      "Ġrespond": 4347,
      "George": 4348,
      "ascal": 4349,
      "==": 4350,
      "ids": 4351,
      "ĠDis": 4352,
      "Ġunnecessary": 4353,
      "...": 4354,
      "bility": 4355,
      "fl": 4356,
      "Ġreview": 4357,
      "Ġseparators": 4358,
      "Ġremains": 4359,
      "bound": 4360,
      "ĠÎ": 4361,
      "ives": 4362,
      "Ġdeal": 4363,
      "Ġexponents": 4364,
      "Ġpolar": 4365,
      "Ġ300": 4366,
      "Ġfiltering": 4367,
      "safe": 4368,
      "Ġmilliseconds": 4369,
      "Ġstatic": 4370,
      "move": 4371,
      "call": 4372,
      "Ġenviron": 4373,
      "60": 4374,
      "Ġencapsulate": 4375,
      "quer": 4376,
      "tics": 4377,
      "ĠThen": 4378,
      "Ġfeatures": 4379,
      "counts": 4380,
      "Ġcen": 4381,
      "Please": 4382,
      "Ġrule": 4383,
      "Ġdemonstrate": 4384,
      "65": 4385,
      "Ġdisregarded": 4386,
      "Ġsemic": 4387,
      "Ġspiral": 4388,
      "Corolla": 4389,
      "clic": 4390,
      "cm": 4391,
      "Ġelim": 4392,
      "Make": 4393,
      "::": 4394,
      "Ġclasses": 4395,
      "Ġsplitting": 4396,
      "ĠCl": 4397,
      "aced": 4398,
      "coordinate": 4399,
      "cial": 4400,
      "atin": 4401,
      "tate": 4402,
      "Ġtrying": 4403,
      "Ġdon": 4404,
      "Ġparent": 4405,
      "Ġadjust": 4406,
      "phone": 4407,
      "Ġsupposed": 4408,
      "Ġcreated": 4409,
      "cherry": 4410,
      "Consider": 4411,
      "Ġorgan": 4412,
      "Ġplus": 4413,
      "coordinates": 4414,
      "ĠSe": 4415,
      "Ġsemicol": 4416,
      "Ġsti": 4417,
      "Ġrectangles": 4418,
      "Generate": 4419,
      "Ġax": 4420,
      "riend": 4421,
      "ĠPer": 4422,
      "func": 4423,
      "olog": 4424,
      "zed": 4425,
      "ĠLinked": 4426,
      "elow": 4427,
      "Ġdelimiters": 4428,
      "ĠModify": 4429,
      "Ġsky": 4430,
      "40": 4431,
      "ather": 4432,
      "Ġrandomness": 4433,
      "arithm": 4434,
      "lled": 4435,
      "Ġ500": 4436,
      "IV": 4437,
      "aint": 4438,
      "Ġ(_": 4439,
      "fier": 4440,
      "Ġcomputing": 4441,
      "verter": 4442,
      "Ġhierarchy": 4443,
      "urity": 4444,
      "ĠIs": 4445,
      "Ġgood": 4446,
      "Ġconform": 4447,
      "abilities": 4448,
      "Sort": 4449,
      "Ġtrain": 4450,
      "Ġappending": 4451,
      "Ġcoin": 4452,
      "fra": 4453,
      "Ġbooleans": 4454,
      "Ġbars": 4455,
      "Ġnucleotides": 4456,
      "ense": 4457,
      "api": 4458,
      "parti": 4459,
      "itional": 4460,
      "NO": 4461,
      "\"],": 4462,
      "Ġlabels": 4463,
      "vin": 4464,
      "Ġsubclass": 4465,
      "SQL": 4466,
      "olution": 4467,
      "dictionary": 4468,
      "Ġinheri": 4469,
      "gen": 4470,
      "Ġcolon": 4471,
      "Ġlogarithm": 4472,
      "Ġcapacity": 4473,
      "greg": 4474,
      "sp": 4475,
      "ĠAny": 4476,
      "Ġcubes": 4477,
      "Ġnucleotide": 4478,
      "inser": 4479,
      "ĠGet": 4480,
      "Ġcontinu": 4481,
      "strs": 4482,
      "ĠTitle": 4483,
      "&#": 4484,
      "Additionally": 4485,
      "Ġpointer": 4486,
      "Ġthre": 4487,
      "Ġidentified": 4488,
      "Ġvalidity": 4489,
      "Ġbre": 4490,
      "ĠHand": 4491,
      "='": 4492,
      "tags": 4493,
      "divis": 4494,
      "ĠâĢ": 4495,
      "Ġequally": 4496,
      "ufac": 4497,
      "Ġencode": 4498,
      "combin": 4499,
      "Ġcommands": 4500,
      "02": 4501,
      "domain": 4502,
      "ĠStack": 4503,
      "ES": 4504,
      "ĠBe": 4505,
      "Could": 4506,
      "Ġ2500": 4507,
      "Ġmatching": 4508,
      "Ġsplits": 4509,
      "Ġdiagonal": 4510,
      "Ġstarted": 4511,
      "Ġcapitalize": 4512,
      "Ġsigns": 4513,
      "!,": 4514,
      "tional": 4515,
      "Ġwhole": 4516,
      "ĠWith": 4517,
      "05": 4518,
      "hef": 4519,
      "Ġratio": 4520,
      "Ġcourse": 4521,
      "Ġdescribe": 4522,
      "erse": 4523,
      "ouse": 4524,
      "Ġpad": 4525,
      "Ġcontained": 4526,
      "Ġclust": 4527,
      "]:": 4528,
      "permut": 4529,
      "Ġlocation": 4530,
      "filter": 4531,
      "Ġenvironment": 4532,
      "Ġrain": 4533,
      "Ġsimulating": 4534,
      "encoded": 4535,
      "Ġho": 4536,
      "Ġfruits": 4537,
      "Ġneither": 4538,
      "products": 4539,
      "Ġdec": 4540,
      "59": 4541,
      "Ġextensions": 4542,
      "Ġroots": 4543,
      "ĠBy": 4544,
      "Ġmanufac": 4545,
      "itable": 4546,
      "atform": 4547,
      "Ġindefinite": 4548,
      "Ġcache": 4549,
      "Ġexcluded": 4550,
      "Ġ22": 4551,
      "Ġuni": 4552,
      "Ġinstanti": 4553,
      "tle": 4554,
      "Ġpractices": 4555,
      "Ġ(+,": 4556,
      "ont": 4557,
      "Ġsubtrees": 4558,
      "sqrt": 4559,
      "Ġrecorded": 4560,
      "arding": 4561,
      "Ġdecre": 4562,
      "ange": 4563,
      "ĠMM": 4564,
      "Ġmultiplying": 4565,
      "fer": 4566,
      "Ġusually": 4567,
      "step": 4568,
      "izz": 4569,
      "arrays": 4570,
      "mitted": 4571,
      "username": 4572,
      "combinations": 4573,
      "Ġ?": 4574,
      "Ġdr": 4575,
      "content": 4576,
      "raft": 4577,
      "amation": 4578,
      "Ġalgorithms": 4579,
      "http": 4580,
      "ĠInitializes": 4581,
      "Ġsignature": 4582,
      "Ġrecogn": 4583,
      "Ġaltering": 4584,
      "cap": 4585,
      "Ġima": 4586,
      "quenti": 4587,
      "ĠNumber": 4588,
      "Ġhar": 4589,
      "Ġincorporate": 4590,
      "Ġproduces": 4591,
      "ignoring": 4592,
      "mission": 4593,
      "cursive": 4594,
      "Ġshared": 4595,
      "Ġalternate": 4596,
      "Ġ31": 4597,
      "users": 4598,
      "way": 4599,
      "Ġconven": 4600,
      "Ġarch": 4601,
      "Ġmiles": 4602,
      "Ġ27": 4603,
      "dentify": 4604,
      "Ġconstraint": 4605,
      "Ġjump": 4606,
      "Ġdatasets": 4607,
      "tery": 4608,
      "sy": 4609,
      "Ġlay": 4610,
      "board": 4611,
      "palindromes": 4612,
      "Ġ@": 4613,
      "AT": 4614,
      "Ġsuitable": 4615,
      "Ġembedded": 4616,
      "back": 4617,
      "Ġ!=": 4618,
      "|).": 4619,
      "Ġescape": 4620,
      "Ġplain": 4621,
      "Ġsalaries": 4622,
      "man": 4623,
      "Ġlight": 4624,
      "ural": 4625,
      "Ġgeneration": 4626,
      "ath": 4627,
      "Ġeffective": 4628,
      "ĠMake": 4629,
      "Ġinventory": 4630,
      "42": 4631,
      "101": 4632,
      "Ġskyline": 4633,
      "Ġinver": 4634,
      "Ġimmediately": 4635,
      "gment": 4636,
      "Ġruns": 4637,
      "Ġurl": 4638,
      "ian": 4639,
      "Ġinterpre": 4640,
      "Ġtabs": 4641,
      "nth": 4642,
      "Ġ($": 4643,
      "inters": 4644,
      "ift": 4645,
      "Ġindefinitely": 4646,
      "bits": 4647,
      "Ġcurrency": 4648,
      "formatted": 4649,
      "Ġsimplified": 4650,
      "Ġpresence": 4651,
      "Ġskip": 4652,
      "Ġbank": 4653,
      "Ġshifted": 4654,
      "ĠOnly": 4655,
      "ings": 4656,
      "ĠCheck": 4657,
      "AR": 4658,
      "Ġunknown": 4659,
      "dded": 4660,
      "mode": 4661,
      "Additional": 4662,
      "Ġdraw": 4663,
      "World": 4664,
      "Ġpix": 4665,
      "Ġ(.).": 4666,
      "Ġprefixed": 4667,
      "Ġdetermining": 4668,
      "Ġbehavior": 4669,
      "Ġminute": 4670,
      "Ġfiltered": 4671,
      "Ġ456": 4672,
      "Ġdiffer": 4673,
      "tual": 4674,
      "fig": 4675,
      "Ġnewlines": 4676,
      "Ġpreserve": 4677,
      "conquer": 4678,
      "ountain": 4679,
      "Ġtesting": 4680,
      "Ġwrites": 4681,
      "Ġstorage": 4682,
      "fications": 4683,
      "Ġsimulation": 4684,
      "Ġmanagement": 4685,
      "Ġsigned": 4686,
      "Ġpopulation": 4687,
      "Ġroom": 4688,
      "excluding": 4689,
      "Ġintricate": 4690,
      "ĠAge": 4691,
      "Ġ150": 4692,
      "dna": 4693,
      "Ġinversion": 4694,
      "depth": 4695,
      "late": 4696,
      "ux": 4697,
      "Ġ55": 4698,
      "peri": 4699,
      "1111": 4700,
      "raise": 4701,
      "Ġengine": 4702,
      "three": 4703,
      "child": 4704,
      "pecially": 4705,
      "steris": 4706,
      "fib": 4707,
      "exe": 4708,
      "Ġpangram": 4709,
      "ĠInclude": 4710,
      "icro": 4711,
      "parentheses": 4712,
      "vices": 4713,
      "xim": 4714,
      "EP": 4715,
      "parse": 4716,
      "Ġasteris": 4717,
      "Ġdistances": 4718,
      "oogle": 4719,
      "ĠHandle": 4720,
      "Ġsear": 4721,
      "ĠXXX": 4722,
      "Ġbutton": 4723,
      "Ġcoll": 4724,
      "ĠMan": 4725,
      "Ġscra": 4726,
      "Ġfit": 4727,
      "Ġself": 4728,
      "bytes": 4729,
      "Ġespecially": 4730,
      "ĠLIS": 4731,
      "Ġcounted": 4732,
      "Ġsever": 4733,
      "Ġconsonant": 4734,
      "Ġbirth": 4735,
      "Ġsecurity": 4736,
      "Ġstill": 4737,
      "Ġmone": 4738,
      "ective": 4739,
      "Ġpriority": 4740,
      "Ġsche": 4741,
      "Ġreplacement": 4742,
      "itch": 4743,
      "Ġ/.": 4744,
      "cing": 4745,
      "ometric": 4746,
      "Ġcandidate": 4747,
      "ĠGre": 4748,
      "Ġtried": 4749,
      "ulty": 4750,
      "Ġstoring": 4751,
      "Ġaccordingly": 4752,
      "Ġdividing": 4753,
      "ĠLatin": 4754,
      "Ġir": 4755,
      "ctor": 4756,
      "tance": 4757,
      "Return": 4758,
      "ĠSS": 4759,
      "umented": 4760,
      "ucas": 4761,
      "Ġdetailed": 4762,
      "roll": 4763,
      "Ġflip": 4764,
      "Ġten": 4765,
      "ane": 4766,
      "consecutive": 4767,
      "Ġutilizes": 4768,
      "cc": 4769,
      "Ġquantities": 4770,
      "Ġsequenti": 4771,
      "Ġcomb": 4772,
      "Ġdoesn": 4773,
      "ics": 4774,
      "Ġview": 4775,
      "punctuation": 4776,
      "Ġstones": 4777,
      "Ġ\\((": 4778,
      "ination": 4779,
      "Ġdisplays": 4780,
      "zone": 4781,
      "Ġcorrespond": 4782,
      "Ġnow": 4783,
      "bot": 4784,
      "either": 4785,
      "Ġaggreg": 4786,
      "uction": 4787,
      "Ġvisual": 4788,
      "Not": 4789,
      "ponse": 4790,
      "ote": 4791,
      "oud": 4792,
      "Ġoutcome": 4793,
      "Prime": 4794,
      "ified": 4795,
      "Ġclear": 4796,
      "Ġatt": 4797,
      "ĠConstruct": 4798,
      "equ": 4799,
      "Ġbonus": 4800,
      "Form": 4801,
      "ĠJohn": 4802,
      "istics": 4803,
      "Ġplaced": 4804,
      "nual": 4805,
      "ager": 4806,
      "ĠPascal": 4807,
      "Ġ'[',": 4808,
      "kets": 4809,
      "Ġfunds": 4810,
      "Ġreceived": 4811,
      "partite": 4812,
      "Ġplatform": 4813,
      ")\".": 4814,
      "74": 4815,
      "dice": 4816,
      "Ġglo": 4817,
      "oper": 4818,
      "Ġsuccessful": 4819,
      "Ġinterm": 4820,
      "Ġbig": 4821,
      "Ġcurly": 4822,
      "push": 4823,
      "ĠCalculate": 4824,
      "ĠData": 4825,
      "books": 4826,
      "gnore": 4827,
      "Ġedits": 4828,
      "'],": 4829,
      "ride": 4830,
      "Ġkil": 4831,
      "employee": 4832,
      "Ġkeep": 4833,
      "ighest": 4834,
      "ĠUser": 4835,
      "Ġ64": 4836,
      "clamation": 4837,
      "ĠDefine": 4838,
      "permutations": 4839,
      "Ġmag": 4840,
      "kes": 4841,
      "Ġratings": 4842,
      "dictionaries": 4843,
      "ĠComput": 4844,
      "comm": 4845,
      "Ġdoubled": 4846,
      "Comp": 4847,
      "\\[": 4848,
      "curacy": 4849,
      "cles": 4850,
      "Ġwhy": 4851,
      "cti": 4852,
      "Al": 4853,
      "descending": 4854,
      "Ġcontinue": 4855,
      "Ġpay": 4856,
      "ession": 4857,
      "Ġapplies": 4858,
      "documented": 4859,
      "pol": 4860,
      "Ġstructured": 4861,
      "Ġ],": 4862,
      "Ġdiacri": 4863,
      "ĠRetr": 4864,
      "gular": 4865,
      "Ġcenter": 4866,
      "Ġ{}.": 4867,
      "Ġtransposed": 4868,
      "ety": 4869,
      "ĠOpen": 4870,
      "Ġwon": 4871,
      "Ġmaze": 4872,
      "Ġadjus": 4873,
      "Ġalphabets": 4874,
      "active": 4875,
      "cho": 4876,
      "Ġprimarily": 4877,
      "Ġdeviation": 4878,
      "since": 4879,
      "recursive": 4880,
      "ĠSearch": 4881,
      "ips": 4882,
      "Ġ().": 4883,
      "Ġdimension": 4884,
      "Ġpublic": 4885,
      "axis": 4886,
      "Ġunion": 4887,
      "Ġreasoning": 4888,
      "iss": 4889,
      "camel": 4890,
      "ĠIgnore": 4891,
      "29": 4892,
      "Ġtrunc": 4893,
      "Array": 4894,
      ")$": 4895,
      "ĠSer": 4896,
      "utral": 4897,
      "Ġ212": 4898,
      "Ġarchite": 4899,
      "df": 4900,
      "quest": 4901,
      "Ġ(`": 4902,
      "Ġarrange": 4903,
      "Ġintermediate": 4904,
      "Ġcop": 4905,
      "Ġ400": 4906,
      "Ġindicate": 4907,
      "ĠÎ¸": 4908,
      "It": 4909,
      "rans": 4910,
      "Ġemploying": 4911,
      "Ġretrieves": 4912,
      "orted": 4913,
      "poses": 4914,
      "Ġfo": 4915,
      "Ġtested": 4916,
      "Ġdevice": 4917,
      "plit": 4918,
      "----------------": 4919,
      "Ġaim": 4920,
      "ĠTri": 4921,
      "tane": 4922,
      "Ġfet": 4923,
      "Ġmaking": 4924,
      "Ġsumming": 4925,
      "Do": 4926,
      "ustr": 4927,
      "fru": 4928,
      "hib": 4929,
      "Ġmagn": 4930,
      "ĠPEP": 4931,
      "Ġscenario": 4932,
      "ĠGra": 4933,
      "Ġincreases": 4934,
      "highest": 4935,
      "Ġfurther": 4936,
      "alend": 4937,
      "students": 4938,
      "]],": 4939,
      "ba": 4940,
      "Ġprepro": 4941,
      "Ġsomething": 4942,
      "trans": 4943,
      "1524": 4944,
      "Ġmodulus": 4945,
      "ĠRESTful": 4946,
      "alendar": 4947,
      "entific": 4948,
      "Ġbipartite": 4949,
      "ĠResponse": 4950,
      "Ġshape": 4951,
      "Ġprinciples": 4952,
      "ĠSalary": 4953,
      "intersection": 4954,
      "oreover": 4955,
      "append": 4956,
      "Ġnumerals": 4957,
      "nect": 4958,
      "ĠTe": 4959,
      "Ġforms": 4960,
      "remove": 4961,
      "Ġmaxim": 4962,
      "Ġincremented": 4963,
      "85": 4964,
      "ĠAN": 4965,
      "hip": 4966,
      "lev": 4967,
      "Ġrolled": 4968,
      "Ġgues": 4969,
      "ĠAd": 4970,
      "Ġstat": 4971,
      "ileage": 4972,
      "Ġcountry": 4973,
      "Ġstair": 4974,
      "subtree": 4975,
      "Ġdecoded": 4976,
      "Data": 4977,
      "Ġmountain": 4978,
      "dates": 4979,
      "Ġindexing": 4980,
      "Ġreversal": 4981,
      "Ġsubstitutions": 4982,
      "obj": 4983,
      "Ġapplic": 4984,
      "alle": 4985,
      "endent": 4986,
      "Ġdocstrings": 4987,
      "Ġassum": 4988,
      "Ġcompres": 4989,
      "ossible": 4990,
      "map": 4991,
      "ĠPoint": 4992,
      "Player": 4993,
      "Ġlogs": 4994,
      "YES": 4995,
      "HP": 4996,
      "Se": 4997,
      "ĠCode": 4998,
      "XC": 4999,
      "rows": 5000,
      "description": 5001,
      "which": 5002,
      "ĠUTF": 5003,
      "Ġtool": 5004,
      "Ġmapped": 5005,
      "cise": 5006,
      "Ġdecode": 5007,
      "Ġauto": 5008,
      "Ġ2000": 5009,
      "Ġwebpage": 5010,
      "Ġ{}": 5011,
      "uppercase": 5012,
      "cessive": 5013,
      "copy": 5014,
      "Ġintern": 5015,
      "radi": 5016,
      "Ġrepresentations": 5017,
      "ĠCould": 5018,
      "Ġdynamically": 5019,
      "\\.": 5020,
      "Ġcontinuous": 5021,
      "cus": 5022,
      "Ġrequirements": 5023,
      "Ġscientific": 5024,
      "Ġ''": 5025,
      "Ġtables": 5026,
      "Ġseveral": 5027,
      "ĠLucas": 5028,
      "Ġfac": 5029,
      "Ġrounds": 5030,
      "Ġaccuracy": 5031,
      "Ġtimezone": 5032,
      "Ġaffect": 5033,
      "args": 5034,
      "trailing": 5035,
      "duplicate": 5036,
      "\"\"": 5037,
      "80": 5038,
      "Ġcalling": 5039,
      "aw": 5040,
      "uci": 5041,
      "dicts": 5042,
      "Ġscheme": 5043,
      "Ġspam": 5044,
      "loyees": 5045,
      "Ġvariety": 5046,
      "ĠApp": 5047,
      "ĠPublished": 5048,
      "perimeter": 5049,
      "ĠInvalid": 5050,
      "Ġsecure": 5051,
      "Ġdisregarding": 5052,
      "Ġinside": 5053,
      "Ġsug": 5054,
      "90": 5055,
      "My": 5056,
      "Number": 5057,
      "vis": 5058,
      "Ġresi": 5059,
      "Ġtex": 5060,
      "Ġearli": 5061,
      "Ġ\"([": 5062,
      "Ġexclamation": 5063,
      "publication": 5064,
      "Ġissue": 5065,
      "66666666": 5066,
      "Ġprocedure": 5067,
      "Ġfails": 5068,
      "Ġ'@": 5069,
      "Ġdesigning": 5070,
      "Ġnature": 5071,
      "Ġ\\]": 5072,
      "gcd": 5073,
      "Ġ1949": 5074,
      "ĠStudent": 5075,
      "Ġ('.": 5076,
      "Ġcart": 5077,
      "Ġbases": 5078,
      "whitespace": 5079,
      "Ġagainst": 5080,
      "insertions": 5081,
      "letter": 5082,
      "Ġreport": 5083,
      "Ġexperi": 5084,
      "tools": 5085,
      "CMXC": 5086,
      "Ġprogression": 5087,
      "ality": 5088,
      "sity": 5089,
      "12345": 5090,
      "ĠKey": 5091,
      "ged": 5092,
      "Ġ^": 5093,
      "itially": 5094,
      "First": 5095,
      "Ġ2021": 5096,
      "Ġcluster": 5097,
      "Ġvotes": 5098,
      "Ġoptimization": 5099,
      "substrings": 5100,
      ")\\)": 5101,
      "umn": 5102,
      "New": 5103,
      "Formulate": 5104,
      "Ġapproxim": 5105,
      "Ġfew": 5106,
      "signed": 5107,
      "@[": 5108,
      "Sum": 5109,
      "Ġthreads": 5110,
      "Ġentirely": 5111,
      "Ġbrowser": 5112,
      "Ġmid": 5113,
      "()).": 5114,
      "Ġattempts": 5115,
      "racecar": 5116,
      "Ġanything": 5117,
      "Ġhis": 5118,
      "Ġdisplaying": 5119,
      "ĠUnix": 5120,
      "sales": 5121,
      "Ġcentr": 5122,
      "ire": 5123,
      "En": 5124,
      "Ġmultiplicities": 5125,
      "ĠPascalCase": 5126,
      "result": 5127,
      "Cl": 5128,
      "ave": 5129,
      "Ġinst": 5130,
      "Ġglobal": 5131,
      "output": 5132,
      "Ġclassified": 5133,
      "include": 5134,
      "Ġtoo": 5135,
      "Ġversions": 5136,
      "Ġ199": 5137,
      "avig": 5138,
      "Ġoffset": 5139,
      "inks": 5140,
      "->": 5141,
      "CT": 5142,
      "Ġsuccessfully": 5143,
      "aching": 5144,
      "kth": 5145,
      "Ġ}.": 5146,
      "oriz": 5147,
      "Ġmis": 5148,
      "ĠPHP": 5149,
      "Ġasterisks": 5150,
      "ĠGPA": 5151,
      "rel": 5152,
      "ĠFirst": 5153,
      "loc": 5154,
      "Ġsmall": 5155,
      "Ġoptionally": 5156,
      "Ġhyper": 5157,
      "Ġrounding": 5158,
      "88": 5159,
      "compass": 5160,
      "Ġstopped": 5161,
      "ĠPri": 5162,
      "tuples": 5163,
      "Ġitertools": 5164,
      "Ġinterest": 5165,
      "Ġcalendar": 5166,
      "matically": 5167,
      "elvin": 5168,
      "ĠIncre": 5169,
      "Ġadds": 5170,
      "ĠBinary": 5171,
      "Ġill": 5172,
      "Ġiterations": 5173,
      "Ġmodes": 5174,
      "pes": 5175,
      "tations": 5176,
      "ams": 5177,
      "],[": 5178,
      "Ġcomputations": 5179,
      "aks": 5180,
      "mplete": 5181,
      "Table": 5182,
      "Ġlot": 5183,
      "abor": 5184,
      "Ġparalle": 5185,
      "Ġcollections": 5186,
      "Ġexecuted": 5187,
      "Ġstaircase": 5188,
      "Ġrepeti": 5189,
      "Ġrectangular": 5190,
      "Ġangles": 5191,
      "Ġquadra": 5192,
      "Ġalign": 5193,
      "Ġtrim": 5194,
      "Ġsqrt": 5195,
      "Ġmirror": 5196,
      "alized": 5197,
      "Ġoptions": 5198,
      "ĠError": 5199,
      "Python": 5200,
      "Ġencompass": 5201,
      "87": 5202,
      "Ġdetect": 5203,
      "lies": 5204,
      "Fahrenheit": 5205,
      "ock": 5206,
      "idden": 5207,
      "Craft": 5208,
      "Ġinvok": 5209,
      "Ġsched": 5210,
      "ls": 5211,
      "\\.[": 5212,
      "Ġwebsite": 5213,
      "Ġlic": 5214,
      "Ġassigned": 5215,
      "Un": 5216,
      "Ġexclude": 5217,
      "Ġ86": 5218,
      "Ġrepeatedly": 5219,
      "'d": 5220,
      "riendly": 5221,
      "ned": 5222,
      "occurrence": 5223,
      "978": 5224,
      "ars": 5225,
      "config": 5226,
      "03": 5227,
      "55": 5228,
      "Ġpy": 5229,
      "Ġmicro": 5230,
      "ĠMoreover": 5231,
      "radius": 5232,
      "ĠPythonic": 5233,
      "Ġdenominations": 5234,
      "extension": 5235,
      "Ġminimal": 5236,
      "ĠQuickSort": 5237,
      "ĠHere": 5238,
      "www": 5239,
      "Ġnote": 5240,
      "oriented": 5241,
      "iles": 5242,
      "tt": 5243,
      "Ġroman": 5244,
      "Ġcompetitive": 5245,
      "Ġgreet": 5246,
      "Ġgeometric": 5247,
      "Ġterminate": 5248,
      "mpy": 5249,
      "default": 5250,
      "yond": 5251,
      "Ġmeeting": 5252,
      "oup": 5253,
      "Ġ']',": 5254,
      "ĠWhat": 5255,
      "Ġpredicate": 5256,
      "---": 5257,
      "ĠChef": 5258,
      "Ġleave": 5259,
      "]\"": 5260,
      "Ġ99": 5261,
      "When": 5262,
      "ĠChar": 5263,
      "Here": 5264,
      "-]+@[": 5265,
      "Ġpreorder": 5266,
      "ĠWithdraw": 5267,
      "-]+\\.[": 5268,
      "MCMXC": 5269,
      "Ġobjective": 5270,
      "error": 5271,
      "Ġpurchase": 5272,
      "+-]+@[": 5273,
      "Ġnavig": 5274,
      "tuple": 5275,
      "Ġthous": 5276,
      "Ġide": 5277,
      "Ġnumbered": 5278,
      "sets": 5279,
      "Ġsemicolons": 5280,
      "change": 5281,
      "endi": 5282,
      "Ġlicense": 5283,
      "Ġbeyond": 5284,
      "ferences": 5285,
      "Ġload": 5286,
      "Ġestim": 5287,
      "bre": 5288,
      "Ġwall": 5289,
      "Ġevaluation": 5290,
      "Ġdirections": 5291,
      "Ġshifts": 5292,
      "Ġbra": 5293,
      "Ġ5000": 5294,
      "Ġ12345": 5295,
      "Â°": 5296,
      "Ġ70": 5297,
      "Ġpackage": 5298,
      "Ġmut": 5299,
      "lec": 5300,
      "Ġinstr": 5301,
      "ounter": 5302,
      "Ġinterface": 5303,
      "dependent": 5304,
      "Ġinherits": 5305,
      "Ġmagnitude": 5306,
      "Of": 5307,
      "ules": 5308,
      "Ġpand": 5309,
      "acts": 5310,
      "ram": 5311,
      ";/": 5312,
      "Ġrotations": 5313,
      "Ġsimultane": 5314,
      "Ġannual": 5315,
      "uted": 5316,
      "Ġvertical": 5317,
      "Ġconversions": 5318,
      "Division": 5319,
      "Ġescap": 5320,
      "umbers": 5321,
      "Ġcaching": 5322,
      "Ġexclusive": 5323,
      "Ġswitch": 5324,
      "Ġstrategy": 5325,
      "Ġ].": 5326,
      "iving": 5327,
      "Ġarra": 5328,
      "Ġ35": 5329,
      "Ġcompared": 5330,
      "Ġiterator": 5331,
      "!\",": 5332,
      "Ġ\"(()": 5333,
      "nn": 5334,
      "ubble": 5335,
      "Ġbelong": 5336,
      "Ġcomes": 5337,
      "null": 5338,
      "Ġsuite": 5339,
      "Ġphrases": 5340,
      "water": 5341,
      "Ġcompatible": 5342,
      ";,": 5343,
      "vector": 5344,
      "aut": 5345,
      "Ġmoved": 5346,
      "ĠFour": 5347,
      "ibility": 5348,
      "Ġvisit": 5349,
      "clock": 5350,
      "pairs": 5351,
      "Ġunsigned": 5352,
      "anama": 5353,
      "\",\"": 5354,
      "Ġregion": 5355,
      "execution": 5356,
      "Bob": 5357,
      ";=": 5358,
      "Ġquick": 5359,
      "Ġneighbors": 5360,
      "Ġguidelines": 5361,
      "xy": 5362,
      "zing": 5363,
      "Ġinstantiated": 5364,
      "File": 5365,
      "ational": 5366,
      "Ġtraffic": 5367,
      "Ġsynt": 5368,
      "increasing": 5369,
      "Ġconcatenates": 5370,
      "Ġexplanation": 5371,
      "Ġanyone": 5372,
      "Ġmodifications": 5373,
      "2021": 5374,
      "ĠWeb": 5375,
      "Ġcustomers": 5376,
      "\"].": 5377,
      "56": 5378,
      "lisher": 5379,
      "spaces": 5380,
      "ury": 5381,
      "ĠUS": 5382,
      "tanding": 5383,
      "numer": 5384,
      "Ġcorrected": 5385,
      "Ġboxes": 5386,
      "Ġsufficient": 5387,
      "return": 5388,
      "department": 5389,
      ".\".": 5390,
      "js": 5391,
      "terms": 5392,
      "Ġrepeat": 5393,
      "Ġsummation": 5394,
      "Ġfalls": 5395,
      "rop": 5396,
      "OM": 5397,
      "invalid": 5398,
      "iction": 5399,
      "rored": 5400,
      "Ġpurposes": 5401,
      "Ġcanal": 5402,
      "jo": 5403,
      "ĠMultip": 5404,
      "ĠInsert": 5405,
      "friendly": 5406,
      "rea": 5407,
      "ameter": 5408,
      "Ġsearching": 5409,
      "byte": 5410,
      "datetime": 5411,
      "Ġnever": 5412,
      "vals": 5413,
      "pos": 5414,
      "ĠBase": 5415,
      "Ġcompress": 5416,
      "ĠAccessing": 5417,
      "Ġfetch": 5418,
      "Ġfill": 5419,
      "tioned": 5420,
      "17": 5421,
      "Ġresource": 5422,
      "Ġsolutions": 5423,
      "Ġdeletion": 5424,
      "ĠUTC": 5425,
      "\"),": 5426,
      "2020": 5427,
      "db": 5428,
      "nary": 5429,
      "Ġfragment": 5430,
      "ĠUpdate": 5431,
      "ĠPanama": 5432,
      "ppy": 5433,
      "anagram": 5434,
      "Ġbug": 5435,
      "ĠGoogle": 5436,
      "Ġeffectively": 5437,
      "levant": 5438,
      "Ġmajority": 5439,
      "DB": 5440,
      "this": 5441,
      "Ġ$\\": 5442,
      "issors": 5443,
      "['": 5444,
      "bl": 5445,
      "grid": 5446,
      "Ġcomposite": 5447,
      "Ġcelsius": 5448,
      "Ġlayer": 5449,
      "expected": 5450,
      "ames": 5451,
      "Ġ'.": 5452,
      "Ġadjusted": 5453,
      "Ġhad": 5454,
      "ĠEvery": 5455,
      "Ġdevise": 5456,
      "Ġexam": 5457,
      "cret": 5458,
      "letters": 5459,
      "Ġinvoked": 5460,
      "Dict": 5461,
      "clockwise": 5462,
      "Ġupon": 5463,
      "light": 5464,
      "lishes": 5465,
      "Ġplease": 5466,
      "Ġeliminate": 5467,
      "custom": 5468,
      "task": 5469,
      "cii": 5470,
      "pple": 5471,
      "Ġindependent": 5472,
      "ueue": 5473,
      "Ġconnection": 5474,
      "AC": 5475,
      "Using": 5476,
      "ĠRetrieve": 5477,
      "Ġlink": 5478,
      "hand": 5479,
      "const": 5480,
      "Ġprefixes": 5481,
      "Ġsuper": 5482,
      "Ġshuffle": 5483,
      "Ġcat": 5484,
      "prin": 5485,
      "Min": 5486,
      "paths": 5487,
      "ĠDeposit": 5488,
      "arting": 5489,
      ")\"": 5490,
      "ources": 5491,
      "3333": 5492,
      "Ġillustr": 5493,
      "75": 5494,
      "\\),": 5495,
      "Ġ'/": 5496,
      "ĠYork": 5497,
      "Ġdigital": 5498,
      "Ġcreation": 5499,
      "Ġhypo": 5500,
      "Ġwr": 5501,
      "riends": 5502,
      "ystem": 5503,
      "Ġque": 5504,
      "mperature": 5505,
      "ĠKelvin": 5506,
      "Ġdiacritical": 5507,
      "umer": 5508,
      "Ġchars": 5509,
      "Ġmanaging": 5510,
      "RR": 5511,
      "Ġrearrangement": 5512,
      "Ġreplaces": 5513,
      "Ġcreates": 5514,
      "mbers": 5515,
      "dio": 5516,
      "IX": 5517,
      "Ġoverride": 5518,
      "Ġentity": 5519,
      "Ġhoriz": 5520,
      "Ġdenote": 5521,
      "Ġtal": 5522,
      "Ġ00": 5523,
      "Ġ(_).": 5524,
      "Ġnumpy": 5525,
      "Ġfigures": 5526,
      "Ġ123456": 5527,
      "classic": 5528,
      "Po": 5529,
      "ef": 5530,
      "mileage": 5531,
      "cture": 5532,
      "ateral": 5533,
      "Ġdiffic": 5534,
      "Ġderiv": 5535,
      "Ġcut": 5536,
      "edia": 5537,
      "ĠDes": 5538,
      "Ġsummar": 5539,
      "Ġour": 5540,
      "beled": 5541,
      "2022": 5542,
      "Ġface": 5543,
      "ounts": 5544,
      "III": 5545,
      "}\\).": 5546,
      "ticul": 5547,
      "1234": 5548,
      "Ġ(/)": 5549,
      "ĠCh": 5550,
      "Ġweather": 5551,
      "Com": 5552,
      "Ġrespect": 5553,
      "Ġpopular": 5554,
      "Ġprecise": 5555,
      "Ġmillion": 5556,
      "Ġsimplify": 5557,
      "lif": 5558,
      "AG": 5559,
      "uced": 5560,
      "Ġconnect": 5561,
      "Ġconfig": 5562,
      "Ġtic": 5563,
      "Ġshort": 5564,
      "ception": 5565,
      "next": 5566,
      "ĠDisplay": 5567,
      "Ġcombine": 5568,
      "Ġcategorizes": 5569,
      "Ġfree": 5570,
      "ĠSh": 5571,
      "endian": 5572,
      "Ġunderstanding": 5573,
      "aller": 5574,
      "Ġmultiplier": 5575,
      "Ġlooking": 5576,
      "Ġcompressed": 5577,
      "mary": 5578,
      "500": 5579,
      "ifies": 5580,
      "79": 5581,
      "ately": 5582,
      "ĠDepartment": 5583,
      "Ġfoc": 5584,
      "polar": 5585,
      "Ġsimultaneously": 5586,
      "Ġtallest": 5587,
      "vari": 5588,
      "Ġsubjects": 5589,
      "Ġstripped": 5590,
      "Ġshe": 5591,
      "Ġfar": 5592,
      "round": 5593,
      "Ġunexpected": 5594,
      "Ġclick": 5595,
      "Ġsimilarity": 5596,
      "Ġoverall": 5597,
      "readth": 5598,
      "Ġcomplementary": 5599,
      "36": 5600,
      "As": 5601,
      "af": 5602,
      "tegory": 5603,
      "tab": 5604,
      "uby": 5605,
      "Ġmeetings": 5606,
      "tch": 5607,
      "Ġgcd": 5608,
      "Ġpercent": 5609,
      "ĠUpon": 5610,
      "ris": 5611,
      "zag": 5612,
      "Ġpassword": 5613,
      "learn": 5614,
      "Ġsyntac": 5615,
      "ĠNegative": 5616,
      "Ġmoney": 5617,
      "Ġ'+": 5618,
      "Ġmask": 5619,
      "ĠPO": 5620,
      "Ġoverwrite": 5621,
      "Ġlabeled": 5622,
      "Ġhost": 5623,
      "Ġtog": 5624,
      "Ġdecreasing": 5625,
      "Ġcomparisons": 5626,
      "]{": 5627,
      "Ġinvert": 5628,
      "ĠCorolla": 5629,
      "Ġfractions": 5630,
      "state": 5631,
      "ert": 5632,
      "ĠZero": 5633,
      "Ġposses": 5634,
      "Ġsection": 5635,
      "employees": 5636,
      "Ġmirrored": 5637,
      "ĠSome": 5638,
      "ait": 5639,
      "Ġbat": 5640,
      "Ġcomment": 5641,
      "Ġ'@'": 5642,
      "identi": 5643,
      "OT": 5644,
      "mean": 5645,
      "Ġclient": 5646,
      "ĠMer": 5647,
      "withdraw": 5648,
      "ordered": 5649,
      "UID": 5650,
      "Ġternary": 5651,
      "]].": 5652,
      "Ġparallel": 5653,
      "DFS": 5654,
      "Than": 5655,
      "Ġbody": 5656,
      "ĠAM": 5657,
      "Ġparticularly": 5658,
      "LL": 5659,
      "sha": 5660,
      "Ġ\"/": 5661,
      "SO": 5662,
      "phistic": 5663,
      "orig": 5664,
      "Ġmultiplies": 5665,
      "Ġpassed": 5666,
      "indows": 5667,
      "build": 5668,
      "including": 5669,
      "except": 5670,
      "Ġsanitized": 5671,
      "Ġserialize": 5672,
      "Ġconcurrently": 5673,
      "can": 5674,
      "Ġavo": 5675,
      "cup": 5676,
      "present": 5677,
      "Ġgets": 5678,
      "Ġspe": 5679,
      "Ġ37": 5680,
      "Ġsophistic": 5681,
      "tty": 5682,
      "ĠPy": 5683,
      "ĠBubble": 5684,
      "ĠFormat": 5685,
      "Ġ'}'.": 5686,
      "Ġ1994": 5687,
      "nts": 5688,
      "Expected": 5689,
      "ucing": 5690,
      "Ġincorporating": 5691,
      "ĠIdentify": 5692,
      "ales": 5693,
      "Ġdegree": 5694,
      "files": 5695,
      "ĠProduct": 5696,
      "Ġve": 5697,
      "igzag": 5698,
      "Ġrecent": 5699,
      "Char": 5700,
      "Ġtraining": 5701,
      "heap": 5702,
      "Ġelif": 5703,
      "diff": 5704,
      "head": 5705,
      "Ġmu": 5706,
      "Ġvisits": 5707,
      "Ġslashes": 5708,
      "Ġaccomplishes": 5709,
      "ached": 5710,
      "rating": 5711,
      "Ġshop": 5712,
      "Ġsubdirect": 5713,
      "ĠSince": 5714,
      "Ġabsence": 5715,
      "Ġrelations": 5716,
      "Mon": 5717,
      "Ġfahrenheit": 5718,
      "Ġdecl": 5719,
      "Ġfriends": 5720,
      "Ġchat": 5721,
      "Ġcycles": 5722,
      "gy": 5723,
      "Ġintr": 5724,
      "hering": 5725,
      "Ġmetric": 5726,
      "Ġdocuments": 5727,
      "Ġpadded": 5728,
      "itive": 5729,
      "rup": 5730,
      "Ġrecognized": 5731,
      "days": 5732,
      "Ġpha": 5733,
      "ĠExplanation": 5734,
      "Ġappended": 5735,
      "Ġreaches": 5736,
      "Ġcome": 5737,
      "Ġouter": 5738,
      "gex": 5739,
      "Ġamounts": 5740,
      "Ġconditionals": 5741,
      "Ġsold": 5742,
      "ĠToyota": 5743,
      "045": 5744,
      "Ġ1024": 5745,
      "Ġrelated": 5746,
      "Ġ\"([)]": 5747,
      "Ġsophisticated": 5748,
      "Ġlogarithmic": 5749,
      "Ġescaped": 5750,
      "Or": 5751,
      "ĠRequest": 5752,
      "ĠCall": 5753,
      "Ġbecome": 5754,
      "true": 5755,
      "lim": 5756,
      "ys": 5757,
      "converter": 5758,
      "Ġpadding": 5759,
      "llo": 5760,
      "Ġoccurred": 5761,
      "Ġstraight": 5762,
      "space": 5763,
      "Ġsay": 5764,
      "aster": 5765,
      "Buzz": 5766,
      "Ġdeploy": 5767,
      "otient": 5768,
      "OD": 5769,
      "Ġ()": 5770,
      "Ġjava": 5771,
      "Ġtaller": 5772,
      "ĠPa": 5773,
      "Ġblocks": 5774,
      "St": 5775,
      "alindrome": 5776,
      "Ġsitu": 5777,
      "Ġbreak": 5778,
      "Ġsetting": 5779,
      "ĠConstructor": 5780,
      "Ġavoiding": 5781,
      "lection": 5782,
      "perfect": 5783,
      "Ġturns": 5784,
      "Ġfair": 5785,
      "hours": 5786,
      "Ġallows": 5787,
      "Ġ'',": 5788,
      "ĠGeorge": 5789,
      "Ġolder": 5790,
      "Ġturn": 5791,
      "Ġassuming": 5792,
      "Ġdevelopment": 5793,
      "speed": 5794,
      "Ġthink": 5795,
      "ticle": 5796,
      "121": 5797,
      "Ġscratch": 5798,
      "Ġdashes": 5799,
      "avas": 5800,
      "Ġfacili": 5801,
      "sl": 5802,
      "Ġstu": 5803,
      "pages": 5804,
      "Ġpixel": 5805,
      "Ġreset": 5806,
      "ĠMon": 5807,
      "discounted": 5808,
      "LE": 5809,
      "15249": 5810,
      "avascript": 5811,
      "orph": 5812,
      "Ġobser": 5813,
      "Ġextend": 5814,
      "palindromic": 5815,
      "Ġfloor": 5816,
      "Ġimpor": 5817,
      "ĠNew": 5818,
      "ĠDFS": 5819,
      "ĠÃ": 5820,
      "Ġpretty": 5821,
      "commod": 5822,
      "Ġinverse": 5823,
      "Ġmeters": 5824,
      "Ġrotating": 5825,
      "ME": 5826,
      "Ġchess": 5827,
      "iterable": 5828,
      "User": 5829,
      "Ġenter": 5830,
      "Ġsession": 5831,
      "Ġind": 5832,
      "Ġadhering": 5833,
      "ber": 5834,
      "Ġflag": 5835,
      "but": 5836,
      "Ġemo": 5837,
      "Ġdid": 5838,
      "Ġfinally": 5839,
      "Year": 5840,
      "Ġmembers": 5841,
      "structu": 5842,
      "ĠAs": 5843,
      "Valid": 5844,
      "Ġcentroid": 5845,
      "multiple": 5846,
      "Ġincome": 5847,
      "Ġ33": 5848,
      "ĠEngine": 5849,
      "actions": 5850,
      "Ġfully": 5851,
      "Ed": 5852,
      "Ġlit": 5853,
      "Ġneces": 5854,
      "liding": 5855,
      "Ġdisplayed": 5856,
      "ECT": 5857,
      "Ġinversions": 5858,
      "483": 5859,
      "gramming": 5860,
      "04515249": 5861,
      "Ġ\\)-": 5862,
      "Ġthrow": 5863,
      "freq": 5864,
      "Emp": 5865,
      "Ġmeaningful": 5866,
      "Ġcyclic": 5867,
      "Ġ&#": 5868,
      "pass": 5869,
      "sup": 5870,
      "Ġcross": 5871,
      "ĠDele": 5872,
      ".),": 5873,
      "reverse": 5874,
      "Ġacceptable": 5875,
      "alyze": 5876,
      "'}": 5877,
      "hattan": 5878,
      "Ġprimary": 5879,
      "Ġderivative": 5880,
      "Ġtail": 5881,
      "Ġargs": 5882,
      "Ġresponds": 5883,
      "Ġaccommod": 5884,
      "Celsius": 5885,
      "gb": 5886,
      "ĠTime": 5887,
      "ldots": 5888,
      ",\"": 5889,
      "label": 5890,
      "Ġmaintainable": 5891,
      "Ġregression": 5892,
      "Ġquadratic": 5893,
      "PN": 5894,
      "Ġspacing": 5895,
      "Ġslash": 5896,
      "Ġmanufacture": 5897,
      "utine": 5898,
      "Ġemails": 5899,
      "else": 5900,
      "Ġ(/).": 5901,
      "brac": 5902,
      "ults": 5903,
      "Ġselecting": 5904,
      "|:": 5905,
      "Ġexhib": 5906,
      "Ġguarantee": 5907,
      "ĠCompute": 5908,
      "._": 5909,
      "27": 5910,
      "ĠOper": 5911,
      "Ġeluci": 5912,
      "Ġdistributed": 5913,
      "sig": 5914,
      "Ġcompleted": 5915,
      "Qu": 5916,
      "cket": 5917,
      "stac": 5918,
      "âĢĻ": 5919,
      "ĠPages": 5920,
      "Ġidentifying": 5921,
      "Ġdecorated": 5922,
      "Ġmist": 5923,
      "celer": 5924,
      "001": 5925,
      "ĠPlayer": 5926,
      "Ġ52": 5927,
      "Ġarranged": 5928,
      "em": 5929,
      "Ġzigzag": 5930,
      "Ġ(.)": 5931,
      "Ġarise": 5932,
      "ĠBut": 5933,
      "Ġexamples": 5934,
      "Ġstates": 5935,
      "Ġdoll": 5936,
      "Ġbounding": 5937,
      "tag": 5938,
      "Ġdoing": 5939,
      "ĠDD": 5940,
      "Ġplacehold": 5941,
      "cat": 5942,
      "Ġoutcomes": 5943,
      "MCMXCIV": 5944,
      "Ġ'#": 5945,
      "Ġdeleting": 5946,
      "ĠCol": 5947,
      "Ġoperands": 5948,
      "Ġmuch": 5949,
      "ĨĴ": 5950,
      "Ġwelcome": 5951,
      "Â²": 5952,
      "Ġproblems": 5953,
      "Ġtriangular": 5954,
      "Ġmonths": 5955,
      "ĠCommon": 5956,
      "Ġserve": 5957,
      "ym": 5958,
      "fruit": 5959,
      "Ġlcm": 5960,
      "Ġsupported": 5961,
      "Ġtypically": 5962,
      "Ġsegmented": 5963,
      "bject": 5964,
      "tates": 5965,
      "Ġmodules": 5966,
      "Ġaction": 5967,
      "image": 5968,
      "Ġcausing": 5969,
      "Ġlimits": 5970,
      "Ġexcessive": 5971,
      "orange": 5972,
      "Ġquotient": 5973,
      "Ġreceives": 5974,
      "matic": 5975,
      "Ġdebugging": 5976,
      "ĠPublication": 5977,
      "321": 5978,
      "certain": 5979,
      "var": 5980,
      "ground": 5981,
      "Ġsanitize": 5982,
      "Ġdealing": 5983,
      "Ġexponential": 5984,
      "Ġslug": 5985,
      "ĠBefore": 5986,
      "Ġsparse": 5987,
      "peek": 5988,
      "Ġpandas": 5989,
      "kit": 5990,
      "off": 5991,
      "timestamp": 5992,
      "Wh": 5993,
      "Ġ180": 5994,
      "ĠTemperature": 5995,
      "Ġsecret": 5996,
      "Ġvariance": 5997,
      "Ġ(-).": 5998,
      "([])": 5999,
      "Ġparticipants": 6000,
      "cepts": 6001,
      "Ġplaying": 6002,
      "\\)).": 6003,
      "Ġtraverses": 6004,
      "Ġmanipulate": 6005,
      "0451524935": 6006,
      "Ġ(__": 6007,
      "Ġmeticul": 6008,
      "Employee": 6009,
      "Determine": 6010,
      "abcdef": 6011,
      "Ġinitially": 6012,
      "quar": 6013,
      "Ġfractional": 6014,
      "scale": 6015,
      "Ġnp": 6016,
      "Ġinverted": 6017,
      "AA": 6018,
      "cented": 6019,
      "Ġregist": 6020,
      "Ġuniform": 6021,
      "Ġscre": 6022,
      "Ġvide": 6023,
      "conson": 6024,
      "phr": 6025,
      "Ġadap": 6026,
      "Ġschema": 6027,
      "zy": 6028,
      "ĠISO": 6029,
      "Ġ[].": 6030,
      "Ġreflect": 6031,
      "Compose": 6032,
      "ĠAND": 6033,
      "month": 6034,
      "Ġexecuting": 6035,
      "Ġfigure": 6036,
      "ĠManhattan": 6037,
      "Ġ78": 6038,
      "Ġsuppl": 6039,
      "Ġconventions": 6040,
      "anagrams": 6041,
      "iB": 6042,
      "Ġdescrip": 6043,
      "alance": 6044,
      "onic": 6045,
      "Ġmethodolog": 6046,
      "Ġfold": 6047,
      "reet": 6048,
      "iliary": 6049,
      "Col": 6050,
      "person": 6051,
      "Ġenumer": 6052,
      "abcabc": 6053,
      "ĠCharacters": 6054,
      "Apple": 6055,
      "win": 6056,
      "Ġgrouped": 6057,
      "Ġmultiplicity": 6058,
      "uxiliary": 6059,
      "Ġnecessi": 6060,
      "({": 6061,
      "We": 6062,
      "Ġsliding": 6063,
      "Ġ999": 6064,
      "Ġlimited": 6065,
      "ĠPig": 6066,
      "ĠEmail": 6067,
      "Print": 6068,
      "Ġbri": 6069,
      "Ġ\"[": 6070,
      "Ġpredicted": 6071,
      "Ġsequential": 6072,
      "gin": 6073,
      "Ġdesignated": 6074,
      "HA": 6075,
      "Ġkebab": 6076,
      "ytes": 6077,
      "below": 6078,
      "pth": 6079,
      "ĠBob": 6080,
      "Ġoperates": 6081,
      "evens": 6082,
      "Ġwrong": 6083,
      "Ġsubmission": 6084,
      "status": 6085,
      "ĠEn": 6086,
      "ĠRuby": 6087,
      "Ġ50000": 6088,
      "antity": 6089,
      "Ġaccumul": 6090,
      "Ġcontainer": 6091,
      "Ġ59": 6092,
      "Ġgetting": 6093,
      "Ġanim": 6094,
      "Ġ--": 6095,
      "Ġhandled": 6096,
      "Value": 6097,
      "ictions": 6098,
      "nce": 6099,
      "python": 6100,
      "used": 6101,
      "currency": 6102,
      "Ġmentioned": 6103,
      "09": 6104,
      "26": 6105,
      "ASCII": 6106,
      "Ġintersect": 6107,
      "Ġcapitalizes": 6108,
      "anguage": 6109,
      "Ġsummarizing": 6110,
      "Ġwarning": 6111,
      "ĠCha": 6112,
      "'].": 6113,
      "Ġord": 6114,
      "uments": 6115,
      "Ġinvolving": 6116,
      "Ġarchitecture": 6117,
      "DivisionError": 6118,
      "split": 6119,
      "Ġendpoints": 6120,
      "ĠOR": 6121,
      "Ġdrive": 6122,
      "ramid": 6123,
      "Ġmeta": 6124,
      "Ġxs": 6125,
      "Ġ\"([)]\"": 6126,
      "Assume": 6127,
      "Ġprovides": 6128,
      "Product": 6129,
      "Ġdirectories": 6130,
      "Good": 6131,
      "uck": 6132,
      "ĠGen": 6133,
      "Ġdetailing": 6134,
      "Ġshuffled": 6135,
      "ELECT": 6136,
      "ĠZeroDivisionError": 6137,
      "NET": 6138,
      "Ġatten": 6139,
      "Ġremoval": 6140,
      "Ġshopping": 6141,
      "Ġlater": 6142,
      "ellow": 6143,
      "ĠNotation": 6144,
      "Ġseems": 6145,
      "ĠCannot": 6146,
      "ĠDue": 6147,
      "Key": 6148,
      "Ġinserting": 6149,
      "atitude": 6150,
      "Ġprep": 6151,
      "ĠWindows": 6152,
      "ĠIN": 6153,
      "nodes": 6154,
      "Ġdrop": 6155,
      "Ġrather": 6156,
      "Ġimages": 6157,
      "ĠPol": 6158,
      "ĠInformation": 6159,
      "ĠMySQL": 6160,
      "Ġuniquely": 6161,
      "Ġsearched": 6162,
      "Ġsyntactically": 6163,
      "}},": 6164,
      "Ġreferences": 6165,
      "urrent": 6166,
      "ĠUUID": 6167,
      "Ġlinks": 6168,
      "irm": 6169,
      "Ġalloc": 6170,
      "ported": 6171,
      "Ġmajor": 6172,
      "png": 6173,
      "ivers": 6174,
      "Ġjumps": 6175,
      "dy": 6176,
      "anu": 6177,
      "ĠSet": 6178,
      "Ġinternal": 6179,
      "Ġimplements": 6180,
      "maj": 6181,
      "Ġexplaining": 6182,
      "numerator": 6183,
      "Ġput": 6184,
      "Ġpermitted": 6185,
      "Ġobstac": 6186,
      "andom": 6187,
      "){": 6188,
      "Ġpropor": 6189,
      "Ġstd": 6190,
      "Converter": 6191,
      "Ġdurations": 6192,
      "Ġestab": 6193,
      "Ġconflic": 6194,
      "Sub": 6195,
      "Ġprofile": 6196,
      "mand": 6197,
      "ĠQueue": 6198,
      "Ġpieces": 6199,
      "ouble": 6200,
      "bc": 6201,
      "Ġreduced": 6202,
      "Ġrefactored": 6203,
      "ĠSum": 6204,
      "Ġliter": 6205,
      "select": 6206,
      "Ġoriginally": 6207,
      "-%": 6208,
      "sample": 6209,
      "anuary": 6210,
      "Ġhouse": 6211,
      "[]{": 6212,
      "04": 6213,
      "Id": 6214,
      "alog": 6215,
      "Ġplot": 6216,
      "ĠFactorial": 6217,
      "Ġ\"#": 6218,
      "cond": 6219,
      "summary": 6220,
      "Ġreviews": 6221,
      "ĠPOST": 6222,
      "Ġhello": 6223,
      "ĠâĨĴ": 6224,
      "Ġaxis": 6225,
      "ĠInserts": 6226,
      "Ġdecrement": 6227,
      "decor": 6228,
      "Ġsubdirectories": 6229,
      "Ġpersonalized": 6230,
      "ĠTest": 6231,
      "ĠPossible": 6232,
      "Ġprobabilities": 6233,
      "ets": 6234,
      "deposit": 6235,
      "neutral": 6236,
      "Ġplate": 6237,
      "Ġreplacements": 6238,
      "ĠRefactor": 6239,
      "Ġiteratively": 6240,
      "display": 6241,
      "Ġren": 6242,
      "lerance": 6243,
      "Ġmagic": 6244,
      "AL": 6245,
      "IP": 6246,
      "tun": 6247,
      "}'": 6248,
      "Ġing": 6249,
      "ĠLast": 6250,
      "Ġsurface": 6251,
      "Ġchatbot": 6252,
      "PM": 6253,
      "Ġ58": 6254,
      ")].": 6255,
      "LO": 6256,
      "member": 6257,
      "Ġrequirement": 6258,
      "Ġrep": 6259,
      "rypto": 6260,
      "box": 6261,
      "ĠPolish": 6262,
      "Ġnet": 6263,
      "Ġquar": 6264,
      "Ġ('.').": 6265,
      "mi": 6266,
      "Book": 6267,
      "lex": 6268,
      "Ġmind": 6269,
      "exist": 6270,
      "Ġseen": 6271,
      "All": 6272,
      "Ġiterating": 6273,
      "Ġslo": 6274,
      "dering": 6275,
      "Ġ(-),": 6276,
      "ably": 6277,
      "Ġattempted": 6278,
      "Ġ3000": 6279,
      "Ġstrategies": 6280,
      "Ġautomatically": 6281,
      "So": 6282,
      "[-": 6283,
      "ops": 6284,
      "pers": 6285,
      "encies": 6286,
      "ĠCustom": 6287,
      "Ġactiv": 6288,
      "Ġnamespace": 6289,
      "ior": 6290,
      "join": 6291,
      "Ġascertain": 6292,
      "ĠFunction": 6293,
      "Ġattempt": 6294,
      "ormal": 6295,
      "ĠNa": 6296,
      "ĠMark": 6297,
      "Ġtyping": 6298,
      "Ġexpen": 6299,
      "Ġatom": 6300,
      "Ġauxiliary": 6301,
      "Ġfont": 6302,
      "Ġoccup": 6303,
      "000000": 6304,
      "decorator": 6305,
      "Ġstores": 6306,
      "Ġexclusively": 6307,
      "arg": 6308,
      "ĠBelow": 6309,
      "Welcome": 6310,
      "atz": 6311,
      "Ġtran": 6312,
      "Ġusernames": 6313,
      "Mo": 6314,
      "UT": 6315,
      "];": 6316,
      "Ġregex": 6317,
      "ssss": 6318,
      "io": 6319,
      "ners": 6320,
      "ering": 6321,
      "cuss": 6322,
      "Ġcent": 6323,
      "Ġwar": 6324,
      "ĠReverse": 6325,
      "Ġoutli": 6326,
      "Ġaggregate": 6327,
      "Ġvideo": 6328,
      "lin": 6329,
      "Ġwinning": 6330,
      "Ġreci": 6331,
      "Ġleftmost": 6332,
      "abcd": 6333,
      "\";": 6334,
      "uel": 6335,
      "Ġrole": 6336,
      "Ġmatched": 6337,
      "Ġattack": 6338,
      "Ġcapabilities": 6339,
      "maximum": 6340,
      "Ġscaling": 6341,
      "ĠArray": 6342,
      "Ġbatch": 6343,
      "sw": 6344,
      "Ġcos": 6345,
      "Ġran": 6346,
      "Ġzip": 6347,
      "Also": 6348,
      "iterative": 6349,
      "Ġdifficulty": 6350,
      "Ġtranslation": 6351,
      "Ġthousand": 6352,
      "Word": 6353,
      "Ġtolerance": 6354,
      "vol": 6355,
      "tured": 6356,
      "ĠSp": 6357,
      "inally": 6358,
      "Ġoperating": 6359,
      "Ġloses": 6360,
      "atrix": 6361,
      "ctal": 6362,
      "GGB": 6363,
      "ql": 6364,
      "Ġlies": 6365,
      "stop": 6366,
      "Ġstruc": 6367,
      "%.": 6368,
      "Ġded": 6369,
      "Ġdocumentation": 6370,
      "Ġbegin": 6371,
      "posite": 6372,
      "GGBB": 6373,
      "\\,": 6374,
      "Ġanimal": 6375,
      "Ġundefined": 6376,
      "Ġpredict": 6377,
      "IT": 6378,
      "cons": 6379,
      "ĠGreat": 6380,
      "Ġtextual": 6381,
      "Ġrecti": 6382,
      "bird": 6383,
      "mical": 6384,
      "Ġdog": 6385,
      "nolog": 6386,
      "ĠTrim": 6387,
      "Ġdecision": 6388,
      "Ġ\\(-": 6389,
      "Ġcompletely": 6390,
      "ameters": 6391,
      "parts": 6392,
      "cks": 6393,
      "Ġscreen": 6394,
      "Tree": 6395,
      "how": 6396,
      "Ġris": 6397,
      "public": 6398,
      "Ġscalability": 6399,
      "Ġ\"()\"": 6400,
      "Ġft": 6401,
      "Ġpile": 6402,
      "Ġ(.),": 6403,
      "Ġchain": 6404,
      "1234567890": 6405,
      "Ġcomputer": 6406,
      "ĠSw": 6407,
      "Ġtransformations": 6408,
      "159": 6409,
      "ĠSim": 6410,
      "Ġpi": 6411,
      "Ġbus": 6412,
      "ĠArea": 6413,
      "Ġequivalents": 6414,
      "Ġmaximize": 6415,
      "Ġphase": 6416,
      "Ġsystems": 6417,
      "Find": 6418,
      "Ġorders": 6419,
      "ĠCase": 6420,
      "Ġflattening": 6421,
      "Ġopposite": 6422,
      "[[": 6423,
      "lements": 6424,
      "compatible": 6425,
      "akes": 6426,
      "Ġtrig": 6427,
      "urn": 6428,
      "]))": 6429,
      "Ġsummed": 6430,
      "ĠComp": 6431,
      "rounded": 6432,
      "Ġ((": 6433,
      "ĠSo": 6434,
      "hance": 6435,
      "Ġfibfib": 6436,
      "Ġdecryp": 6437,
      "Class": 6438,
      "Trans": 6439,
      "ĠPre": 6440,
      "Ġsegmentation": 6441,
      "Ġpyramid": 6442,
      "ern": 6443,
      "night": 6444,
      "atsby": 6445,
      "Ġelucidate": 6446,
      "âĪ": 6447,
      "ĠCloud": 6448,
      "Ġchessboard": 6449,
      "consonants": 6450,
      "Ġ\"'": 6451,
      "``": 6452,
      "itations": 6453,
      "yn": 6454,
      "ald": 6455,
      "ascii": 6456,
      "Ġcategorize": 6457,
      "reading": 6458,
      "ĠBalance": 6459,
      "Any": 6460,
      "AN": 6461,
      "Max": 6462,
      "Ġcsv": 6463,
      "ĠBo": 6464,
      "Ġscalar": 6465,
      "ĠLinkedList": 6466,
      "vered": 6467,
      "img": 6468,
      "Ġboundary": 6469,
      "._%": 6470,
      "Ġgot": 6471,
      "Ġ'-',": 6472,
      "ĠServer": 6473,
      "Ġaccommodate": 6474,
      "=,": 6475,
      "Ġresol": 6476,
      "Ġ1234": 6477,
      "Ġlottery": 6478,
      "Ġticket": 6479,
      "istance": 6480,
      "ĠGatsby": 6481,
      "Ġrearranges": 6482,
      "Ġdeeply": 6483,
      "Ġholds": 6484,
      "\\\\": 6485,
      "cking": 6486,
      ".-]+\\.[": 6487,
      "ĠMerge": 6488,
      "Even": 6489,
      "Use": 6490,
      "Ġâī¥": 6491,
      "aborate": 6492,
      "RRGGBB": 6493,
      "ĠTemperatureConverter": 6494,
      "And": 6495,
      "auti": 6496,
      "Ġpast": 6497,
      "ĠWe": 6498,
      "Ġtranslate": 6499,
      "original": 6500,
      "._%+-]+@[": 6501,
      "px": 6502,
      "Ġnone": 6503,
      "Ġhapp": 6504,
      "Ġconsistent": 6505,
      "Let": 6506,
      "keep": 6507,
      "token": 6508,
      "arry": 6509,
      "Ġability": 6510,
      "Buy": 6511,
      "Ġtransition": 6512,
      "ik": 6513,
      "Ġarrangement": 6514,
      "rroneous": 6515,
      "hentic": 6516,
      "Ġenhancing": 6517,
      "major": 6518,
      "lib": 6519,
      "chron": 6520,
      "MMDD": 6521,
      "Ġsignal": 6522,
      "spam": 6523,
      "Ġtensor": 6524,
      "After": 6525,
      "Ġspecies": 6526,
      "WS": 6527,
      "zon": 6528,
      "())\"": 6529,
      "mark": 6530,
      "Ġener": 6531,
      "Ġinterle": 6532,
      "autiful": 6533,
      "free": 6534,
      "Ġevenly": 6535,
      "column": 6536,
      "Ġworked": 6537,
      "ĠSubtr": 6538,
      "ĠMultiple": 6539,
      "Ġintrod": 6540,
      "ological": 6541,
      ")}": 6542,
      "Fizz": 6543,
      "Ġneg": 6544,
      "pg": 6545,
      "unit": 6546,
      "arc": 6547,
      "Ġneural": 6548,
      "Ġbackground": 6549,
      "Ġaccessing": 6550,
      "Ġretained": 6551,
      "Ġexperience": 6552,
      "lectric": 6553,
      "-'": 6554,
      "ĠPost": 6555,
      "US": 6556,
      "dog": 6557,
      "Ġcr": 6558,
      "aab": 6559,
      "find": 6560,
      "Ġprefer": 6561,
      "Ġcopies": 6562,
      "Ġeffect": 6563,
      "ured": 6564,
      "vies": 6565,
      "Ġfore": 6566,
      "Ġlie": 6567,
      "Ġmodular": 6568,
      "intervals": 6569,
      ":%": 6570,
      "Ġcompound": 6571,
      "category": 6572,
      "match": 6573,
      "Ġparity": 6574,
      "venue": 6575,
      "Ġimpact": 6576,
      "Ġreasonable": 6577,
      "ED": 6578,
      "{(": 6579,
      "ĠDi": 6580,
      "ĠOne": 6581,
      "coming": 6582,
      "Ġchemical": 6583,
      "Ġactions": 6584,
      "ĠĊĠ": 6585,
      "Ġtempor": 6586,
      "But": 6587,
      "Ġwait": 6588,
      "Ġ75": 6589,
      "Ġflow": 6590,
      "10000": 6591,
      "angle": 6592,
      "mazon": 6593,
      "Ġencounter": 6594,
      "Ġboundaries": 6595,
      "rolls": 6596,
      "Ġmeticulously": 6597,
      "nu": 6598,
      "Ġ360": 6599,
      "ensor": 6600,
      "Ġenable": 6601,
      "Ġflaw": 6602,
      "}$": 6603,
      "Ġ\\(\\": 6604,
      "Ġtranslated": 6605,
      "28": 6606,
      "Ġdivisibility": 6607,
      "Ġcommun": 6608,
      "Ġ1900": 6609,
      "Ġshifting": 6610,
      "Ġ404": 6611,
      "Ġprepend": 6612,
      "Ġacceler": 6613,
      "Ġimag": 6614,
      "Ġsearches": 6615,
      "Ġonline": 6616,
      "floats": 6617,
      "ght": 6618,
      "titu": 6619,
      "Ġonto": 6620,
      "itz": 6621,
      "Ġaccessible": 6622,
      "Ġapplicable": 6623,
      "calcul": 6624,
      "Ġruntime": 6625,
      "ango": 6626,
      "Palindrome": 6627,
      "queness": 6628,
      "mplex": 6629,
      "Ġtowards": 6630,
      "Ġsupplied": 6631,
      "altern": 6632,
      "Ġactive": 6633,
      "uzz": 6634,
      "ud": 6635,
      "Ġgives": 6636,
      "ĠDate": 6637,
      "\");": 6638,
      "Ġlocate": 6639,
      "Ġwrapping": 6640,
      "Ġlayers": 6641,
      "ĠGenre": 6642,
      "ĠPM": 6643,
      "Complete": 6644,
      "SP": 6645,
      "With": 6646,
      "ĠUs": 6647,
      "://,": 6648,
      "7777": 6649,
      "Type": 6650,
      "ilateral": 6651,
      "Ġtrial": 6652,
      "series": 6653,
      "ĠSubtract": 6654,
      "ier": 6655,
      "rame": 6656,
      "ĠSco": 6657,
      "poch": 6658,
      "Ġenergy": 6659,
      "Ġgrow": 6660,
      "Ġcla": 6661,
      "ĠSV": 6662,
      "Ġloss": 6663,
      "Ġfeed": 6664,
      "VIII": 6665,
      "Ġinfl": 6666,
      "Ġstreet": 6667,
      "Ġraises": 6668,
      "Ġreposit": 6669,
      "Ġdest": 6670,
      "expon": 6671,
      "doe": 6672,
      "@#": 6673,
      "MP": 6674,
      "ensitivity": 6675,
      "Ġtrip": 6676,
      "Ġseason": 6677,
      "Ġyielding": 6678,
      "Ġlongitude": 6679,
      "yyyy": 6680,
      "Ġlittle": 6681,
      "game": 6682,
      "ĠBas": 6683,
      "xxxx": 6684,
      "ills": 6685,
      "Ġmenu": 6686,
      "Ġstic": 6687,
      "hi": 6688,
      "ĠAnd": 6689,
      "rength": 6690,
      "Ġcolons": 6691,
      "Ġindented": 6692,
      "termin": 6693,
      "Ġabbre": 6694,
      "Ġslow": 6695,
      "Ġuniqueness": 6696,
      ")):": 6697,
      "dget": 6698,
      "Ġfine": 6699,
      "Ġcrypto": 6700,
      "ulations": 6701,
      "quare": 6702,
      "Ġdepend": 6703,
      "Ġwhite": 6704,
      "agonal": 6705,
      "Ġmanufactured": 6706,
      "_.": 6707,
      "mith": 6708,
      "Ġvar": 6709,
      "Ġpaint": 6710,
      "ĠSc": 6711,
      "FO": 6712,
      "Ġcarri": 6713,
      "Ġ1984": 6714,
      "Ġrely": 6715,
      "Ġvice": 6716,
      "vowel": 6717,
      "iness": 6718,
      "Ġinteres": 6719,
      "wers": 6720,
      "Ġinfo": 6721,
      "Ġversa": 6722,
      "suffix": 6723,
      "land": 6724,
      "Ġscaled": 6725,
      "mmed": 6726,
      "Jane": 6727,
      "Edit": 6728,
      "!.": 6729,
      "Ġtheore": 6730,
      "Ġtrimmed": 6731,
      "frame": 6732,
      "Time": 6733,
      "pen": 6734,
      "orse": 6735,
      "alth": 6736,
      "inear": 6737,
      "amelCase": 6738,
      "Ġpopularity": 6739,
      "Ġ{},": 6740,
      "Ġrace": 6741,
      "abs": 6742,
      "rectangle": 6743,
      "Ġunordered": 6744,
      "Ġrates": 6745,
      "gerald": 6746,
      "erial": 6747,
      "account": 6748,
      "sty": 6749,
      "There": 6750,
      "ĠKill": 6751,
      "Ġcollect": 6752,
      "ĠDesign": 6753,
      ",_": 6754,
      "bs": 6755,
      "ients": 6756,
      "iver": 6757,
      "Ġvalidates": 6758,
      "Ġmanages": 6759,
      "Ġtechnolog": 6760,
      "Ġexplicitly": 6761,
      "Ġelimin": 6762,
      "ckingbird": 6763,
      "$),": 6764,
      "ĠRed": 6765,
      "Ġ/),": 6766,
      "checker": 6767,
      "Ġrepetition": 6768,
      "Ġbattery": 6769,
      "Ġexchange": 6770,
      "Ġparticipant": 6771,
      "Ġcourses": 6772,
      "itzgerald": 6773,
      "ISBN": 6774,
      "hist": 6775,
      "Ġmass": 6776,
      "'-'": 6777,
      "ongo": 6778,
      "ĠMockingbird": 6779,
      "Ġcopied": 6780,
      "Up": 6781,
      "idates": 6782,
      "adj": 6783,
      "orphic": 6784,
      "ĠScott": 6785,
      "Le": 6786,
      "john": 6787,
      "Ġ864": 6788,
      "Ġsensor": 6789,
      "Ġcounterclockwise": 6790,
      "Ġguess": 6791,
      "osing": 6792,
      "tice": 6793,
      "ĠFitzgerald": 6794,
      "Ġidentity": 6795,
      "Ġearlier": 6796,
      "ĠSHA": 6797,
      "Ġverifies": 6798,
      "ĠSpecial": 6799,
      "Ġchallenges": 6800,
      "Ġchunks": 6801,
      "Ġspecify": 6802,
      "Ġminimized": 6803,
      "CR": 6804,
      "ags": 6805,
      "ĠAmazon": 6806,
      "Ġconnections": 6807,
      "uming": 6808,
      "ĠTuple": 6809,
      "Ġchann": 6810,
      "lications": 6811,
      "Ġearliest": 6812,
      "ele": 6813,
      "org": 6814,
      "Ġ366": 6815,
      "Ġsocial": 6816,
      "Ġsequentially": 6817,
      "structured": 6818,
      "Ġrelease": 6819,
      "Ġblack": 6820,
      "Ġreally": 6821,
      "ĠQuicksort": 6822,
      "CA": 6823,
      "Ġsimplest": 6824,
      "Ġsubsequently": 6825,
      "âĢĿ": 6826,
      "genre": 6827,
      "Ġsuggest": 6828,
      "Ġ8601": 6829,
      "ĠReact": 6830,
      "ĠJac": 6831,
      "inese": 6832,
      "Ġnormalization": 6833,
      "Ġcontinues": 6834,
      "ometers": 6835,
      "Query": 6836,
      "ingu": 6837,
      "Ġstructur": 6838,
      "Ġrectify": 6839,
      "wri": 6840,
      "ystack": 6841,
      "Ġtravel": 6842,
      "align": 6843,
      "Ġintegrity": 6844,
      "loops": 6845,
      "Ġvertically": 6846,
      "Ġimproved": 6847,
      "Ġserves": 6848,
      "Ġ\"{[": 6849,
      "weight": 6850,
      "Par": 6851,
      "aches": 6852,
      "ĠTrans": 6853,
      "Ġgene": 6854,
      "linked": 6855,
      "reci": 6856,
      "Ġlead": 6857,
      "Ġcorrel": 6858,
      "Ġinteraction": 6859,
      "Ġeditor": 6860,
      "group": 6861,
      ",}.": 6862,
      "after": 6863,
      "go": 6864,
      "Ġclim": 6865,
      "ĠColl": 6866,
      "routine": 6867,
      "ĠPl": 6868,
      "Thanks": 6869,
      "Ġrelationship": 6870,
      "Ġdescriptive": 6871,
      "veraging": 6872,
      "Ġproceed": 6873,
      "Rectangle": 6874,
      "ĠTra": 6875,
      "quantity": 6876,
      "identifier": 6877,
      "Identify": 6878,
      "On": 6879,
      "isms": 6880,
      "ought": 6881,
      "Ġ49": 6882,
      "ĠSystem": 6883,
      "Ġhints": 6884,
      "Ġpredictions": 6885,
      "leaf": 6886,
      "Ġdeci": 6887,
      "ĠElectric": 6888,
      "Ġapples": 6889,
      "ĠâĢĶ": 6890,
      "hash": 6891,
      "Ġresources": 6892,
      "Ġnaming": 6893,
      "adig": 6894,
      "ln": 6895,
      "minutes": 6896,
      "ontally": 6897,
      "chool": 6898,
      "sequences": 6899,
      "Ġminus": 6900,
      "Duplic": 6901,
      "ares": 6902,
      "Ġrecon": 6903,
      "Ġlatitude": 6904,
      "arm": 6905,
      "Ġstable": 6906,
      "Ġlayout": 6907,
      "xyz": 6908,
      "Te": 6909,
      "thread": 6910,
      "Ġpaper": 6911,
      "cost": 6912,
      "Ġgeneric": 6913,
      "Ġbudget": 6914,
      "Ġdefa": 6915,
      "Ġdescribes": 6916,
      ")(": 6917,
      "THH": 6918,
      "ÂŃ": 6919,
      "undred": 6920,
      "Ġwalker": 6921,
      "Ġ(+),": 6922,
      "Ġsemicolon": 6923,
      "Ġinstall": 6924,
      "uctions": 6925,
      "ensions": 6926,
      "Ġbask": 6927,
      "()))": 6928,
      "Ġ65": 6929,
      "Ġwithdrawal": 6930,
      "ĠCalculation": 6931,
      "commend": 6932,
      "Ġapplications": 6933,
      "istical": 6934,
      "Ġ',": 6935,
      "ĠInteg": 6936,
      "Ġpublisher": 6937,
      "Ġresponsive": 6938,
      "Ġpixels": 6939,
      "eld": 6940,
      "umns": 6941,
      "bye": 6942,
      "ĠSubtracts": 6943,
      "234": 6944,
      "Ġpartitioned": 6945,
      "Ġauthentic": 6946,
      "Erroneous": 6947,
      "ROM": 6948,
      "00000": 6949,
      "tile": 6950,
      "Ġdiameter": 6951,
      "}^": 6952,
      "tructu": 6953,
      "ĠCounter": 6954,
      "fraction": 6955,
      "cs": 6956,
      "rection": 6957,
      "Ġconverter": 6958,
      "antum": 6959,
      "Ġrainwater": 6960,
      "Ġsubroutine": 6961,
      "abcde": 6962,
      "Ġdescribing": 6963,
      "Ġrooms": 6964,
      "Ġimaginary": 6965,
      "ĠBasic": 6966,
      "mble": 6967,
      "only": 6968,
      "ĠWelcome": 6969,
      "Ġinflu": 6970,
      "Date": 6971,
      "SI": 6972,
      "Ġparadig": 6973,
      "Ġheads": 6974,
      "cker": 6975,
      "ancial": 6976,
      "Ġsettings": 6977,
      "Ġexpan": 6978,
      "Ġsimply": 6979,
      "Ġharmon": 6980,
      "'\\": 6981,
      "ade": 6982,
      "Ġbro": 6983,
      "Ġaccented": 6984,
      "Ġpeaks": 6985,
      "ehicles": 6986,
      "Ġhard": 6987,
      "LVIII": 6988,
      "Ġcatch": 6989,
      "threshold": 6990,
      "Ġ89": 6991,
      "Ġretaining": 6992,
      "Ensure": 6993,
      "good": 6994,
      "mask": 6995,
      "ĠInter": 6996,
      "Ġchron": 6997,
      "Ġconflicts": 6998,
      "abytes": 6999,
      "Ġminimizing": 7000,
      "printed": 7001,
      "Ġ([": 7002,
      "Convert": 7003,
      "Ġfaces": 7004,
      "Ġfail": 7005,
      "anta": 7006,
      "Ġ'{\"": 7007,
      "Ġprobable": 7008,
      "Ġserialized": 7009,
      "ĠFind": 7010,
      "paper": 7011,
      "Ġdeepest": 7012,
      "Ġcounterparts": 7013,
      "Ġmanufacturer": 7014,
      "Ġingred": 7015,
      "Ġasses": 7016,
      "Ġupload": 7017,
      "Ġidx": 7018,
      "Ġidentification": 7019,
      "object": 7020,
      ",-": 7021,
      "Ġstatistical": 7022,
      "run": 7023,
      "Ġvehicles": 7024,
      "Code": 7025,
      "orch": 7026,
      "Ġpin": 7027,
      "tenuse": 7028,
      "Ġ/`.": 7029,
      "Ġcollision": 7030,
      "Ġpreprocessing": 7031,
      "Ġeng": 7032,
      "Ġconstructing": 7033,
      "style": 7034,
      "UR": 7035,
      "Ġ\"\".": 7036,
      "ÂŃÂŃ": 7037,
      "some": 7038,
      "Age": 7039,
      "Test": 7040,
      "bile": 7041,
      "Ġfuel": 7042,
      "Ġconcept": 7043,
      "Ġmodification": 7044,
      "EN": 7045,
      "equal": 7046,
      "Ġtruncated": 7047,
      "ĠElectricCar": 7048,
      ".\",": 7049,
      "Ġlookup": 7050,
      "update": 7051,
      "ows": 7052,
      "padded": 7053,
      "Ġtruncate": 7054,
      "cub": 7055,
      "gments": 7056,
      "Ġintensity": 7057,
      "Enhance": 7058,
      "69": 7059,
      "Unk": 7060,
      "Ġrecommend": 7061,
      "Ġprincipal": 7062,
      "divisor": 7063,
      "divisors": 7064,
      "Unknown": 7065,
      "Ġvote": 7066,
      "stock": 7067,
      "Ġcomparing": 7068,
      "orm": 7069,
      "Ġsep": 7070,
      "Ġduplicated": 7071,
      "Ġmodifies": 7072,
      "Ġexhibit": 7073,
      ".\")": 7074,
      "Ġneedle": 7075,
      "666666666666": 7076,
      "dura": 7077,
      "ĠListNode": 7078,
      "Ġinverts": 7079,
      "ĠGrade": 7080,
      "joint": 7081,
      "Ġconstitu": 7082,
      "Ġkind": 7083,
      "ĠLee": 7084,
      "Ġbacksl": 7085,
      "home": 7086,
      "Ġpreprocess": 7087,
      "ontal": 7088,
      "Ġleg": 7089,
      "00000000": 7090,
      "Ġothers": 7091,
      "ruary": 7092,
      "Ġbrief": 7093,
      "Odd": 7094,
      "mpt": 7095,
      "orrow": 7096,
      "Ġhn": 7097,
      "ĠCollatz": 7098,
      "report": 7099,
      "Ġscrip": 7100,
      "Ġlatest": 7101,
      "44": 7102,
      "Ġfinancial": 7103,
      "::-": 7104,
      "Ġfacilitate": 7105,
      "Ġstructurally": 7106,
      "vation": 7107,
      "graphic": 7108,
      "Ġanalyzing": 7109,
      "domains": 7110,
      "Ġchoosing": 7111,
      "Ġattached": 7112,
      "Ġepoch": 7113,
      "Ġpd": 7114,
      "Ġsubnet": 7115,
      "instance": 7116,
      "Ġmarkdown": 7117,
      "Ġmeasurement": 7118,
      "Ġreached": 7119,
      "Ġranks": 7120,
      "iring": 7121,
      "olle": 7122,
      "Ġtypical": 7123,
      "Ġbreadth": 7124,
      "Ġ\"@": 7125,
      "ĠLCSs": 7126,
      "ebruary": 7127,
      "Ġkilogram": 7128,
      "Ġmakes": 7129,
      "Ġ85": 7130,
      "ĠGB": 7131,
      "Ġbinomial": 7132,
      "Ġfocus": 7133,
      "Ġftp": 7134,
      "Ġrepository": 7135,
      "yclic": 7136,
      "Ġbucket": 7137,
      "grams": 7138,
      "ĠMB": 7139,
      "reatest": 7140,
      "Ġemoj": 7141,
      "ĠJaccard": 7142,
      "%,": 7143,
      "Ġprofic": 7144,
      "Ġ56": 7145,
      "lapsed": 7146,
      "NN": 7147,
      "bra": 7148,
      "Ġhaystack": 7149,
      "creased": 7150,
      "Ġstatistics": 7151,
      "threaded": 7152,
      "};": 7153,
      "Ġpor": 7154,
      "celes": 7155,
      "Ġmethodology": 7156,
      "Ġmedia": 7157,
      "Ġthereby": 7158,
      "ĠDiv": 7159,
      "Dis": 7160,
      "inf": 7161,
      "Ġcontact": 7162,
      "built": 7163,
      "$$": 7164,
      "'re": 7165,
      "vided": 7166,
      "convert": 7167,
      "Ġmission": 7168,
      "mage": 7169,
      "tial": 7170,
      "ĠDay": 7171,
      "Ġgreat": 7172,
      "Ġdetection": 7173,
      "variable": 7174,
      "{\"": 7175,
      "ĠSing": 7176,
      "ĠMongo": 7177,
      "Ġgradi": 7178,
      "orean": 7179,
      "Ġ'+',": 7180,
      ")),": 7181,
      "AS": 7182,
      "One": 7183,
      "Ġrevenue": 7184,
      "Ġnothing": 7185,
      "Ġincrements": 7186,
      "Ġimmut": 7187,
      "Me": 7188,
      "issis": 7189,
      "Ġintegration": 7190,
      "Ġchanged": 7191,
      "Ġhidden": 7192,
      "Ġcompares": 7193,
      "ĠPerform": 7194,
      "Ġconnecting": 7195,
      "Empty": 7196,
      "Text": 7197,
      "gate": 7198,
      "rd": 7199,
      "arper": 7200,
      "ĠRandom": 7201,
      "contain": 7202,
      "Ġslice": 7203,
      "atives": 7204,
      "ĠStrings": 7205,
      "Ġprotocols": 7206,
      "Month": 7207,
      "Ġareas": 7208,
      "ĠNumbers": 7209,
      "ugment": 7210,
      "without": 7211,
      "By": 7212,
      "ION": 7213,
      "Ġano": 7214,
      "Ġconsideration": 7215,
      "Ġsubtracting": 7216,
      "Ġextre": 7217,
      "counter": 7218,
      "Ġrefer": 7219,
      "steps": 7220,
      "Ġaligned": 7221,
      "Ġelapsed": 7222,
      "math": 7223,
      "Ġprede": 7224,
      "Ġproviding": 7225,
      "76": 7226,
      "Res": 7227,
      "Ġlexicographic": 7228,
      "ĠArr": 7229,
      "Ġsieve": 7230,
      "ĠBig": 7231,
      "111": 7232,
      "Ġtemplate": 7233,
      "Ġmidnight": 7234,
      "Ġgeneral": 7235,
      "Ġballs": 7236,
      "century": 7237,
      "Ġfourth": 7238,
      "Reverse": 7239,
      "Ġdestination": 7240,
      "tents": 7241,
      "Ġprecisely": 7242,
      "uri": 7243,
      "ĠStarting": 7244,
      "arcissis": 7245,
      "arcissistic": 7246,
      "Ġcarry": 7247,
      "people": 7248,
      "Ġsuit": 7249,
      "Ġfaulty": 7250,
      "Ġhierarchical": 7251,
      "Ġtoggle": 7252,
      "jection": 7253,
      "post": 7254,
      "DDTHH": 7255,
      "Ġ\"((": 7256,
      "ĠâĢľ": 7257,
      "Ġkilometers": 7258,
      "usti": 7259,
      "ĠSpaces": 7260,
      "Task": 7261,
      "ector": 7262,
      "nearest": 7263,
      "Ġ128": 7264,
      "Ġspan": 7265,
      "Ġmetadata": 7266,
      "replace": 7267,
      "Ġpse": 7268,
      "Ġ2022": 7269,
      "Ġneighbor": 7270,
      "]).": 7271,
      "Ġanno": 7272,
      "Ġheading": 7273,
      "Ġ$(": 7274,
      "Ġpartitioning": 7275,
      "Ġmus": 7276,
      "Ġforth": 7277,
      "ĠUpdates": 7278,
      "Ġfolder": 7279,
      "Ġclimb": 7280,
      "ĠFinally": 7281,
      "ticles": 7282,
      "Ġlazy": 7283,
      "Sc": 7284,
      "colors": 7285,
      "HER": 7286,
      "Words": 7287,
      "ircumference": 7288,
      "comput": 7289,
      "Ġtarge": 7290,
      "iverse": 7291,
      "zes": 7292,
      "Ġinf": 7293,
      "Ġ<<": 7294,
      "Ġencompassing": 7295,
      "quaring": 7296,
      "ength": 7297,
      "Ġappreci": 7298,
      "Ġsurrounded": 7299,
      "mpli": 7300,
      "tries": 7301,
      "unn": 7302,
      "ĠAI": 7303,
      "ĠwordDict": 7304,
      "omorphic": 7305,
      "ĠAdding": 7306,
      "false": 7307,
      "Ġsend": 7308,
      "Ġpac": 7309,
      "ĠSci": 7310,
      "cdot": 7311,
      "Ġ\"()[]{": 7312,
      "Ġobstacles": 7313,
      "Ġprof": 7314,
      "lowercase": 7315,
      "Ġhypothe": 7316,
      "Ġrelevant": 7317,
      "Ġselects": 7318,
      "Ġupdating": 7319,
      "66666666666666": 7320,
      "08": 7321,
      "LD": 7322,
      "Ġshell": 7323,
      "Ġoctal": 7324,
      "ciple": 7325,
      "tha": 7326,
      "sim": 7327,
      "ĠPar": 7328,
      "Ġdisjoint": 7329,
      "Ġaxes": 7330,
      "Ġmistakes": 7331,
      "Count": 7332,
      "Yes": 7333,
      "Item": 7334,
      "Ġent": 7335,
      "Ġsound": 7336,
      "Ġbugs": 7337,
      "Ġmonot": 7338,
      "Ġrealm": 7339,
      "|:----------------": 7340,
      "ĠMongoDB": 7341,
      "HT": 7342,
      "Ġhappy": 7343,
      "Ġprojects": 7344,
      "Ġstrength": 7345,
      "Ġinsensitivity": 7346,
      "Ġbran": 7347,
      "-.": 7348,
      "KE": 7349,
      "plot": 7350,
      "udio": 7351,
      "strong": 7352,
      "Ġyourself": 7353,
      "Ġsite": 7354,
      "Ġbrown": 7355,
      "Ġacyclic": 7356,
      "multiples": 7357,
      "âĪĴ": 7358,
      "Ġland": 7359,
      "ric": 7360,
      "Ġmaintains": 7361,
      "Numbers": 7362,
      "izable": 7363,
      "Ġhistory": 7364,
      "dr": 7365,
      "otal": 7366,
      "Ġformulas": 7367,
      "ĠAccepts": 7368,
      "Ġplaintext": 7369,
      "Ġinterpreted": 7370,
      "$).": 7371,
      "={": 7372,
      "Ġyielded": 7373,
      "Ġkm": 7374,
      "Ġscan": 7375,
      "gonal": 7376,
      "than": 7377,
      "udo": 7378,
      "ðŁ": 7379,
      "ascending": 7380,
      "Ġben": 7381,
      "romo": 7382,
      "Ġfactorize": 7383,
      "stand": 7384,
      "thag": 7385,
      "539": 7386,
      "Counter": 7387,
      "Ġchecked": 7388,
      "Ġsphere": 7389,
      "Ġhome": 7390,
      "Ġdeserial": 7391,
      "Ġchoices": 7392,
      "Ġfox": 7393,
      "Ġsomeone": 7394,
      "Ġmechanisms": 7395,
      "Ġ3661": 7396,
      "pan": 7397,
      "relevant": 7398,
      "semb": 7399,
      "Ġhundred": 7400,
      "ĠVis": 7401,
      "Ġdecodes": 7402,
      "Ġextreme": 7403,
      "/.": 7404,
      "atory": 7405,
      "ULL": 7406,
      "Ġconj": 7407,
      "Ġclassic": 7408,
      "ĠLeast": 7409,
      "Ġadvance": 7410,
      "\"\"\"": 7411,
      "Modify": 7412,
      "Search": 7413,
      "happy": 7414,
      "Ġorganizes": 7415,
      "phrase": 7416,
      "212": 7417,
      "rc": 7418,
      "uled": 7419,
      "ĠRPN": 7420,
      "thagorean": 7421,
      "anted": 7422,
      "ĠMAC": 7423,
      "Ġinsertions": 7424,
      "ĠRaise": 7425,
      "Ġtokenize": 7426,
      "Ġshows": 7427,
      "scissors": 7428,
      "El": 7429,
      "mental": 7430,
      "Ġalgorithmic": 7431,
      "Ġclassifier": 7432,
      "oftware": 7433,
      "Ġjoined": 7434,
      "Ġhorizontal": 7435,
      "ĠChinese": 7436,
      "Ġenumerate": 7437,
      "Ġcommunic": 7438,
      "Num": 7439,
      "Ġisn": 7440,
      "gorian": 7441,
      "ĠMA": 7442,
      "command": 7443,
      "ĠIncreases": 7444,
      "SELECT": 7445,
      "ĠAWS": 7446,
      "Ġextraction": 7447,
      "Ġradial": 7448,
      "Ġslot": 7449,
      "Ġwants": 7450,
      "acent": 7451,
      "ĠĊĠĊ": 7452,
      "Ġoldest": 7453,
      "Build": 7454,
      "|--------": 7455,
      "Ġaw": 7456,
      "ĠTheir": 7457,
      "Ġpartitions": 7458,
      "Ġhou": 7459,
      "crease": 7460,
      "porate": 7461,
      "buildings": 7462,
      "MB": 7463,
      "Ġfn": 7464,
      "Ġzeroes": 7465,
      "operations": 7466,
      "?\"": 7467,
      "Man": 7468,
      "Ġsquaring": 7469,
      "alling": 7470,
      "Ġopened": 7471,
      "Ġ'-'": 7472,
      "EG": 7473,
      "event": 7474,
      "longs": 7475,
      "Ġestablish": 7476,
      "Ġtemporary": 7477,
      "tary": 7478,
      "Ġ12321": 7479,
      "Chef": 7480,
      "sequent": 7481,
      "uses": 7482,
      "Ġsubdomains": 7483,
      "Explain": 7484,
      "Ġimmutable": 7485,
      "Ġmarket": 7486,
      "ELLO": 7487,
      "Ġ\"(()\"": 7488,
      "$%": 7489,
      "angled": 7490,
      "Ġscheduled": 7491,
      "Ġchronological": 7492,
      "Ġlear": 7493,
      "Ġ\")": 7494,
      "Ġcandidates": 7495,
      "Ġirrelevant": 7496,
      "Ġplaceholders": 7497,
      "Ġsections": 7498,
      "Ġ01": 7499,
      "Ġdelay": 7500,
      "Ġstopping": 7501,
      "uzzle": 7502,
      "Ġoperand": 7503,
      "Ġdivid": 7504,
      "ĠOver": 7505,
      "ominator": 7506,
      ")=": 7507,
      "Ġunsup": 7508,
      "Ġraw": 7509,
      "parameters": 7510,
      "ĠMin": 7511,
      "Ġenclose": 7512,
      "339": 7513,
      "Ġoutliers": 7514,
      "OL": 7515,
      "Per": 7516,
      "6666666666666667": 7517,
      "ker": 7518,
      "Ã©": 7519,
      "Ġexpl": 7520,
      "itespaces": 7521,
      "Ġassignment": 7522,
      "missions": 7523,
      "37": 7524,
      "represent": 7525,
      "Ġcook": 7526,
      "Ġcorners": 7527,
      "Ġconfirm": 7528,
      "Ġ'%": 7529,
      "Ġmovies": 7530,
      "ĠJavascript": 7531,
      "()]": 7532,
      "ĠWh": 7533,
      "(\\": 7534,
      "Ad": 7535,
      "che": 7536,
      "Ġdic": 7537,
      "Ġmobile": 7538,
      "ĠAnalyze": 7539,
      "avor": 7540,
      "816": 7541,
      "bonus": 7542,
      "eet": 7543,
      "Ġexit": 7544,
      "Ġresolution": 7545,
      "ĠDict": 7546,
      "Ġquoted": 7547,
      "Ġrelation": 7548,
      "tasks": 7549,
      "Ġanomal": 7550,
      "Ġintegral": 7551,
      "Ġ48": 7552,
      "pointer": 7553,
      "ĠKeys": 7554,
      "blue": 7555,
      "mits": 7556,
      "Ġbul": 7557,
      "Ġinteractive": 7558,
      "repeated": 7559,
      "ĠGregorian": 7560,
      "Ġforest": 7561,
      "uing": 7562,
      "Ġroutes": 7563,
      "Ġrightmost": 7564,
      "Ġprism": 7565,
      "profit": 7566,
      "Ġordinal": 7567,
      "OU": 7568,
      "Ġtiles": 7569,
      "Ġincompatible": 7570,
      "Ġmember": 7571,
      "strop": 7572,
      "Ġfriend": 7573,
      "asing": 7574,
      "Ġcontemp": 7575,
      "Ġgrowth": 7576,
      ")?": 7577,
      "bar": 7578,
      "orth": 7579,
      "room": 7580,
      "Ġtriangles": 7581,
      "positions": 7582,
      "ĠPythagorean": 7583,
      "##": 7584,
      "$-": 7585,
      "circle": 7586,
      "datase": 7587,
      "zip": 7588,
      "Ġask": 7589,
      "keywords": 7590,
      "ippets": 7591,
      "Ġindividually": 7592,
      "Ġnormalizes": 7593,
      "Ġmovement": 7594,
      "Ġwarmer": 7595,
      "tructure": 7596,
      "Ġfoo": 7597,
      "conne": 7598,
      "Ġmanager": 7599,
      "]]]": 7600,
      "Ġquestions": 7601,
      "Ġseem": 7602,
      "Ġconvention": 7603,
      "duration": 7604,
      "standard": 7605,
      "serial": 7606,
      "ithub": 7607,
      "Description": 7608,
      "654": 7609,
      "ĠUsage": 7610,
      "Ġ\"%": 7611,
      "Ġsubmit": 7612,
      "Ġwhitespaces": 7613,
      "Ġgoes": 7614,
      "9999": 7615,
      "Ġearly": 7616,
      "rad": 7617,
      "Ġcriterion": 7618,
      "partments": 7619,
      "ĠPrice": 7620,
      "Set": 7621,
      "pow": 7622,
      "ĠgetMin": 7623,
      "pus": 7624,
      "void": 7625,
      "FFFF": 7626,
      "Ġrepeats": 7627,
      "Ġmonetary": 7628,
      "jpg": 7629,
      "rs": 7630,
      "alled": 7631,
      "Ġdf": 7632,
      "ĠMatrix": 7633,
      "123456789": 7634,
      "ĠGraph": 7635,
      "Ġrisk": 7636,
      "Ġ`.": 7637,
      "multiplication": 7638,
      "Ġsubmatrix": 7639,
      "Ġyet": 7640,
      "Ġapo": 7641,
      "ential": 7642,
      "tribute": 7643,
      "Ġoptimally": 7644,
      "Ġquarter": 7645,
      "Pa": 7646,
      "orks": 7647,
      "indic": 7648,
      "pack": 7649,
      "Ġclamp": 7650,
      "Ġqual": 7651,
      "MI": 7652,
      "haus": 7653,
      "Ġparams": 7654,
      "signs": 7655,
      "Ġapostrop": 7656,
      "ruple": 7657,
      "Ġprinciple": 7658,
      "greSQL": 7659,
      "EF": 7660,
      "Ġschool": 7661,
      "arity": 7662,
      "ĠTensor": 7663,
      "meters": 7664,
      "server": 7665,
      "fruits": 7666,
      "Ġhorizontally": 7667,
      "Ġtheorem": 7668,
      "Ġexpansion": 7669,
      "Ġpick": 7670,
      "ĠCat": 7671,
      "Ġpasses": 7672,
      "Ġ86400": 7673,
      "Ġplanet": 7674,
      "Ġcentered": 7675,
      "Ġbrace": 7676,
      "Ġgoing": 7677,
      "ike": 7678,
      "field": 7679,
      "Ġflips": 7680,
      "atile": 7681,
      "However": 7682,
      "divisible": 7683,
      "ĠOperation": 7684,
      "ham": 7685,
      "Ġâīł": 7686,
      "compo": 7687,
      "ribonacci": 7688,
      "Ġprev": 7689,
      "Ġsyste": 7690,
      "Ġchecksum": 7691,
      "avail": 7692,
      "Ġpayload": 7693,
      "Ġ'/'.": 7694,
      "HERE": 7695,
      "539816": 7696,
      "At": 7697,
      "lue": 7698,
      "ĠFROM": 7699,
      "ĠCurrent": 7700,
      "ĠCamelCase": 7701,
      "Ġgender": 7702,
      "babad": 7703,
      "Ġbanking": 7704,
      "ĠEngineer": 7705,
      "Ġ\"()[]{}\"": 7706,
      "Frame": 7707,
      "lying": 7708,
      "ĠCount": 7709,
      "\":\"": 7710,
      "Ġminimizes": 7711,
      "Ġwondering": 7712,
      "ĠSwift": 7713,
      "olleh": 7714,
      "Equ": 7715,
      "insensitively": 7716,
      "__:": 7717,
      "Ġmeasurements": 7718,
      "Ġpseudo": 7719,
      ")/": 7720,
      "Path": 7721,
      "Str": 7722,
      "tin": 7723,
      "Ġsmo": 7724,
      "veled": 7725,
      "cribe": 7726,
      "74483": 7727,
      "33974483": 7728,
      "ae": 7729,
      "Ġseam": 7730,
      "ĠFebruary": 7731,
      "idity": 7732,
      "aved": 7733,
      "Ġseparately": 7734,
      "Ġcubic": 7735,
      "Ġhypotenuse": 7736,
      "53981633974483": 7737,
      "Ġher": 7738,
      "Ġcovered": 7739,
      "Ġcompris": 7740,
      "Ġcallable": 7741,
      "Ġassist": 7742,
      "while": 7743,
      "Object": 7744,
      "cer": 7745,
      "ulated": 7746,
      "Ġspecifies": 7747,
      "modified": 7748,
      "Ġnavigation": 7749,
      "Ġmetrics": 7750,
      "Ġcrash": 7751,
      "ipv": 7752,
      "Ġdistribute": 7753,
      "Ġinterpret": 7754,
      "vised": 7755,
      "adjacent": 7756,
      "lent": 7757,
      "also": 7758,
      "resses": 7759,
      "Ġplayed": 7760,
      "Ġimplications": 7761,
      "Does": 7762,
      "Ġreser": 7763,
      "params": 7764,
      "Ġstandards": 7765,
      "Ġanswers": 7766,
      "Ġmicroseconds": 7767,
      "none": 7768,
      "sers": 7769,
      "volution": 7770,
      "ĠTribonacci": 7771,
      "ĠItem": 7772,
      "ĠJanuary": 7773,
      "ĠPostgreSQL": 7774,
      "aligned": 7775,
      "Ġunsupported": 7776,
      "!!": 7777,
      "Ġstrand": 7778,
      "'))": 7779,
      "Ġinvolve": 7780,
      "Ġelec": 7781,
      "xml": 7782,
      "resh": 7783,
      "Provide": 7784,
      "Ġwrapped": 7785,
      "Ġstudy": 7786,
      "imgur": 7787,
      "Ġseamless": 7788,
      "leap": 7789,
      "Ġos": 7790,
      "Ġ(âĪĴ": 7791,
      "Ġvir": 7792,
      "Ġentered": 7793,
      "','": 7794,
      "2001": 7795,
      "Ġ(`).": 7796,
      "Ġcare": 7797,
      "Ġscales": 7798,
      "PU": 7799,
      "rut": 7800,
      "onds": 7801,
      "izations": 7802,
      "ĠSha": 7803,
      "150": 7804,
      "!\"}": 7805,
      "Ġlocations": 7806,
      "ĠPosition": 7807,
      "Ġindependently": 7808,
      "labels": 7809,
      "|.": 7810,
      "Ġresize": 7811,
      "Ġcorrup": 7812,
      "listen": 7813,
      "outh": 7814,
      "Ġpipe": 7815,
      "lie": 7816,
      "ĠAverage": 7817,
      "cell": 7818,
      "Ġdistin": 7819,
      "Ġ77": 7820,
      "Ġ98": 7821,
      "ĠClass": 7822,
      "Ġassess": 7823,
      "vr": 7824,
      "Ġep": 7825,
      "cto": 7826,
      "lient": 7827,
      "Ġdoub": 7828,
      "Ġrecently": 7829,
      "Ġinfluence": 7830,
      "ranges": 7831,
      "Ġ256": 7832,
      "Ġ\"(]\"": 7833,
      "Ġvelo": 7834,
      "Ġrecipro": 7835,
      "cast": 7836,
      "pred": 7837,
      "Ġwide": 7838,
      "Ġdiffers": 7839,
      "Ġteams": 7840,
      "Ġ'''": 7841,
      "Ġincreased": 7842,
      "Ġpent": 7843,
      "tating": 7844,
      "Ġ9999": 7845,
      "Ġcomparable": 7846,
      "Doe": 7847,
      "Ġidea": 7848,
      "MS": 7849,
      "jango": 7850,
      "Ġfam": 7851,
      "Ġexhaus": 7852,
      "Ġversatile": 7853,
      "Ġcosts": 7854,
      "Ġdividend": 7855,
      "Ġdecoding": 7856,
      "complete": 7857,
      "Negative": 7858,
      "Ġinstruction": 7859,
      "Sup": 7860,
      "Ġspo": 7861,
      "orical": 7862,
      "\"))": 7863,
      "Ġfunda": 7864,
      "Ġtargets": 7865,
      "rutin": 7866,
      "95": 7867,
      "umes": 7868,
      "ditional": 7869,
      "ghi": 7870,
      "termined": 7871,
      "06": 7872,
      "733": 7873,
      "Ġcents": 7874,
      "Ġban": 7875,
      "keting": 7876,
      "Ġpresented": 7877,
      "Ġvariant": 7878,
      "aaa": 7879,
      "ctools": 7880,
      "Ġ]": 7881,
      "Ġtook": 7882,
      "ĠSho": 7883,
      "Ġmaintained": 7884,
      "[](": 7885,
      "Ġserialization": 7886,
      "ĠNaN": 7887,
      "cubes": 7888,
      "though": 7889,
      "Ġgap": 7890,
      "196": 7891,
      "ĠDelete": 7892,
      "Ġkilograms": 7893,
      "Ġapostrophes": 7894,
      "sol": 7895,
      "Ġanti": 7896,
      "ĠRNA": 7897,
      "ffer": 7898,
      "Ġsecondarily": 7899,
      "Ġtermin": 7900,
      "Ġdecrease": 7901,
      "Now": 7902,
      "hot": 7903,
      "sure": 7904,
      "Ġce": 7905,
      "Ġdiscuss": 7906,
      "Ġlogin": 7907,
      "shift": 7908,
      "Ġrobustness": 7909,
      "Ġslope": 7910,
      "[\"": 7911,
      "Ġpuzzle": 7912,
      "ĠNow": 7913,
      "));": 7914,
      "mt": 7915,
      "ox": 7916,
      "Ġalternates": 7917,
      "brackets": 7918,
      "Ġintegrate": 7919,
      "Ġrequiring": 7920,
      "usion": 7921,
      "Ġisol": 7922,
      "eep": 7923,
      "Ġfunctools": 7924,
      "operation": 7925,
      "Ġsugges": 7926,
      "cube": 7927,
      "{}": 7928,
      "Ġleveraging": 7929,
      "pez": 7930,
      "Ġgrading": 7931,
      "years": 7932,
      "(['": 7933,
      "Ġmeasured": 7934,
      "snippet": 7935,
      "each": 7936,
      "uid": 7937,
      "ĠEmp": 7938,
      "Ġ127": 7939,
      "Ġexplo": 7940,
      "ĠPerimeter": 7941,
      "ĠIncrease": 7942,
      "Ġfav": 7943,
      "Ġisomorphic": 7944,
      "Ġjoining": 7945,
      "ĠBasicCalculator": 7946,
      "caten": 7947,
      "rgb": 7948,
      "Ġstone": 7949,
      "finity": 7950,
      "cipher": 7951,
      "ĠSVG": 7952,
      "Both": 7953,
      "Ġcm": 7954,
      "Ġempha": 7955,
      "Ġallowing": 7956,
      "Ġparagraphs": 7957,
      "Ġharmonic": 7958,
      "Ġthus": 7959,
      "Ġminor": 7960,
      "Ġ('/": 7961,
      "Ġpostorder": 7962,
      "Ġtrimming": 7963,
      "Ġbasket": 7964,
      "'])": 7965,
      "Ġaway": 7966,
      "pects": 7967,
      "54": 7968,
      "BFS": 7969,
      "Ġcenti": 7970,
      "Ġsuperse": 7971,
      "Exception": 7972,
      "Ġimpossible": 7973,
      "Ġ('_": 7974,
      "Ġ(`)": 7975,
      "Ġtools": 7976,
      "hind": 7977,
      "ŀŀ": 7978,
      "ĠSto": 7979,
      "alphabetical": 7980,
      "Ġquadruple": 7981,
      "rain": 7982,
      "Ġforming": 7983,
      "Ġindexes": 7984,
      "Ġcardinal": 7985,
      "Ġsklearn": 7986,
      "14159": 7987,
      "Ġincorporates": 7988,
      "Ġcoprime": 7989,
      "Ġsubmits": 7990,
      "Ġcharacteristics": 7991,
      "ĠVector": 7992,
      "Ġcapitalizing": 7993,
      "Ġ:=": 7994,
      "ABC": 7995,
      "_.+-]+@[": 7996,
      "2000": 7997,
      "^(": 7998,
      "heet": 7999,
      "resource": 8000,
      "ocol": 8001,
      "-.]+": 8002,
      "ĠVisual": 8003,
      "pezoid": 8004,
      "ĠAB": 8005,
      "());": 8006,
      "Ġcurve": 8007,
      "ĠConstr": 8008,
      "Ġsituations": 8009,
      "Ġconve": 8010,
      "ato": 8011,
      "ĠElements": 8012,
      "Ġvariations": 8013,
      "Ġseparating": 8014,
      "Ġprimitive": 8015,
      "ucky": 8016,
      "86": 8017,
      "tron": 8018,
      "Ġprompt": 8019,
      "keyword": 8020,
      "Ġroad": 8021,
      "Ġrock": 8022,
      "Ġsuccessive": 8023,
      "fall": 8024,
      "versed": 8025,
      "Ġgrouping": 8026,
      "Ġbeforehand": 8027,
      "ĠMarkdown": 8028,
      "Ġcentury": 8029,
      "just": 8030,
      "Ġ41": 8031,
      "uthy": 8032,
      "overlap": 8033,
      "Ġdeterminant": 8034,
      "Ġinstalled": 8035,
      "Flow": 8036,
      "body": 8037,
      "Ġbeautiful": 8038,
      "Ġscrutin": 8039,
      "Ġdiagonals": 8040,
      ")$.": 8041,
      "eks": 8042,
      "Ġtile": 8043,
      "Ġâŀŀ": 8044,
      "ĠNULL": 8045,
      "Ġ79": 8046,
      "Ġinvest": 8047,
      "Ġinherent": 8048,
      "Ġinstructions": 8049,
      "Ġcatalog": 8050,
      "Ġlat": 8051,
      "tail": 8052,
      "peak": 8053,
      "ĠNot": 8054,
      "ĠLog": 8055,
      "Ġcars": 8056,
      "Ġhowever": 8057,
      "distinct": 8058,
      "Ġdefines": 8059,
      "Ġcandy": 8060,
      "Ġtexts": 8061,
      "Two": 8062,
      "bst": 8063,
      "Ġ67": 8064,
      "denominator": 8065,
      "Ġsurpass": 8066,
      "Ġ(_),": 8067,
      "ĠManager": 8068,
      "152422": 8069,
      "196152422": 8070,
      "une": 8071,
      "Ġ105": 8072,
      "Ġvoid": 8073,
      "Ġenhanced": 8074,
      "Ġqueens": 8075,
      "ĠÂ": 8076,
      "direction": 8077,
      "Ġspent": 8078,
      "Ġhouses": 8079,
      "mar": 8080,
      "consider": 8081,
      "response": 8082,
      "6632": 8083,
      "Ġsave": 8084,
      "Ġmonit": 8085,
      "706632": 8086,
      "Ġbreaks": 8087,
      "Ġrender": 8088,
      "196152422706632": 8089,
      "Ġbelongs": 8090,
      "centr": 8091,
      "Ġlooping": 8092,
      "Depth": 8093,
      "HHMM": 8094,
      "Ġgradient": 8095,
      "}\\)": 8096,
      "ĠValues": 8097,
      "Ġensures": 8098,
      "Ġ250": 8099,
      "ĠANSI": 8100,
      "ademic": 8101,
      "Ġ(;": 8102,
      "Ġsetup": 8103,
      "Ġ''.": 8104,
      "ĠStu": 8105,
      "Ġappends": 8106,
      "ators": 8107,
      "Ġlogged": 8108,
      "Ġextended": 8109,
      "Ġbytearray": 8110,
      "Ġiterables": 8111,
      "ĠSquare": 8112,
      "ĠConsecutive": 8113,
      "Ġdollar": 8114,
      "az": 8115,
      "{\\": 8116,
      "ĠAnimal": 8117,
      "Ġcompleting": 8118,
      "Ġdiscre": 8119,
      "Ġ789": 8120,
      "Ġamongst": 8121,
      "Ġexpand": 8122,
      "Ġestimated": 8123,
      "Ġinterested": 8124,
      "Ġreciprocal": 8125,
      "Calcul": 8126,
      "Java": 8127,
      "Ġmim": 8128,
      "tability": 8129,
      "Ġparam": 8130,
      "ĠGo": 8131,
      "foo": 8132,
      "Ġworst": 8133,
      "!@#": 8134,
      "RI": 8135,
      "lcm": 8136,
      "Ġborrow": 8137,
      "location": 8138,
      "Dig": 8139,
      "Element": 8140,
      "yms": 8141,
      "ĠâĪ": 8142,
      "Ġhealth": 8143,
      "Ġsafety": 8144,
      "Ġfundamental": 8145,
      "Ġsupersequence": 8146,
      "([-": 8147,
      "unday": 8148,
      "zeros": 8149,
      "Ġshowing": 8150,
      "Ġflipped": 8151,
      "Ġconduct": 8152,
      "silent": 8153,
      "fits": 8154,
      "ufficient": 8155,
      "Ġtour": 8156,
      "Ġchart": 8157,
      "poly": 8158,
      "Ġtraditional": 8159,
      "Ġtrapezoid": 8160,
      "Ġchocol": 8161,
      "exclusive": 8162,
      "parent": 8163,
      "HelloWorld": 8164,
      "aabb": 8165,
      "Ġcorrelation": 8166,
      "Ġdoubling": 8167,
      "asure": 8168,
      "Ġgaps": 8169,
      "ĠValidate": 8170,
      "Ġsamples": 8171,
      "Ġimportant": 8172,
      "Ġauthentication": 8173,
      "ius": 8174,
      "Ġarticle": 8175,
      "ĠĊĊ": 8176,
      "()\"": 8177,
      "Ġcompletion": 8178,
      "Ġattempting": 8179,
      "Ser": 8180,
      "Ġfast": 8181,
      "idx": 8182,
      "Ġdiscard": 8183,
      "Ġshapes": 8184,
      "ĠSplit": 8185,
      "Ġwave": 8186,
      "train": 8187,
      "elace": 8188,
      "cycle": 8189,
      "Ġcommonly": 8190,
      "Ġterminal": 8191,
      "ATE": 8192,
      "Ġdollars": 8193,
      "XY": 8194,
      "Ġbehind": 8195,
      "corporate": 8196,
      "Ġmicroser": 8197,
      "Ġhappen": 8198,
      "|)": 8199,
      "between": 8200,
      "tricted": 8201,
      "Ġreceiving": 8202,
      "Ġskipped": 8203,
      "Ġaims": 8204,
      ":-----": 8205,
      "bed": 8206,
      "Engineer": 8207,
      "ĠQuickselect": 8208,
      "Ġextremely": 8209,
      "codes": 8210,
      "Ġdt": 8211,
      "Ġeffects": 8212,
      "Ġeliminating": 8213,
      "399": 8214,
      "vanced": 8215,
      "Ġconst": 8216,
      "Ġxml": 8217,
      "cute": 8218,
      "Ġdepending": 8219,
      "Ġsnippets": 8220,
      "volume": 8221,
      "/,": 8222,
      "68": 8223,
      "gpa": 8224,
      "}(": 8225,
      "Ġaugment": 8226,
      "Ġeight": 8227,
      "Ġmult": 8228,
      "Ġdepartments": 8229,
      "Ġprohib": 8230,
      "Ġ-=": 8231,
      "Ġposts": 8232,
      "Ġsatisfied": 8233,
      "Ġelaborate": 8234,
      "Ġpurchases": 8235,
      "ĠComputes": 8236,
      "five": 8237,
      "link": 8238,
      "ĠSolution": 8239,
      "Ġtraveled": 8240,
      "__)": 8241,
      "Ġaccelerate": 8242,
      "Banana": 8243,
      "ĠMorse": 8244,
      "Ġestimate": 8245,
      "ĠParentheses": 8246,
      ".;": 8247,
      "cest": 8248,
      "cba": 8249,
      "istant": 8250,
      "Ġnotes": 8251,
      "Ġacademic": 8252,
      "aterial": 8253,
      "Ġclassifies": 8254,
      "++)": 8255,
      "Ġinvolved": 8256,
      "module": 8257,
      "Ġirreg": 8258,
      "Ġdeployment": 8259,
      "Ġ\"@\"": 8260,
      "ĠTensorFlow": 8261,
      "Ġsmooth": 8262,
      "ious": 8263,
      "ival": 8264,
      "memo": 8265,
      "malg": 8266,
      "Ġquantum": 8267,
      "ING": 8268,
      "directory": 8269,
      "Ġdrawn": 8270,
      "CH": 8271,
      "Di": 8272,
      "adecimal": 8273,
      "ĠASP": 8274,
      "Ġsynchron": 8275,
      "Ġuniformly": 8276,
      "LI": 8277,
      "into": 8278,
      "Ġali": 8279,
      "Ġanalytical": 8280,
      "Ġcollected": 8281,
      "Ġ\"({": 8282,
      "Ġadvanta": 8283,
      "Ġstyles": 8284,
      "Ġprocedural": 8285,
      "Ġexpensive": 8286,
      "Check": 8287,
      "ki": 8288,
      "tor": 8289,
      "Ġamalg": 8290,
      "Ġutilized": 8291,
      "Ġclusters": 8292,
      "source": 8293,
      "unch": 8294,
      "Ġunreadable": 8295,
      "odds": 8296,
      "ĠCy": 8297,
      "Ġproducing": 8298,
      "Ġsatisfying": 8299,
      "Ġschedule": 8300,
      "Ġchannel": 8301,
      "Harper": 8302,
      "Oper": 8303,
      "Ġ\"$": 8304,
      "Ġunivers": 8305,
      "Ġbuffer": 8306,
      "aged": 8307,
      "indicating": 8308,
      "Ġcentimeters": 8309,
      "Op": 8310,
      "ov": 8311,
      "ĠPIN": 8312,
      ")))": 8313,
      ">>>": 8314,
      "Ġabbrevi": 8315,
      "Ġpinpoint": 8316,
      "Ġvirtual": 8317,
      "}[": 8318,
      "tives": 8319,
      "Ġcloud": 8320,
      "Ġdomin": 8321,
      "Ġactivity": 8322,
      "polog": 8323,
      "Ġdisk": 8324,
      "ibrary": 8325,
      "addresses": 8326,
      "Ġencapsulated": 8327,
      "nucleoti": 8328,
      "Author": 8329,
      "sk": 8330,
      "ĠText": 8331,
      "Ġasyn": 8332,
      "Ġseed": 8333,
      "Ġforce": 8334,
      "abin": 8335,
      "ĠOpening": 8336,
      "Ġthousands": 8337,
      "Duplicates": 8338,
      "representing": 8339,
      "Ġgames": 8340,
      "ĠChe": 8341,
      "Ġquote": 8342,
      "minor": 8343,
      "green": 8344,
      "Ġexpr": 8345,
      "Ġvelocity": 8346,
      "ĠConstraints": 8347,
      "]])": 8348,
      "lay": 8349,
      "Ġiterates": 8350,
      "Ġpurchased": 8351,
      "Ġhypothetical": 8352,
      "Each": 8353,
      "MA": 8354,
      "OS": 8355,
      "salaries": 8356,
      "Ġess": 8357,
      "Ġever": 8358,
      "ĠFra": 8359,
      "Ġneutral": 8360,
      "types": 8361,
      "Ġrecurring": 8362,
      "ficial": 8363,
      "Ġstacks": 8364,
      "lengths": 8365,
      "Ġexecutes": 8366,
      "optim": 8367,
      "oups": 8368,
      "Ġutility": 8369,
      "aking": 8370,
      "dimensions": 8371,
      "11111111": 8372,
      "consist": 8373,
      "_=": 8374,
      "lvin": 8375,
      "Ġpaired": 8376,
      "ashion": 8377,
      "stat": 8378,
      "bool": 8379,
      "pad": 8380,
      "Ġblog": 8381,
      "Ġdeem": 8382,
      "Ġsingular": 8383,
      "ĠState": 8384,
      "Ġincrementing": 8385,
      "Calculate": 8386,
      "Cha": 8387,
      "Sp": 8388,
      "house": 8389,
      "hips": 8390,
      "}:": 8391,
      "ref": 8392,
      "meter": 8393,
      "007": 8394,
      "diacri": 8395,
      "Ġdetected": 8396,
      "inux": 8397,
      "pache": 8398,
      "Ġdistingu": 8399,
      "Ġvisually": 8400,
      "Ġevaluating": 8401,
      "rated": 8402,
      "Ġdomains": 8403,
      "urls": 8404,
      "Ġautom": 8405,
      "ĠSimilar": 8406,
      "Ġparadigm": 8407,
      "Further": 8408,
      "dam": 8409,
      "jk": 8410,
      "pdf": 8411,
      "Integ": 8412,
      "iller": 8413,
      "symbol": 8414,
      "bat": 8415,
      "vable": 8416,
      "Ġacron": 8417,
      "ĠObject": 8418,
      "lowest": 8419,
      "minimum": 8420,
      "Ġsaving": 8421,
      "Ġpossess": 8422,
      "ĠColor": 8423,
      "swap": 8424,
      "hone": 8425,
      "mstrong": 8426,
      "repres": 8427,
      "Ġencodes": 8428,
      "anguages": 8429,
      "Ġarbitrarily": 8430,
      "ju": 8431,
      "Ġ(:": 8432,
      "ĠKB": 8433,
      "fold": 8434,
      "Ġnewly": 8435,
      "ĠmaxDepth": 8436,
      "ĠOCR": 8437,
      "tants": 8438,
      "Ġ1960": 8439,
      "Ġoffer": 8440,
      "Ġpen": 8441,
      "method": 8442,
      "Ġtell": 8443,
      "Ġresultant": 8444,
      "Ġbene": 8445,
      "ĠStudio": 8446,
      "/{": 8447,
      "github": 8448,
      "vision": 8449,
      "Ġaudio": 8450,
      "Ġart": 8451,
      "Ġdiverse": 8452,
      "ĠDepth": 8453,
      "cents": 8454,
      "Ġillustrate": 8455,
      "Ġproportional": 8456,
      "Ġportion": 8457,
      "Ġprohibited": 8458,
      "=).": 8459,
      "Last": 8460,
      "Rows": 8461,
      "}]": 8462,
      "erve": 8463,
      "ongest": 8464,
      "track": 8465,
      "Ġshown": 8466,
      "geq": 8467,
      "Ġensuing": 8468,
      "equality": 8469,
      "Ġisogram": 8470,
      "Ġdataframe": 8471,
      "Ġquality": 8472,
      "nament": 8473,
      "Ġsong": 8474,
      "ĠThan": 8475,
      "Ġ(?": 8476,
      "separ": 8477,
      "ĠROT": 8478,
      "force": 8479,
      "Ġpreceded": 8480,
      "uggest": 8481,
      "Ġ&,": 8482,
      "Ġsuffixes": 8483,
      "histogram": 8484,
      "Ġengage": 8485,
      "aving": 8486,
      "lands": 8487,
      "script": 8488,
      "}\\": 8489,
      "Index": 8490,
      "Ġdevices": 8491,
      "Ġfragments": 8492,
      "Analyze": 8493,
      "ĠArmstrong": 8494,
      "wargs": 8495,
      "Ġ~": 8496,
      "alone": 8497,
      "sole": 8498,
      "Ġsymbolic": 8499,
      "Ġclause": 8500,
      "ification": 8501,
      "Ġgray": 8502,
      "Ġthings": 8503,
      "Ġapproaches": 8504,
      "ocation": 8505,
      "'}.": 8506,
      "high": 8507,
      "degree": 8508,
      "Ġindexed": 8509,
      "Ġrgb": 8510,
      "Ġmanual": 8511,
      "ĠProgramming": 8512,
      "Ġprocedures": 8513,
      "Ġattacks": 8514,
      "sembly": 8515,
      "Ġpriori": 8516,
      "ĠNOT": 8517,
      "Ġclari": 8518,
      "Ġfreq": 8519,
      "ĠPrime": 8520,
      "review": 8521,
      "odified": 8522,
      "ĠLanguage": 8523,
      "monstrate": 8524,
      "ERT": 8525,
      "checking": 8526,
      "Ġpackages": 8527,
      "Comput": 8528,
      "Ġ.,": 8529,
      "Ġseven": 8530,
      "ĠRust": 8531,
      "ĠSmith": 8532,
      "proper": 8533,
      "greater": 8534,
      "Ġdownload": 8535,
      "Ġmultiplicative": 8536,
      "merge": 8537,
      "ĠDeletes": 8538,
      "Ġpure": 8539,
      "Ġtopolog": 8540,
      "Ġdeline": 8541,
      "ĠEnd": 8542,
      "ĠElim": 8543,
      "appro": 8544,
      "ĠMath": 8545,
      "Ġmonthly": 8546,
      "Ġhistorical": 8547,
      "Ġvisualization": 8548,
      "RU": 8549,
      "fn": 8550,
      "Ġoften": 8551,
      "Ġ(!": 8552,
      "starting": 8553,
      "ĠBB": 8554,
      "Ġtimer": 8555,
      "Ġgeo": 8556,
      "ĠCommand": 8557,
      "})\"": 8558,
      "Ġdeclared": 8559,
      "radar": 8560,
      "47": 8561,
      "language": 8562,
      "Ġrepetitions": 8563,
      "ĠUSD": 8564,
      "Ġcollisions": 8565,
      "Ġproficient": 8566,
      "repr": 8567,
      "ĠThey": 8568,
      "fill": 8569,
      "cessor": 8570,
      "versions": 8571,
      "Problem": 8572,
      "Ġrecall": 8573,
      "Ġprediction": 8574,
      "Ġactually": 8575,
      "Ġ86399": 8576,
      "cember": 8577,
      "Ġpredetermined": 8578,
      "diacritics": 8579,
      "Ġreducing": 8580,
      "Ġhighl": 8581,
      "Ġapproximate": 8582,
      "Ġ\"+": 8583,
      "herry": 8584,
      "Ġrational": 8585,
      "ĠRepresent": 8586,
      "paragraph": 8587,
      "Ġ(-)": 8588,
      "Ġnumerically": 8589,
      "atibility": 8590,
      "9780451524935": 8591,
      "Ġfeedback": 8592,
      "Net": 8593,
      "block": 8594,
      "ilst": 8595,
      "Ġpermission": 8596,
      "Ġtransfer": 8597,
      "Ġ125": 8598,
      "__():": 8599,
      "Ġalignment": 8600,
      "Ġwalls": 8601,
      "Ġsticks": 8602,
      "$%^": 8603,
      "hh": 8604,
      "sql": 8605,
      "tated": 8606,
      "rams": 8607,
      "numbered": 8608,
      "\\)),": 8609,
      "ĠEliminate": 8610,
      "Ġfunctioning": 8611,
      "memory": 8612,
      "ĠWHERE": 8613,
      "ĠPerl": 8614,
      "languages": 8615,
      "ras": 8616,
      "orrect": 8617,
      "ĠPush": 8618,
      "igital": 8619,
      "Ġcorpus": 8620,
      "Ġstage": 8621,
      "Ġmarked": 8622,
      "Ġplaceholder": 8623,
      "Ġcommunication": 8624,
      ")$,": 8625,
      "Ġiniti": 8626,
      "entation": 8627,
      "ĠDjango": 8628,
      "chain": 8629,
      "Ġjo": 8630,
      "avg": 8631,
      "Ġcircum": 8632,
      "Ġavailability": 8633,
      "Ġskills": 8634,
      "ĠServices": 8635,
      "Ġ'#'": 8636,
      "atur": 8637,
      "big": 8638,
      "Ġomitted": 8639,
      "Ġ\"_": 8640,
      "Ġcompil": 8641,
      "Ġ/).": 8642,
      "Ġextracting": 8643,
      "1000000": 8644,
      "Ġadjustments": 8645,
      "Ġanimals": 8646,
      "Ġ\"''": 8647,
      "Ġflawed": 8648,
      "-.]+.": 8649,
      "\"},": 8650,
      "\\_": 8651,
      "rock": 8652,
      "never": 8653,
      "Ġinitialization": 8654,
      "Ġdepths": 8655,
      "Ġbiased": 8656,
      "FizzBuzz": 8657,
      "available": 8658,
      "Be": 8659,
      "ĠAm": 8660,
      "roid": 8661,
      "Ġcircularly": 8662,
      "system": 8663,
      "Ġclicked": 8664,
      "ball": 8665,
      "Ġur": 8666,
      "ĠAss": 8667,
      "silon": 8668,
      "tos": 8669,
      "sss": 8670,
      "abric": 8671,
      "ĠDeck": 8672,
      "Ġproduced": 8673,
      "Length": 8674,
      "Ġ;": 8675,
      "ino": 8676,
      "orough": 8677,
      "alanced": 8678,
      "param": 8679,
      "Ġ44": 8680,
      "ĠOptional": 8681,
      "weights": 8682,
      "Ġscripts": 8683,
      "Suggest": 8684,
      "tons": 8685,
      "Ġauth": 8686,
      "Ġdp": 8687,
      "Ġsemi": 8688,
      "Ġapart": 8689,
      "ĠInitially": 8690,
      "Ġretrieval": 8691,
      "Ġmountains": 8692,
      "Ġmidpoint": 8693,
      "Stack": 8694,
      "considering": 8695,
      "Ġdeemed": 8696,
      "cure": 8697,
      "circumference": 8698,
      "Ġinfinity": 8699,
      "trip": 8700,
      "dequeue": 8701,
      "orite": 8702,
      "Ġpositioned": 8703,
      "ĠExamples": 8704,
      "Ġdiffering": 8705,
      "bottle": 8706,
      "Ġ\"\",": 8707,
      "ney": 8708,
      "Ġcircles": 8709,
      "precision": 8710,
      "extre": 8711,
      "exponent": 8712,
      "Hi": 8713,
      "lambda": 8714,
      "umption": 8715,
      "Ġsubclasses": 8716,
      "Red": 8717,
      "Ġtac": 8718,
      "Ġcou": 8719,
      "Ġbad": 8720,
      "stream": 8721,
      "Ġ55000": 8722,
      "crement": 8723,
      "ĠMiller": 8724,
      "Ġadmin": 8725,
      "Ġlikely": 8726,
      "Ġretrieving": 8727,
      "uni": 8728,
      "Ġ(|": 8729,
      "Ġjour": 8730,
      "Ġdenoting": 8731,
      "Ġspell": 8732,
      "alternate": 8733,
      "288": 8734,
      "Ġlack": 8735,
      "has": 8736,
      "ĠNum": 8737,
      "Ġbold": 8738,
      "adult": 8739,
      "Ġ95": 8740,
      "Ġcause": 8741,
      "ĠSQLite": 8742,
      "Ġlooks": 8743,
      "Ġscikit": 8744,
      "Ġcombines": 8745,
      "Ġmonotonic": 8746,
      "links": 8747,
      "ä¸": 8748,
      "leading": 8749,
      "ished": 8750,
      "Ġlan": 8751,
      "matrices": 8752,
      "Ġstandalone": 8753,
      "Ġdotted": 8754,
      "Ġblank": 8755,
      "ĠSubsequent": 8756,
      "Ġexpenses": 8757,
      "Ġbranch": 8758,
      "App": 8759,
      "cryp": 8760,
      "pt": 8761,
      "Ġtxt": 8762,
      "Ġbill": 8763,
      "Ġtrend": 8764,
      "bbd": 8765,
      "Ġpentagonal": 8766,
      "la": 8767,
      "Ġequations": 8768,
      "Ġstan": 8769,
      "Ġsupply": 8770,
      "Ġmanipul": 8771,
      "insert": 8772,
      "Model": 8773,
      "ĠPage": 8774,
      "alysis": 8775,
      "Ġalternative": 8776,
      "Ġpacket": 8777,
      "987": 8778,
      "~~": 8779,
      "Ġfashion": 8780,
      "Ġcru": 8781,
      "Ġtoday": 8782,
      "sibility": 8783,
      "Ġthought": 8784,
      "Ġ54": 8785,
      "Ġrestricted": 8786,
      "ĠSup": 8787,
      "Ġlove": 8788,
      "0001": 8789,
      "Ġscored": 8790,
      "Ġcommit": 8791,
      "Ġapproximately": 8792,
      "Ġ'+'": 8793,
      "Ġimportance": 8794,
      "Ġnecessitates": 8795,
      "existing": 8796,
      "cestor": 8797,
      "Rabin": 8798,
      "oting": 8799,
      "male": 8800,
      "Ġocr": 8801,
      "desc": 8802,
      "Ġjavascript": 8803,
      "ĠDoes": 8804,
      "ĠApply": 8805,
      "Ġine": 8806,
      "Ġsubmitted": 8807,
      "population": 8808,
      "ĠChange": 8809,
      "HELLO": 8810,
      "bidden": 8811,
      "google": 8812,
      "Ġfro": 8813,
      "Ġsafely": 8814,
      "Ġsituation": 8815,
      "judice": 8816,
      "cases": 8817,
      "orning": 8818,
      "Ġseat": 8819,
      "fiers": 8820,
      "Ġnecessitating": 8821,
      "Manager": 8822,
      "Ġborder": 8823,
      "Ġthorough": 8824,
      "ocab": 8825,
      "Ġcleaning": 8826,
      "Ġlimitations": 8827,
      "Ġaccumulate": 8828,
      "07": 8829,
      "hel": 8830,
      "Ġvi": 8831,
      "elp": 8832,
      "33333333": 8833,
      "Ġtournament": 8834,
      "represented": 8835,
      "ivic": 8836,
      "storm": 8837,
      "semble": 8838,
      "Ġcomplexities": 8839,
      "Ġtiming": 8840,
      "Ġ88": 8841,
      "Ġball": 8842,
      "Ġ978": 8843,
      "Refine": 8844,
      "Ġpredictive": 8845,
      "====": 8846,
      "Ġorganizing": 8847,
      "Ġvec": 8848,
      "Ġdefaults": 8849,
      "isor": 8850,
      "ulting": 8851,
      "Ġfeet": 8852,
      "edium": 8853,
      "apsack": 8854,
      "Ġ?,": 8855,
      "Ġreserved": 8856,
      "$%^&": 8857,
      "correct": 8858,
      "groups": 8859,
      "Ġqueen": 8860,
      "Ġtogg": 8861,
      "single": 8862,
      "Ġrequested": 8863,
      "Ġ('\\": 8864,
      "ucket": 8865,
      "Ġsignificance": 8866,
      "document": 8867,
      "Ġactivation": 8868,
      "ĠPrejudice": 8869,
      "Ġpers": 8870,
      "Ġclarity": 8871,
      "Ġ47": 8872,
      "Ġstation": 8873,
      "Ġinitials": 8874,
      "Ġcapture": 8875,
      "Ġskipping": 8876,
      "vations": 8877,
      "ĠnumRows": 8878,
      "ything": 8879,
      "complex": 8880,
      "Ġexistence": 8881,
      "Ġjusti": 8882,
      "delimiter": 8883,
      "YYYYMMDD": 8884,
      "Ġtweet": 8885,
      "Ġ\"{[]": 8886,
      "Fin": 8887,
      "Ġfurn": 8888,
      "Ġmaterial": 8889,
      "Ġcond": 8890,
      "Ġarticles": 8891,
      "Ġende": 8892,
      "Ġlocalhost": 8893,
      "Ġ655": 8894,
      "transform": 8895,
      "Ġroles": 8896,
      "player": 8897,
      "Ġincorrectly": 8898,
      "aB": 8899,
      "cas": 8900,
      "gz": 8901,
      "now": 8902,
      "threading": 8903,
      "Ġbr": 8904,
      "veness": 8905,
      "soft": 8906,
      "ĠMOD": 8907,
      "Ġresponses": 8908,
      "Ġrainstorm": 8909,
      "Ġmutable": 8910,
      "7334": 8911,
      "AM": 8912,
      "IME": 8913,
      "Linked": 8914,
      "Ġisinstance": 8915,
      "Ġislands": 8916,
      "atten": 8917,
      "erato": 8918,
      "Ġthough": 8919,
      "adius": 8920,
      "bet": 8921,
      "Ġtotals": 8922,
      "Ġdensity": 8923,
      "Rewrite": 8924,
      "Ġhashing": 8925,
      "Ġhashtags": 8926,
      "Ġfailed": 8927,
      "Ġcategorized": 8928,
      "IPv": 8929,
      "ssssss": 8930,
      "Ġresolve": 8931,
      "Ġtechnological": 8932,
      "Ġstanding": 8933,
      "eratosthenes": 8934,
      "Ġpizz": 8935,
      "Ġthing": 8936,
      "Ġ43": 8937,
      "Ġapple": 8938,
      "Ġdifferen": 8939,
      "Ġcontractions": 8940,
      "Ġcollinear": 8941,
      "Transform": 8942,
      "Ġconvex": 8943,
      "Some": 8944,
      "}\",": 8945,
      "Ġsent": 8946,
      "Ġlisten": 8947,
      "acher": 8948,
      "Ġbid": 8949,
      "Ġstrands": 8950,
      "Ġhh": 8951,
      "ipse": 8952,
      "Ġabstr": 8953,
      "Ġsaid": 8954,
      "Ġ_.": 8955,
      "\"}.": 8956,
      "]\",": 8957,
      "ĠNext": 8958,
      "Ġseparates": 8959,
      "Custom": 8960,
      "au": 8961,
      "ech": 8962,
      "iers": 8963,
      "trian": 8964,
      "Ġ[('": 8965,
      "Ġcompatibility": 8966,
      "Ġunderlying": 8967,
      "plotlib": 8968,
      "Ġcrucial": 8969,
      "265": 8970,
      "SE": 8971,
      "br": 8972,
      "Ġreorder": 8973,
      "units": 8974,
      "asy": 8975,
      "Ġasser": 8976,
      "ĠRR": 8977,
      "ĠBash": 8978,
      "Ġserverless": 8979,
      "println": 8980,
      "Ġdidn": 8981,
      "|:--------": 8982,
      "Ġpreferred": 8983,
      "28800": 8984,
      "ost": 8985,
      "she": 8986,
      "arth": 8987,
      "ril": 8988,
      "Ġ100000": 8989,
      "Ġsolving": 8990,
      "specific": 8991,
      "Ġneighboring": 8992,
      "Ġfocusing": 8993,
      "ĠPyT": 8994,
      "Ġdistinctive": 8995,
      "ĠSimilarly": 8996,
      "ĠRepresentation": 8997,
      "bases": 8998,
      "loads": 8999,
      "Ġkata": 9000,
      "Provided": 9001,
      "ĠRetrie": 9002,
      "Ġ('.')": 9003,
      "catenate": 9004,
      "AP": 9005,
      "dir": 9006,
      "med": 9007,
      "mma": 9008,
      "llig": 9009,
      "Ġcompile": 9010,
      "Ġconstruction": 9011,
      "should": 9012,
      "Ġ3628800": 9013,
      "ĠClassi": 9014,
      "Sh": 9015,
      "_\"": 9016,
      "opy": 9017,
      "rations": 9018,
      "Exe": 9019,
      "ĠPyTorch": 9020,
      "Where": 9021,
      "patch": 9022,
      "{'": 9023,
      "}.\"": 9024,
      "reads": 9025,
      "Ġprom": 9026,
      "ĠIV": 9027,
      "Ġstrong": 9028,
      "Ġintersections": 9029,
      "open": 9030,
      "Ġlogarithms": 9031,
      "Ġdeclar": 9032,
      "Ġlearn": 9033,
      "TLD": 9034,
      "four": 9035,
      "mart": 9036,
      "uro": 9037,
      "programming": 9038,
      "Ġ192": 9039,
      "addition": 9040,
      "Ġreferred": 9041,
      "yes": 9042,
      "kelvin": 9043,
      "chor": 9044,
      "grape": 9045,
      "Ġprepa": 9046,
      "ĠLambda": 9047,
      "Ġhexagonal": 9048,
      "valuate": 9049,
      "Ġeasily": 9050,
      "hexadecimal": 9051,
      "ĠMonth": 9052,
      "From": 9053,
      "Fibonacci": 9054,
      "Ġinjection": 9055,
      "Ġ'!": 9056,
      "Ġalert": 9057,
      "Ġappearances": 9058,
      "expr": 9059,
      "Ġclearly": 9060,
      "Ġ1234567890": 9061,
      "optimized": 9062,
      "Am": 9063,
      "middle": 9064,
      "nes": 9065,
      "tact": 9066,
      "Ġfaster": 9067,
      "ĠAut": 9068,
      "cities": 9069,
      "about": 9070,
      "ĠFin": 9071,
      "Ġprote": 9072,
      "Ġphp": 9073,
      "(])": 9074,
      "Day": 9075,
      "alan": 9076,
      "inten": 9077,
      "Ġdeliv": 9078,
      "ĠInsertion": 9079,
      "---:": 9080,
      "()))\"": 9081,
      "Ġclarify": 9082,
      ")-": 9083,
      "Ġori": 9084,
      "ĠAust": 9085,
      "rove": 9086,
      "ourse": 9087,
      "Ġ1925": 9088,
      "aaaa": 9089,
      "793": 9090,
      "Ġcomprising": 9091,
      "61": 9092,
      "madam": 9093,
      "Ġ69": 9094,
      "333": 9095,
      "Ġaggregates": 9096,
      "Ġproportion": 9097,
      "Ġoccupied": 9098,
      "Ġingredients": 9099,
      "jkl": 9100,
      "ĠAusten": 9101,
      "TH": 9102,
      "eff": 9103,
      "Ġware": 9104,
      "Ġground": 9105,
      "__):": 9106,
      "Ġsimulated": 9107,
      "ĠYYYYMMDD": 9108,
      "uffle": 9109,
      "Ġdrawing": 9110,
      "Ġassumed": 9111,
      "cu": 9112,
      "your": 9113,
      "Ġfood": 9114,
      "....": 9115,
      "Ġaccounting": 9116,
      "ĠExcel": 9117,
      "Ġcycl": 9118,
      "Ġregions": 9119,
      "triangle": 9120,
      "cbbd": 9121,
      "Ġnative": 9122,
      "Ġdash": 9123,
      "Ġship": 9124,
      "Ġpossibility": 9125,
      "128": 9126,
      "Ġsignificantly": 9127,
      "Ġwraps": 9128,
      "printable": 9129,
      "Ġmembership": 9130,
      "26535": 9131,
      "Current": 9132,
      "RE": 9133,
      "[::-": 9134,
      "acing": 9135,
      "ĠSentences": 9136,
      "Contents": 9137,
      "Ġemployed": 9138,
      "xxx": 9139,
      "phrases": 9140,
      "Ġfavorite": 9141,
      "<>": 9142,
      "Ġmism": 9143,
      "conver": 9144,
      "abab": 9145,
      "1001": 9146,
      "ught": 9147,
      "Ġoutermost": 9148,
      "DF": 9149,
      "EX": 9150,
      "Ġinequality": 9151,
      "ĠRun": 9152,
      "ĠReg": 9153,
      "create": 9154,
      "documents": 9155,
      "Ġquadril": 9156,
      "ctiveness": 9157,
[...]
