{
  "version": "1.0",
  "truncation": null,
  "padding": null,
  "added_tokens": [
    {
      "id": 0,
      "content": "<pad>",
      "single_word": false,
      "lstrip": false,
      "rstrip": false,
      "normalized": false,
      "special": true
    },
    {
      "id": 1,
      "content": "<unk>",
      "single_word": false,
      "lstrip": false,
      "rstrip": false,
      "normalized": false,
      "special": true
    },
    {
      "id": 2,
      "content": "<bos>",
      "single_word": false,
      "lstrip": false,
      "rstrip": false,
      "normalized": false,
      "special": true
    },
    {
      "id": 3,
      "content": "<eos>",
      "single_word": false,
      "lstrip": false,
      "rstrip": false,
      "normalized": false,
      "special": true
    }
  ],
  "normalizer": null,
  "pre_tokenizer": {
    "type": "ByteLevel",
    "add_prefix_space": false,
    "trim_offsets": true,
    "use_regex": true
  },
  "post_processor": null,
  "decoder": {
    "type": "ByteLevel",
    "add_prefix_space": true,
    "trim_offsets": true,
    "use_regex": true
  },
  "model": {
    "type": "BPE",
    "dropout": null,
    "unk_token": null,
    "continuing_subword_prefix": null,
    "end_of_word_suffix": null,
    "fuse_unk": false,
    "byte_fallback": false,
    "ignore_merges": false,
    "vocab": {
      "<pad>": 0,
      "<unk>": 1,
      "<bos>": 2,
      "<eos>": 3,
      "!": 4,
      "\"": 5,
      "#": 6,
      "$": 7,
      "%": 8,
      "&": 9,
      "'": 10,
      "(": 11,
      ")": 12,
      "*": 13,
      "+": 14,
      ",": 15,
      "-": 16,
      ".": 17,
      "/": 18,
      "0": 19,
      "1": 20,
      "2": 21,
      "3": 22,
      "4": 23,
      "5": 24,
      "6": 25,
      "7": 26,
      "8": 27,
      "9": 28,
      ":": 29,
      ";": 30,
      "<": 31,
      "=": 32,
      ">": 33,
      "?": 34,
      "@": 35,
      "A": 36,
      "B": 37,
      "C": 38,
      "D": 39,
      "E": 40,
      "F": 41,
      "G": 42,
      "H": 43,
      "I": 44,
      "J": 45,
      "K": 46,
      "L": 47,
      "M": 48,
      "N": 49,
      "O": 50,
      "P": 51,
      "Q": 52,
      "R": 53,
      "S": 54,
      "T": 55,
      "U": 56,
      "V": 57,
      "W": 58,
      "X": 59,
      "Y": 60,
      "Z": 61,
      "[": 62,
      "\\": 63,
      "]": 64,
      "^": 65,
      "_": 66,
      "`": 67,
      "a": 68,
      "b": 69,
      "c": 70,
      "d": 71,
      "e": 72,
      "f": 73,
      "g": 74,
      "h": 75,
      "i": 76,
      "j": 77,
      "k": 78,
      "l": 79,
      "m": 80,
      "n": 81,
      "o": 82,
      "p": 83,
      "q": 84,
      "r": 85,
      "s": 86,
      "t": 87,
      "u": 88,
      "v": 89,
      "w": 90,
      "x": 91,
      "y": 92,
      "z": 93,
      "{": 94,
      "|": 95,
      "}": 96,
      "~": 97,
      "¡": 98,
      "¢": 99,
      "£": 100,
      "¤": 101,
      "¥": 102,
      "¦": 103,
      "§": 104,
      "¨": 105,
      "©": 106,
      "ª": 107,
      "«": 108,
      "¬": 109,
      "®": 110,
      "¯": 111,
      "°": 112,
      "±": 113,
      "²": 114,
      "³": 115,
      "´": 116,
      "µ": 117,
      "¶": 118,
      "·": 119,
      "¸": 120,
      "¹": 121,
      "º": 122,
      "»": 123,
      "¼": 124,
      "½": 125,
      "¾": 126,
      "¿": 127,
      "Â": 128,
      "Ã": 129,
      "Ä": 130,
      "Å": 131,
      "Æ": 132,
      "Ç": 133,
      "È": 134,
      "É": 135,
      "Ê": 136,
      "Ë": 137,
      "Ì": 138,
      "Í": 139,
      "Î": 140,
      "Ï": 141,
      "Ð": 142,
      "Ñ": 143,
      "Ò": 144,
      "Ó": 145,
      "Ô": 146,
      "Õ": 147,
      "Ö": 148,
      "×": 149,
      "Ø": 150,
      "Ù": 151,
      "Ú": 152,
      "Û": 153,
      "Ü": 154,
      "Þ": 155,
      "ß": 156,
      "à": 157,
      "á": 158,
      "â": 159,
      "ã": 160,
      "ä": 161,
      "å": 162,
      "æ": 163,
      "ç": 164,
      "è": 165,
      "é": 166,
      "ê": 167,
      "ë": 168,
      "ì": 169,
      "í": 170,
      "î": 171,
      "ï": 172,
      "ð": 173,
      "ó": 174,
      "ā": 175,
      "Ă": 176,
      "ă": 177,
      "Ą": 178,
      "ą": 179,
      "Ć": 180,
      "ć": 181,
      "Ĉ": 182,
      "ĉ": 183,
      "Ċ": 184,
      "č": 185,
      "Ď": 186,
      "ď": 187,
      "đ": 188,
      "Ĕ": 189,
      "ĕ": 190,
      "Ė": 191,
      "Ę": 192,
      "ę": 193,
      "Ě": 194,
      "Ĝ": 195,
      "ĝ": 196,
      "Ğ": 197,
      "ğ": 198,
      "Ġ": 199,
      "ġ": 200,
      "Ģ": 201,
      "ģ": 202,
      "Ĥ": 203,
      "ĥ": 204,
      "Ħ": 205,
      "ħ": 206,
      "Ĩ": 207,
      "ĩ": 208,
      "Ī": 209,
      "ī": 210,
      "Ĭ": 211,
      "ĭ": 212,
      "Į": 213,
      "į": 214,
      "İ": 215,
      "ı": 216,
      "Ĳ": 217,
      "ĳ": 218,
      "Ĵ": 219,
      "ĵ": 220,
      "Ķ": 221,
      "ķ": 222,
      "ĸ": 223,
      "Ĺ": 224,
      "ĺ": 225,
      "Ļ": 226,
      "ļ": 227,
      "Ľ": 228,
      "ľ": 229,
      "Ŀ": 230,
      "ŀ": 231,
      "Ł": 232,
      "ł": 233,
      "Ń": 234,
      "Ġt": 235,
      "Ġa": 236,
      "ĠĠ": 237,
      "he": 238,
      "in": 239,
      "on": 240,
      "re": 241,
      "Ġthe": 242,
      "at": 243,
      "er": 244,
      "Ġs": 245,
      "Ġc": 246,
      "or": 247,
      "en": 248,
      "es": 249,
      "ti": 250,
      "Ġf": 251,
      "Ġp": 252,
      "Ġw": 253,
      "an": 254,
      "le": 255,
      "ou": 256,
      "is": 257,
      "ing": 258,
      "Ġan": 259,
      "al": 260,
      "Ġto": 261,
      "Ġd": 262,
      "it": 263,
      "Ġo": 264,
      "Ġin": 265,
      "ĠĠĠĠ": 266,
      "tion": 267,
      "Ġm": 268,
      "st": 269,
      "ed": 270,
      "ar": 271,
      "Ġb": 272,
      "Ġand": 273,
      "ro": 274,
      "ĠI": 275,
      "se": 276,
      "##": 277,
      "Ġof": 278,
      "ic": 279,
      "Ġn": 280,
      "Ġre": 281,
      "ent": 282,
      "ol": 283,
      "ĠĠĠ": 284,
      "Ġth": 285,
      "et": 286,
      "ction": 287,
      "ion": 288,
      "Ġl": 289,
      "il": 290,
      "ut": 291,
      "Ġe": 292,
      "Ġh": 293,
      "om": 294,
      "am": 295,
      "as": 296,
      "ct": 297,
      "ve": 298,
      "Ġu": 299,
      "de": 300,
      "ate": 301,
      "ru": 302,
      "im": 303,
      "Ġfor": 304,
      "ĠIn": 305,
      "ĠT": 306,
      "ation": 307,
      "ĠS": 308,
      "Ġy": 309,
      "``": 310,
      "ac": 311,
      "Ġg": 312,
      "ag": 313,
      "ow": 314,
      "###": 315,
      "ot": 316,
      "Ġis": 317,
      "Ġst": 318,
      "stru": 319,
      "Ġyou": 320,
      "Ġ\"": 321,
      "id": 322,
      "ay": 323,
      "struction": 324,
      "Ġ=": 325,
      "ur": 326,
      "ĠC": 327,
      "ĠInstruction": 328,
      "ata": 329,
      "Ġthat": 330,
      "ĠR": 331,
      "ri": 332,
      "Ġv": 333,
      "Ġpro": 334,
      "ce": 335,
      "Ġon": 336,
      "ly": 337,
      "ĠA": 338,
      "put": 339,
      "]:": 340,
      "Ġbe": 341,
      "ul": 342,
      "ith": 343,
      "ad": 344,
      "ment": 345,
      "ers": 346,
      "ch": 347,
      "age": 348,
      "ew": 349,
      "ig": 350,
      "Ġcon": 351,
      "ab": 352,
      "el": 353,
      "Ġwith": 354,
      "qu": 355,
      "if": 356,
      "ĠĠĠĠĠĠĠ": 357,
      "um": 358,
      "pon": 359,
      "Ġas": 360,
      "un": 361,
      "ill": 362,
      "Ġit": 363,
      "Ġcan": 364,
      "ir": 365,
      "pe": 366,
      "ode": 367,
      "ess": 368,
      "od": 369,
      "Ġor": 370,
      "Ġus": 371,
      "ile": 372,
      "pl": 373,
      "```": 374,
      "res": 375,
      "ist": 376,
      "ke": 377,
      "ra": 378,
      "ponse": 379,
      "ĠN": 380,
      "Ġal": 381,
      "In": 382,
      "em": 383,
      "ter": 384,
      "ver": 385,
      "ĠThe": 386,
      "Ġdata": 387,
      "ame": 388,
      "Ġ(": 389,
      "out": 390,
      "ort": 391,
      "ĠRes": 392,
      "Ġex": 393,
      "Ġhe": 394,
      "ĠP": 395,
      "Ġim": 396,
      "oc": 397,
      "ĠD": 398,
      "ĠResponse": 399,
      "end": 400,
      "Ġwill": 401,
      "and": 402,
      "Ġcom": 403,
      "Ġwe": 404,
      "us": 405,
      "ect": 406,
      "ld": 407,
      "rom": 408,
      "Ġ`": 409,
      "ĠM": 410,
      "ution": 411,
      "est": 412,
      "ple": 413,
      "Ġare": 414,
      "HM": 415,
      "'s": 416,
      "Ġde": 417,
      "ure": 418,
      "Ġse": 419,
      "th": 420,
      "ore": 421,
      "one": 422,
      "oun": 423,
      "ex": 424,
      "our": 425,
      "Ġ{": 426,
      "Ġ1": 427,
      "ĠW": 428,
      "Ġwh": 429,
      "os": 430,
      "olution": 431,
      "ht": 432,
      "ine": 433,
      ");": 434,
      "low": 435,
      "Input": 436,
      "ave": 437,
      "Ġsu": 438,
      "Ġthis": 439,
      "Ġfrom": 440,
      "pp": 441,
      "ĠH": 442,
      "ain": 443,
      "AI": 444,
      "able": 445,
      "ĠB": 446,
      "ity": 447,
      "ant": 448,
      "her": 449,
      "ĠF": 450,
      "dd": 451,
      "iz": 452,
      "Ġne": 453,
      "vi": 454,
      "ould": 455,
      "tic": 456,
      "orm": 457,
      "Ġsh": 458,
      "ack": 459,
      "og": 460,
      "Ġfun": 461,
      "ext": 462,
      "ass": 463,
      "Ġcl": 464,
      "ase": 465,
      "ere": 466,
      "Ġuse": 467,
      "ĠĠĠĠĠĠĠĠ": 468,
      "per": 469,
      "port": 470,
      "reate": 471,
      "</": 472,
      "ĠĊ": 473,
      "ring": 474,
      "Ġby": 475,
      "Ġ'": 476,
      "ĠSolution": 477,
      "op": 478,
      "Ġch": 479,
      "Ġnew": 480,
      "Ġfile": 481,
      "cl": 482,
      "Ġi": 483,
      "ject": 484,
      "art": 485,
      "Ġat": 486,
      "ust": 487,
      "âĢ": 488,
      "all": 489,
      "Ġfunction": 490,
      "ĠG": 491,
      "Ġle": 492,
      "Ġyour": 493,
      "Ġli": 494,
      "Ġhave": 495,
      "ary": 496,
      "ach": 497,
      "Ġcont": 498,
      "ord": 499,
      "00": 500,
      "Ġr": 501,
      "ĠE": 502,
      "ĠL": 503,
      "red": 504,
      "Ġen": 505,
      "ud": 506,
      "Ġpl": 507,
      "Ġint": 508,
      "Ġnot": 509,
      "Ġ}": 510,
      "Ġ.": 511,
      "cess": 512,
      "pt": 513,
      "int": 514,
      "Ġ2": 515,
      "Ġsc": 516,
      "Ġdo": 517,
      "ble": 518,
      "form": 519,
      "Ġfol": 520,
      "Ġar": 521,
      "his": 522,
      "ue": 523,
      "ang": 524,
      "Ġret": 525,
      "Ġma": 526,
      "Ġwas": 527,
      "ĠO": 528,
      "Ġres": 529,
      "ĠNone": 530,
      "Ġ$": 531,
      "ome": 532,
      "urn": 533,
      "Ġqu": 534,
      "Ġfollow": 535,
      "ub": 536,
      "ard": 537,
      "ial": 538,
      "ff": 539,
      "Ġme": 540,
      "ĠU": 541,
      "ight": 542,
      "Ġac": 543,
      "ies": 544,
      "ated": 545,
      "()": 546,
      "ati": 547,
      "ite": 548,
      "Ġif": 549,
      "Ġcode": 550,
      "ork": 551,
      "ans": 552,
      "ost": 553,
      "ance": 554,
      "ber": 555,
      "ath": 556,
      "Ġj": 557,
      "Ġadd": 558,
      "ry": 559,
      "du": 560,
      "ace": 561,
      "Ġ<": 562,
      "hen": 563,
      "av": 564,
      "enti": 565,
      "Ġusing": 566,
      "ally": 567,
      "Ġun": 568,
      "ll": 569,
      "ak": 570,
      "Ġ-": 571,
      "ind": 572,
      "ations": 573,
      "Ġbut": 574,
      "eth": 575,
      "ap": 576,
      "ress": 577,
      "ice": 578,
      "iv": 579,
      "ail": 580,
      "ell": 581,
      "so": 582,
      "Ġab": 583,
      "ount": 584,
      "//": 585,
      "ast": 586,
      "Ġob": 587,
      "are": 588,
      "oo": 589,
      "ult": 590,
      "ory": 591,
      "Ġk": 592,
      "Ġreturn": 593,
      "ound": 594,
      "Ġval": 595,
      "ener": 596,
      "con": 597,
      "Ġimage": 598,
      "ign": 599,
      "code": 600,
      "ire": 601,
      "ence": 602,
      "Ġcol": 603,
      "Ġout": 604,
      "nt": 605,
      "Ġspe": 606,
      "Ġtheir": 607,
      "ime": 608,
      "erson": 609,
      "ĠĠĊ": 610,
      "Ġdis": 611,
      "Ġmy": 612,
      "ep": 613,
      "\",": 614,
      "Ġgo": 615,
      "der": 616,
      "Ġfollowing": 617,
      "ide": 618,
      "act": 619,
      "ĠJ": 620,
      "ip": 621,
      "com": 622,
      "ition": 623,
      "ption": 624,
      "Ġneed": 625,
      "Ġname": 626,
      "Ġany": 627,
      "data": 628,
      "ich": 629,
      "ĠĠĠĠĠĠĠĠĠĠĠ": 630,
      "Ġcal": 631,
      "oug": 632,
      "Ġperson": 633,
      "ther": 634,
      "Ġup": 635,
      "ick": 636,
      "Ġlike": 637,
      "ĠSt": 638,
      "Ġform": 639,
      "Ġdes": 640,
      "iti": 641,
      "ty": 642,
      "ong": 643,
      "Ġeach": 644,
      "vel": 645,
      "Ġpre": 646,
      "ens": 647,
      "get": 648,
      "ates": 649,
      "ari": 650,
      "Ġcreate": 651,
      "Ġ0": 652,
      "ual": 653,
      "cri": 654,
      "gr": 655,
      "ize": 656,
      "Ġall": 657,
      "Ġper": 658,
      "lect": 659,
      "hat": 660,
      "te": 661,
      "iew": 662,
      "Ġhas": 663,
      "Ġcomm": 664,
      "ge": 665,
      "Ġclass": 666,
      "To": 667,
      "Ġuser": 668,
      "Ġset": 669,
      "ous": 670,
      "Ġro": 671,
      "ents": 672,
      "ec": 673,
      "ample": 674,
      "âĢĻ": 675,
      "ments": 676,
      "li": 677,
      "cul": 678,
      "ĠTo": 679,
      "Ġget": 680,
      "Ġspec": 681,
      "Ġinput": 682,
      "ph": 683,
      "ear": 684,
      "Ġnum": 685,
      "ethod": 686,
      "ser": 687,
      "Ġshould": 688,
      "ks": 689,
      "ical": 690,
      "St": 691,
      "Ġtr": 692,
      "Ġabout": 693,
      "Ġalso": 694,
      "Ġincl": 695,
      "led": 696,
      "This": 697,
      "ia": 698,
      "Ġso": 699,
      "Ġem": 700,
      "ues": 701,
      "ased": 702,
      "Ġmo": 703,
      "oy": 704,
      "Ġpar": 705,
      "The": 706,
      "Ġpr": 707,
      "les": 708,
      "Ġ[": 709,
      "ont": 710,
      "=\"": 711,
      "ĠY": 712,
      "set": 713,
      "Ġfe": 714,
      "lo": 715,
      "ude": 716,
      "Ġmethod": 717,
      "Ġinto": 718,
      "Ġthey": 719,
      "ors": 720,
      "Ġwork": 721,
      "enc": 722,
      "lic": 723,
      "Ġlist": 724,
      "Ġobject": 725,
      "Ġapp": 726,
      "Ġwhich": 727,
      "ĠIt": 728,
      "Ġtool": 729,
      "your": 730,
      "pre": 731,
      "ĠV": 732,
      "Ġtime": 733,
      "ater": 734,
      "fere": 735,
      "odel": 736,
      "pro": 737,
      "--": 738,
      "err": 739,
      "',": 740,
      "Ġman": 741,
      "ck": 742,
      "tim": 743,
      "ne": 744,
      "br": 745,
      "Ġ3": 746,
      "ery": 747,
      "Ġev": 748,
      "Ġsuch": 749,
      "(\"": 750,
      "Ġte": 751,
      "Ġsome": 752,
      "Ġam": 753,
      "Ġgener": 754,
      "Ġvari": 755,
      "Ġother": 756,
      "),": 757,
      "we": 758,
      "Ġthem": 759,
      "gt": 760,
      "ĠCreate": 761,
      "vide": 762,
      "ays": 763,
      "ating": 764,
      "Ġsa": 765,
      "Ġwhen": 766,
      "irst": 767,
      "Ġ//": 768,
      "name": 769,
      "ef": 770,
      "ake": 771,
      "ĠInput": 772,
      "ough": 773,
      "Ġsy": 774,
      "Ġmore": 775,
      "Ġpersona": 776,
      "ific": 777,
      "Ġlo": 778,
      "Data": 779,
      "Ġgr": 780,
      "lt": 781,
      "ublic": 782,
      "own": 783,
      "Ġrequ": 784,
      "ook": 785,
      "Ġpos": 786,
      "ype": 787,
      "Ġno": 788,
      "Ġwant": 789,
      "Ġ?": 790,
      "estion": 791,
      "Ġ*": 792,
      "Ġinform": 793,
      "rain": 794,
      "ĠThis": 795,
      "ages": 796,
      "Ġloc": 797,
      "Ġstring": 798,
      "ton": 799,
      "Ġrec": 800,
      "Ġ+": 801,
      "Ġhis": 802,
      "Ġproject": 803,
      "stem": 804,
      "oint": 805,
      "Ġone": 806,
      "Ġ,": 807,
      "Ġthen": 808,
      "Ġtable": 809,
      "Ġthere": 810,
      "Ġwould": 811,
      "Ġhow": 812,
      "tive": 813,
      "PT": 814,
      "Ġad": 815,
      "Ġdef": 816,
      "wo": 817,
      "ĠIm": 818,
      "ĠK": 819,
      "Ġinst": 820,
      "ree": 821,
      "Ġru": 822,
      "ive": 823,
      "Ġreg": 824,
      "Ġexample": 825,
      "Ġinter": 826,
      "Ġtext": 827,
      "base": 828,
      "Ġwho": 829,
      "Ġfil": 830,
      "Ġser": 831,
      "Ġinformation": 832,
      "ys": 833,
      "ild": 834,
      "Ġcomp": 835,
      "ustom": 836,
      "here": 837,
      "Ġnumber": 838,
      "lp": 839,
      "Ġused": 840,
      "Ġnam": 841,
      "erm": 842,
      "Ġover": 843,
      "Ġdet": 844,
      "row": 845,
      "ful": 846,
      "ray": 847,
      "ĠWe": 848,
      "au": 849,
      "Ġprovide": 850,
      "umn": 851,
      "ouble": 852,
      "Re": 853,
      "Ġap": 854,
      "to": 855,
      "ning": 856,
      "ose": 857,
      "Ġ&": 858,
      "Ġsp": 859,
      "rite": 860,
      "ng": 861,
      "io": 862,
      "pen": 863,
      "ood": 864,
      "Ġpol": 865,
      "Ġquestion": 866,
      "ie": 867,
      "ĠAs": 868,
      "lease": 869,
      "ON": 870,
      "ft": 871,
      "'t": 872,
      "Ġcalcul": 873,
      "Ġfirst": 874,
      "Ġhelp": 875,
      "anc": 876,
      "Ġmay": 877,
      "plement": 878,
      "ature": 879,
      "ange": 880,
      "duct": 881,
      "ĠĠĠĠĠ": 882,
      "iel": 883,
      "Ġmodel": 884,
      "Ġwhat": 885,
      "Ġke": 886,
      "Ġ5": 887,
      "nd": 888,
      "ication": 889,
      "ink": 890,
      "val": 891,
      "Ġtwo": 892,
      "ish": 893,
      ").": 894,
      "ric": 895,
      "irect": 896,
      "Ġproper": 897,
      "abel": 898,
      "Ġtak": 899,
      "ting": 900,
      "Ġdif": 901,
      "Ġoff": 902,
      "Ġmake": 903,
      "Ġco": 904,
      "::": 905,
      "Ġche": 906,
      "Ġits": 907,
      "ield": 908,
      "Ġpe": 909,
      "Ġimport": 910,
      "ax": 911,
      "si": 912,
      "Ġmed": 913,
      "old": 914,
      "ark": 915,
      "sw": 916,
      "ative": 917,
      "gram": 918,
      "Ġbet": 919,
      "ox": 920,
      "Ġid": 921,
      "Ġph": 922,
      "ĠCh": 923,
      "gg": 924,
      "ied": 925,
      "Ġkn": 926,
      "fter": 927,
      "Ġend": 928,
      "date": 929,
      "oup": 930,
      "Ġrep": 931,
      "ĠAdd": 932,
      "resent": 933,
      "igh": 934,
      "als": 935,
      "Ġresult": 936,
      "ions": 937,
      "ĠIf": 938,
      "..": 939,
      "atient": 940,
      "Ġread": 941,
      "arch": 942,
      "olog": 943,
      "play": 944,
      "view": 945,
      "Ġcre": 946,
      "iss": 947,
      "('": 948,
      "Ġerr": 949,
      "\".": 950,
      "ĠâĢ": 951,
      "urre": 952,
      "Ġcontro": 953,
      "ise": 954,
      "Ġvis": 955,
      "Ġthese": 956,
      "Ġacc": 957,
      "reat": 958,
      "Ġcor": 959,
      "raph": 960,
      "\")": 961,
      "ob": 962,
      "01": 963,
      "ient": 964,
      "Ġag": 965,
      "ves": 966,
      "Ġinc": 967,
      "rop": 968,
      "Ġsub": 969,
      "Ġsaid": 970,
      "inal": 971,
      "What": 972,
      "mo": 973,
      "Ġbased": 974,
      "Ġdatabase": 975,
      "Ġatt": 976,
      "ploy": 977,
      "Ġind": 978,
      "Ġcolumn": 979,
      "Ġyear": 980,
      "Ġwere": 981,
      "Ġcons": 982,
      "Ġhand": 983,
      "day": 984,
      "Ġspecific": 985,
      "cription": 986,
      "ian": 987,
      "ties": 988,
      "Ġtrans": 989,
      "ility": 990,
      "Ġbeen": 991,
      "Ġprogram": 992,
      "sh": 993,
      "ock": 994,
      "View": 995,
      "Ġ4": 996,
      "Ġcustom": 997,
      "comm": 998,
      "Cont": 999,
      "hes": 1000,
      "ings": 1001,
      "Ġmod": 1002,
      "Ġher": 1003,
      "ople": 1004,
      "();": 1005,
      "file": 1006,
      "Ġvalue": 1007,
      "ĠRe": 1008,
      "cessary": 1009,
      "Ġselect": 1010,
      "ures": 1011,
      "Ġstore": 1012,
      "app": 1013,
      "word": 1014,
      "Ġ;": 1015,
      "Ġsystem": 1016,
      "up": 1017,
      "Ġass": 1018,
      "Ġdiffere": 1019,
      "Ġpublic": 1020,
      "Ġinclud": 1021,
      "Ġthan": 1022,
      "ience": 1023,
      "swer": 1024,
      "'m": 1025,
      "Ġhad": 1026,
      "LE": 1027,
      "path": 1028,
      "ces": 1029,
      "Ġnecessary": 1030,
      ".\"": 1031,
      "urrent": 1032,
      "Ġnamed": 1033,
      "ER": 1034,
      "AT": 1035,
      "Ġbu": 1036,
      "entif": 1037,
      "Ġallow": 1038,
      "Ġwhere": 1039,
      "ract": 1040,
      "Ġcould": 1041,
      "Ġanal": 1042,
      "Ġtest": 1043,
      "Ġdep": 1044,
      "Ġdirect": 1045,
      "Ġstep": 1046,
      "ee": 1047,
      "ĠHere": 1048,
      "><": 1049,
      "oth": 1050,
      "atch": 1051,
      "ict": 1052,
      "ument": 1053,
      "Ġview": 1054,
      "Ġ#": 1055,
      "Ġshe": 1056,
      "Ġeff": 1057,
      "erg": 1058,
      "Ġpeople": 1059,
      "Ġcontain": 1060,
      "Ġrel": 1061,
      "rough": 1062,
      "tal": 1063,
      "ote": 1064,
      "Ġens": 1065,
      "amp": 1066,
      "Ġinv": 1067,
      "Ġbl": 1068,
      "ular": 1069,
      "iness": 1070,
      "Ġgenerate": 1071,
      "Ġinclude": 1072,
      "ION": 1073,
      "fore": 1074,
      "Ġperform": 1075,
      "Ġunder": 1076,
      "Ġtype": 1077,
      "Ġafter": 1078,
      "rib": 1079,
      "my": 1080,
      "uring": 1081,
      "ved": 1082,
      "Ġvalues": 1083,
      "its": 1084,
      "Ġtotal": 1085,
      "ctor": 1086,
      "par": 1087,
      "ĠĠĠĠĠĠĠĠĠĠĠĠĠĠĠ": 1088,
      "Ġrun": 1089,
      "eng": 1090,
      "Ġjust": 1091,
      "velop": 1092,
      "Ġ19": 1093,
      "Ġ:": 1094,
      "ween": 1095,
      "Ġonly": 1096,
      "rig": 1097,
      "ĠYou": 1098,
      "Ġtakes": 1099,
      "action": 1100,
      "Ġthrough": 1101,
      "Ġext": 1102,
      "vid": 1103,
      "></": 1104,
      "ause": 1105,
      "chn": 1106,
      "Ġback": 1107,
      "ticle": 1108,
      "ĠCon": 1109,
      "Ġcommand": 1110,
      "ash": 1111,
      "vice": 1112,
      "String": 1113,
      "ines": 1114,
      "riv": 1115,
      "Ġarray": 1116,
      "ized": 1117,
      "ĠHow": 1118,
      "Ġplay": 1119,
      "essage": 1120,
      "Ġstru": 1121,
      "oid": 1122,
      "ols": 1123,
      "ired": 1124,
      "Ġstud": 1125,
      "alth": 1126,
      "Ġbetween": 1127,
      "yp": 1128,
      "back": 1129,
      "Ġed": 1130,
      "Ġsent": 1131,
      "tern": 1132,
      "Ġprocess": 1133,
      "Ġ/": 1134,
      "rit": 1135,
      "usiness": 1136,
      "Ġreport": 1137,
      "angu": 1138,
      "ller": 1139,
      "sible": 1140,
      "Ġcalculate": 1141,
      "Ġpack": 1142,
      "pr": 1143,
      "ĠOn": 1144,
      "hed": 1145,
      "Ġstart": 1146,
      "tp": 1147,
      "Ġknow": 1148,
      "Ġensure": 1149,
      "ency": 1150,
      "Ġfind": 1151,
      "orld": 1152,
      "Ġtrain": 1153,
      "Ġ!": 1154,
      "Ġweb": 1155,
      "tiv": 1156,
      "Ġcount": 1157,
      "Ġrepresent": 1158,
      "sc": 1159,
      "tain": 1160,
      "Ġdisplay": 1161,
      "OPT": 1162,
      "commend": 1163,
      "brary": 1164,
      "Ġvariable": 1165,
      "ateg": 1166,
      "IONS": 1167,
      "read": 1168,
      "ody": 1169,
      "OPTIONS": 1170,
      "ix": 1171,
      "import": 1172,
      "king": 1173,
      "Ġanswer": 1174,
      "Ġcalled": 1175,
      "tle": 1176,
      "Ġcurrent": 1177,
      "Ġlet": 1178,
      "line": 1179,
      "Ġ10": 1180,
      "Ġ@": 1181,
      "dex": 1182,
      "Ġsur": 1183,
      "Ġformat": 1184,
      "ĠString": 1185,
      "cho": 1186,
      "pos": 1187,
      "Ġgood": 1188,
      "ss": 1189,
      "very": 1190,
      "Ġpass": 1191,
      "Ġbec": 1192,
      "ĠImage": 1193,
      "vent": 1194,
      "Ġour": 1195,
      "Ġrequest": 1196,
      "place": 1197,
      "Name": 1198,
      "Ġ|": 1199,
      "ram": 1200,
      "Ġtechn": 1201,
      "ts": 1202,
      "Ġpath": 1203,
      "->": 1204,
      "Ġimplement": 1205,
      "Ġact": 1206,
      "sel": 1207,
      "Ġline": 1208,
      "Ġsim": 1209,
      "Ġplan": 1210,
      "Ġmon": 1211,
      "Ġkey": 1212,
      "Ġstruct": 1213,
      "Ġgroup": 1214,
      "Ġlocation": 1215,
      "Ġmost": 1216,
      "Ġhigh": 1217,
      "aw": 1218,
      "tics": 1219,
      "anguage": 1220,
      "Ġdate": 1221,
      "air": 1222,
      "Solution": 1223,
      "Ġav": 1224,
      "Ġel": 1225,
      "Ġtry": 1226,
      "Ġstate": 1227,
      "Ġinstall": 1228,
      "QL": 1229,
      "Ġfield": 1230,
      "Ġdifferent": 1231,
      "Ġdataset": 1232,
      "Ġtem": 1233,
      "Ġcomple": 1234,
      "Ġreturns": 1235,
      "Ġwell": 1236,
      "sv": 1237,
      "amet": 1238,
      "Ġmain": 1239,
      "rame": 1240,
      "Ġprovid": 1241,
      "right": 1242,
      "Ġchar": 1243,
      "Ġrecommend": 1244,
      "Ġx": 1245,
      "ĠĠĠĠĠĠĠĠĠĠĠĠĠĠĠĠ": 1246,
      "ĠPro": 1247,
      "Ġidentif": 1248,
      "ought": 1249,
      "Ġdoes": 1250,
      "Ġele": 1251,
      "))": 1252,
      "ĠFor": 1253,
      "text": 1254,
      "Pro": 1255,
      "ential": 1256,
      "Ġmin": 1257,
      "Ġcontrol": 1258,
      "Ġpart": 1259,
      "Ġtru": 1260,
      "Ġbutton": 1261,
      "ĠĠĠĠĊ": 1262,
      "Ġshow": 1263,
      "ords": 1264,
      "\";": 1265,
      "string": 1266,
      "Ġins": 1267,
      "ocument": 1268,
      "ĠUn": 1269,
      "ities": 1270,
      "Ġway": 1271,
      "ever": 1272,
      "ify": 1273,
      "mer": 1274,
      "----": 1275,
      "requ": 1276,
      "Ġgu": 1277,
      "ily": 1278,
      "cript": 1279,
      "Ġfl": 1280,
      "Ġpatient": 1281,
      "ven": 1282,
      "Ġdec": 1283,
      "];": 1284,
      "Ġoutput": 1285,
      "SE": 1286,
      "Ġaccess": 1287,
      "Ġrow": 1288,
      "Ġaut": 1289,
      "Ġve": 1290,
      "ices": 1291,
      "itive": 1292,
      "000": 1293,
      "Ġproduct": 1294,
      "ute": 1295,
      "List": 1296,
      "ered": 1297,
      "Ġcall": 1298,
      "Ġexp": 1299,
      "Ġreal": 1300,
      "fun": 1301,
      "Ġgiv": 1302,
      "Ġtake": 1303,
      "rie": 1304,
      "bo": 1305,
      "feren": 1306,
      "Ġdown": 1307,
      "Ġdesign": 1308,
      "Ġdon": 1309,
      "ner": 1310,
      "Ġconf": 1311,
      "time": 1312,
      "Ġsoc": 1313,
      "pport": 1314,
      "Ġcheck": 1315,
      "It": 1316,
      "Ġappl": 1317,
      "ather": 1318,
      "pect": 1319,
      "Ġbefore": 1320,
      "Ġarticle": 1321,
      "ale": 1322,
      "ene": 1323,
      "serv": 1324,
      "Ġbusiness": 1325,
      "Ġsay": 1326,
      "ava": 1327,
      "ript": 1328,
      "dition": 1329,
      "âĢĿ": 1330,
      "Ġthink": 1331,
      "ness": 1332,
      "Ġscript": 1333,
      "AR": 1334,
      "ization": 1335,
      "ted": 1336,
      "verage": 1337,
      "cc": 1338,
      "Ġwhile": 1339,
      "Ġhere": 1340,
      "uman": 1341,
      "ables": 1342,
      "Ġent": 1343,
      "Ġcar": 1344,
      "Ġdist": 1345,
      "ĠâĢľ": 1346,
      "ator": 1347,
      "Ġtop": 1348,
      "Ġquery": 1349,
      "RO": 1350,
      "Ġpop": 1351,
      "Ġtools": 1352,
      "rans": 1353,
      "SV": 1354,
      "Ġ6": 1355,
      "Ġfood": 1356,
      "Ġsum": 1357,
      "Ġerror": 1358,
      "Ġexper": 1359,
      "Ġmem": 1360,
      "Ġlanguage": 1361,
      "other": 1362,
      "Ġopen": 1363,
      "Ġsee": 1364,
      "Ġpoint": 1365,
      "PI": 1366,
      "ove": 1367,
      "Ġsign": 1368,
      "son": 1369,
      "any": 1370,
      "Ġpoli": 1371,
      "Ġdescription": 1372,
      "Ġhealth": 1373,
      "ten": 1374,
      "gan": 1375,
      "Ġlong": 1376,
      "cent": 1377,
      "ĠDo": 1378,
      "ĠEx": 1379,
      "udio": 1380,
      "ren": 1381,
      "Ġpot": 1382,
      "Ġdevelop": 1383,
      "Ġmat": 1384,
      "fer": 1385,
      "Ġconst": 1386,
      "Ġcle": 1387,
      "ology": 1388,
      "ysis": 1389,
      "Ġevent": 1390,
      "Ġdi": 1391,
      "ms": 1392,
      "me": 1393,
      "ĠNew": 1394,
      "Ġstr": 1395,
      "Ġaction": 1396,
      "ĠHe": 1397,
      "ull": 1398,
      "Ġresponse": 1399,
      "ving": 1400,
      "Ġoption": 1401,
      "ml": 1402,
      "Tools": 1403,
      "cond": 1404,
      "Ġimages": 1405,
      "ĠWhat": 1406,
      "riend": 1407,
      "Ġsame": 1408,
      "Ġtra": 1409,
      "ĠAn": 1410,
      "Ġdouble": 1411,
      "arget": 1412,
      "ems": 1413,
      "Ġemail": 1414,
      "ified": 1415,
      "Ġmany": 1416,
      "csv": 1417,
      "Ġbest": 1418,
      "__": 1419,
      "Ġtas": 1420,
      "20": 1421,
      "face": 1422,
      "Ġdid": 1423,
      "Ġsentence": 1424,
      "ĠCl": 1425,
      "vers": 1426,
      "ployee": 1427,
      "oot": 1428,
      "ower": 1429,
      "ited": 1430,
      "How": 1431,
      "Ġduring": 1432,
      "add": 1433,
      "ource": 1434,
      "Text": 1435,
      "Ġbeing": 1436,
      "Ġsk": 1437,
      "Ġprint": 1438,
      "ife": 1439,
      "Ġ=>": 1440,
      "Ġvide": 1441,
      "ĠDef": 1442,
      "vious": 1443,
      "ĠTh": 1444,
      "Ġlog": 1445,
      "oad": 1446,
      "Ex": 1447,
      "wn": 1448,
      "Ġequ": 1449,
      "ĠPlease": 1450,
      "Ġmet": 1451,
      "ics": 1452,
      "ection": 1453,
      "Ġimportant": 1454,
      "Ġmessage": 1455,
      "Ġretrie": 1456,
      "NT": 1457,
      "be": 1458,
      "Ġparamet": 1459,
      "Ġmus": 1460,
      "Ġpossible": 1461,
      "ases": 1462,
      "Ġcorre": 1463,
      "Ġlast": 1464,
      "enerate": 1465,
      "co": 1466,
      "Ġlevel": 1467,
      "stand": 1468,
      "ger": 1469,
      "Ġlead": 1470,
      "ality": 1471,
      "ccess": 1472,
      "ural": 1473,
      "Ġtell": 1474,
      "iqu": 1475,
      "str": 1476,
      "ength": 1477,
      "ually": 1478,
      "ced": 1479,
      "tif": 1480,
      "Add": 1481,
      "Ġcolor": 1482,
      "Ġquestions": 1483,
      "ha": 1484,
      "Ġnews": 1485,
      "ason": 1486,
      "rivate": 1487,
      "ometh": 1488,
      "Ġgiven": 1489,
      "Ġproperty": 1490,
      "Ġinf": 1491,
      "Ġiss": 1492,
      "erest": 1493,
      "ports": 1494,
      "ets": 1495,
      "gin": 1496,
      "omething": 1497,
      "self": 1498,
      "Ġfam": 1499,
      "ib": 1500,
      "');": 1501,
      "Ch": 1502,
      "Im": 1503,
      "CT": 1504,
      "Ġtri": 1505,
      "ants": 1506,
      "Ġfin": 1507,
      "Ġload": 1508,
      "ier": 1509,
      "Ġvisual": 1510,
      "Ġworld": 1511,
      "Ġday": 1512,
      "Ġrem": 1513,
      "Ġdirectory": 1514,
      "Ġincluding": 1515,
      "Th": 1516,
      "ulation": 1517,
      "lete": 1518,
      "til": 1519,
      "ĠSQL": 1520,
      "Ġlook": 1521,
      "IN": 1522,
      "Ġtoo": 1523,
      "Ġstat": 1524,
      "ler": 1525,
      "ĠDefine": 1526,
      "ware": 1527,
      "Ġrele": 1528,
      "indow": 1529,
      "Ġexpl": 1530,
      "10": 1531,
      "Ġcase": 1532,
      "ST": 1533,
      "ational": 1534,
      "Ġsocial": 1535,
      "Ġlear": 1536,
      "Ġsm": 1537,
      "Date": 1538,
      "Ġop": 1539,
      "work": 1540,
      "Con": 1541,
      "ider": 1542,
      "Ġreview": 1543,
      "()`": 1544,
      "no": 1545,
      "Ġmark": 1546,
      "Ġ201": 1547,
      "Ġuses": 1548,
      "Ġelse": 1549,
      "Ġwater": 1550,
      "Ġbre": 1551,
      "Ġterm": 1552,
      "ability": 1553,
      "pec": 1554,
      "Ġagain": 1555,
      "entiment": 1556,
      "ender": 1557,
      "reen": 1558,
      "Ġfound": 1559,
      "not": 1560,
      "aterial": 1561,
      "Ġhim": 1562,
      "ward": 1563,
      "ĠList": 1564,
      "Ġmean": 1565,
      "Ġboth": 1566,
      "ression": 1567,
      "ĠX": 1568,
      "edback": 1569,
      "ank": 1570,
      "Ġrepresenting": 1571,
      "Ġpred": 1572,
      "Is": 1573,
      "Ġimpro": 1574,
      "We": 1575,
      "An": 1576,
      "let": 1577,
      "://": 1578,
      "Ġcontent": 1579,
      "ĠCan": 1580,
      "Ġyes": 1581,
      "Ġear": 1582,
      "Ġmen": 1583,
      "ĠCSV": 1584,
      "ĠSe": 1585,
      "nection": 1586,
      "Ġcustomer": 1587,
      "Ġlibrary": 1588,
      ".</": 1589,
      "Ġtim": 1590,
      "perature": 1591,
      "ending": 1592,
      "ream": 1593,
      "Ġca": 1594,
      "Ġ%": 1595,
      "Ġright": 1596,
      "http": 1597,
      "Ġanalysis": 1598,
      "Ġremo": 1599,
      "Ġeng": 1600,
      "col": 1601,
      "Ġtrue": 1602,
      "tivity": 1603,
      "ĠCom": 1604,
      "Ġlabel": 1605,
      "ales": 1606,
      "Ġclick": 1607,
      "Ġpackage": 1608,
      "tical": 1609,
      "Ġyears": 1610,
      "ze": 1611,
      "Ġ>": 1612,
      "Ġsure": 1613,
      "arm": 1614,
      "ouse": 1615,
      "Ġrest": 1616,
      "ession": 1617,
      "Ġ<<": 1618,
      "hip": 1619,
      "Contro": 1620,
      "):": 1621,
      "Ġmap": 1622,
      "Ġmu": 1623,
      "Ġsecond": 1624,
      "RE": 1625,
      "Ġsugg": 1626,
      "Ġnext": 1627,
      "Ġhist": 1628,
      "Ar": 1629,
      "Ġdocument": 1630,
      "Ġsomething": 1631,
      "gative": 1632,
      "go": 1633,
      "Ġvery": 1634,
      "ek": 1635,
      "AB": 1636,
      "ĠID": 1637,
      "Ġtraining": 1638,
      "Val": 1639,
      "ĠDe": 1640,
      "Ġinterest": 1641,
      "alcul": 1642,
      "Ġevery": 1643,
      "File": 1644,
      "Ġbecause": 1645,
      "Ġ8": 1646,
      "Ġmade": 1647,
      "bers": 1648,
      "Ġvideo": 1649,
      "ĠAPI": 1650,
      "mpt": 1651,
      "ocation": 1652,
      "Ġchild": 1653,
      "Ġlove": 1654,
      "ystem": 1655,
      "uc": 1656,
      "Ġtarget": 1657,
      "Ġbr": 1658,
      "Ġidentify": 1659,
      ";/": 1660,
      "ince": 1661,
      "cept": 1662,
      "Ġresults": 1663,
      "Ġfact": 1664,
      "print": 1665,
      "utton": 1666,
      "ĠAr": 1667,
      "rap": 1668,
      "Ġmonth": 1669,
      "Ġdisc": 1670,
      "Ġcommun": 1671,
      "ails": 1672,
      "Ġhead": 1673,
      "Here": 1674,
      "Ġorder": 1675,
      "itle": 1676,
      "Ġchang": 1677,
      "class": 1678,
      "Ġsupport": 1679,
      "itial": 1680,
      "Ġprodu": 1681,
      "ern": 1682,
      "mit": 1683,
      "`,": 1684,
      "Ġmedia": 1685,
      "search": 1686,
      "ĠWhen": 1687,
      "Ġ==": 1688,
      "Ġpost": 1689,
      "Ġsearch": 1690,
      "new": 1691,
      "Ġ7": 1692,
      "ined": 1693,
      "num": 1694,
      "iron": 1695,
      "Ġhuman": 1696,
      "nect": 1697,
      "ograph": 1698,
      "By": 1699,
      "Ġtyp": 1700,
      "plot": 1701,
      "by": 1702,
      "Ġsize": 1703,
      "ĠHowever": 1704,
      "clude": 1705,
      "($": 1706,
      "Ġfeature": 1707,
      "],": 1708,
      "ĠAl": 1709,
      "load": 1710,
      "Ġpotential": 1711,
      "ĠNo": 1712,
      "mp": 1713,
      "Ġplot": 1714,
      "tions": 1715,
      "ule": 1716,
      "oose": 1717,
      "agement": 1718,
      "idth": 1719,
      "ĠData": 1720,
      "Ġsave": 1721,
      "Ġvar": 1722,
      "Ġproperties": 1723,
      "vant": 1724,
      "lish": 1725,
      "ety": 1726,
      "Ġincre": 1727,
      "Ġpur": 1728,
      "heck": 1729,
      "itor": 1730,
      "Ġcent": 1731,
      "Ġown": 1732,
      "ager": 1733,
      "Sc": 1734,
      "Ġpartic": 1735,
      "raw": 1736,
      "\":": 1737,
      "Ġaverage": 1738,
      "Id": 1739,
      "oh": 1740,
      "gor": 1741,
      "Com": 1742,
      "')": 1743,
      "alculate": 1744,
      "Ġthree": 1745,
      "ron": 1746,
      "Ġsoft": 1747,
      "Ġprevious": 1748,
      "ĠWrite": 1749,
      "ins": 1750,
      "Cl": 1751,
      "atures": 1752,
      "Ġz": 1753,
      "ergy": 1754,
      "Ġaddress": 1755,
      "ĠGo": 1756,
      "Ġchart": 1757,
      "Ġeven": 1758,
      "ars": 1759,
      "ivid": 1760,
      "ision": 1761,
      "ffic": 1762,
      "erc": 1763,
      "ident": 1764,
      "Ġbuild": 1765,
      "gment": 1766,
      "Ġteam": 1767,
      "label": 1768,
      "sole": 1769,
      "Ġsteps": 1770,
      "Ġ200": 1771,
      "Ġnow": 1772,
      "just": 1773,
      "ID": 1774,
      "Ġexec": 1775,
      "roid": 1776,
      "Ġes": 1777,
      "yn": 1778,
      "ulti": 1779,
      "Ġapplication": 1780,
      "Ġproble": 1781,
      "Ġ20": 1782,
      "Ġarea": 1783,
      "Write": 1784,
      "ush": 1785,
      "Ġavail": 1786,
      "site": 1787,
      "RL": 1788,
      "ken": 1789,
      "min": 1790,
      "Ġcost": 1791,
      "Ġretrieve": 1792,
      "Ġsuccess": 1793,
      "ital": 1794,
      "En": 1795,
      "Ġmight": 1796,
      "Ġcorrect": 1797,
      "Ġobjects": 1798,
      "Col": 1799,
      "man": 1800,
      ",\"": 1801,
      "ĠUse": 1802,
      "gorith": 1803,
      "land": 1804,
      "Ġhome": 1805,
      "ropri": 1806,
      "Ġage": 1807,
      "Ġnames": 1808,
      "Ġstand": 1809,
      "rix": 1810,
      "Action": 1811,
      "med": 1812,
      "Ġhandle": 1813,
      "ients": 1814,
      "Ġcr": 1815,
      "Ġcharact": 1816,
      "Ġunderstand": 1817,
      "ML": 1818,
      "ah": 1819,
      "Ġplace": 1820,
      "Ġperformance": 1821,
      "az": 1822,
      "viron": 1823,
      "Ġmov": 1824,
      "Ġsec": 1825,
      "Ġsl": 1826,
      "Ġlar": 1827,
      "ATE": 1828,
      "Ġmuch": 1829,
      "ropriate": 1830,
      "Ġpositive": 1831,
      "Ġpay": 1832,
      "Ġrate": 1833,
      "utes": 1834,
      "Ġtrack": 1835,
      "ared": 1836,
      "Ġsti": 1837,
      "Ġneeds": 1838,
      "Ġref": 1839,
      "Create": 1840,
      "Next": 1841,
      "Ob": 1842,
      "fil": 1843,
      "Ġwrit": 1844,
      "Ġgreat": 1845,
      "ĠÐ": 1846,
      "Ġrequire": 1847,
      "itude": 1848,
      "Ġleg": 1849,
      "Ġsn": 1850,
      "Ġjob": 1851,
      "map": 1852,
      "Time": 1853,
      "LECT": 1854,
      "ources": 1855,
      "ĠQ": 1856,
      "servation": 1857,
      "Ġsche": 1858,
      "user": 1859,
      "ling": 1860,
      "use": 1861,
      "ermine": 1862,
      "Ġanaly": 1863,
      "ĠOpen": 1864,
      "50": 1865,
      "for": 1866,
      "ead": 1867,
      "ret": 1868,
      "Ġupd": 1869,
      "meric": 1870,
      "Ġarg": 1871,
      "Type": 1872,
      "Ġactual": 1873,
      "ration": 1874,
      "Ġdem": 1875,
      "way": 1876,
      "Ġextract": 1877,
      "mb": 1878,
      "Ġcolumns": 1879,
      "hold": 1880,
      "Ġimprove": 1881,
      "pond": 1882,
      "oms": 1883,
      "lection": 1884,
      "ĠImplement": 1885,
      "Ġappropriate": 1886,
      "Ġprivate": 1887,
      "ism": 1888,
      "Ġdr": 1889,
      "ĠWh": 1890,
      "Ġvoid": 1891,
      "Ġusers": 1892,
      "Ġdefine": 1893,
      "Ġrecord": 1894,
      "stall": 1895,
      "ancial": 1896,
      "yle": 1897,
      "Ġimp": 1898,
      "Ġmusic": 1899,
      "Ġdetect": 1900,
      "board": 1901,
      "Ġdepend": 1902,
      "sum": 1903,
      "por": 1904,
      "ROM": 1905,
      "Ġinstruction": 1906,
      "Ġrange": 1907,
      "Ġalgorith": 1908,
      "\">": 1909,
      "Ġbody": 1910,
      "Ġappe": 1911,
      "Res": 1912,
      "chool": 1913,
      "Ġmaterial": 1914,
      "Ġeas": 1915,
      "fe": 1916,
      "ective": 1917,
      "Ġcondition": 1918,
      "Ġfiles": 1919,
      "Ġfeedback": 1920,
      "Ġamount": 1921,
      "Ġsolution": 1922,
      "Ġcell": 1923,
      "Ġposition": 1924,
      "Ġtechnology": 1925,
      "yth": 1926,
      "Note": 1927,
      "ormal": 1928,
      "Path": 1929,
      "Ġfamily": 1930,
      "vironment": 1931,
      "Controller": 1932,
      "Ġsepar": 1933,
      "public": 1934,
      "Ġtasks": 1935,
      "quot": 1936,
      "uss": 1937,
      "the": 1938,
      "Ġanim": 1939,
      "Ġaround": 1940,
      "cont": 1941,
      "Ġmiss": 1942,
      "ats": 1943,
      "ault": 1944,
      "Ġfinal": 1945,
      "Ġfeel": 1946,
      "ĠSc": 1947,
      "Ġcontaining": 1948,
      "Ġcare": 1949,
      "Ġmovi": 1950,
      "ond": 1951,
      "arent": 1952,
      "Ġnegative": 1953,
      "ross": 1954,
      "ically": 1955,
      ":</": 1956,
      "lu": 1957,
      "None": 1958,
      "'ve": 1959,
      "iled": 1960,
      "Ġallows": 1961,
      "Ġaccount": 1962,
      "sp": 1963,
      "Ġtesting": 1964,
      "tity": 1965,
      "Ġfriend": 1966,
      "ense": 1967,
      "tit": 1968,
      "Ġ9": 1969,
      "vey": 1970,
      "ĠEng": 1971,
      "ours": 1972,
      "Ġredu": 1973,
      "';": 1974,
      "Ġprof": 1975,
      "hor": 1976,
      "ipp": 1977,
      "achine": 1978,
      "Ġsuggest": 1979,
      "Ġuseful": 1980,
      "ious": 1981,
      "Ġris": 1982,
      "Ġorgan": 1983,
      "Ġrece": 1984,
      "ible": 1985,
      "uration": 1986,
      "Ġstructure": 1987,
      "Ġsentiment": 1988,
      "Ġresearch": 1989,
      "attern": 1990,
      "As": 1991,
      "Ġpres": 1992,
      "Ġenc": 1993,
      "Ġupdate": 1994,
      "ĠThey": 1995,
      "ĠSet": 1996,
      "orn": 1997,
      "Ġwebsite": 1998,
      "ination": 1999,
      "ĠIs": 2000,
      "Ġcommon": 2001,
      "aries": 2002,
      "Ġphot": 2003,
      "ror": 2004,
      "ĠAmeric": 2005,
      "Ġweek": 2006,
      "Ġwithin": 2007,
      "mary": 2008,
      "Ġtemperature": 2009,
      "miss": 2010,
      "ĠThen": 2011,
      "rid": 2012,
      "Ġcomput": 2013,
      "ique": 2014,
      "elf": 2015,
      "kes": 2016,
      "\");": 2017,
      "inally": 2018,
      "Ġ100": 2019,
      "Ġmarket": 2020,
      "ples": 2021,
      "Ġreally": 2022,
      "||": 2023,
      "Ġsing": 2024,
      "aving": 2025,
      "Ġthose": 2026,
      "ann": 2027,
      "image": 2028,
      "ertain": 2029,
      "Ġoper": 2030,
      "12": 2031,
      "Ð¾": 2032,
      "ird": 2033,
      "Ġspecified": 2034,
      "Ġenergy": 2035,
      "cle": 2036,
      "Ġkeep": 2037,
      "input": 2038,
      "Ġlearning": 2039,
      "Ġinvol": 2040,
      "box": 2041,
      "Ġocc": 2042,
      "ĠDouble": 2043,
      "++": 2044,
      "ications": 2045,
      "ĠAnd": 2046,
      "mat": 2047,
      "Ġvariables": 2048,
      "ories": 2049,
      "Ġadjust": 2050,
      "Ġmulti": 2051,
      "js": 2052,
      "Ġstill": 2053,
      "Ġath": 2054,
      "lay": 2055,
      "ift": 2056,
      "ights": 2057,
      "acy": 2058,
      "Ġappro": 2059,
      "Ġsmall": 2060,
      "Ġfore": 2061,
      "Ġlocal": 2062,
      "Ġpage": 2063,
      "Ġoptions": 2064,
      "ately": 2065,
      "isual": 2066,
      "Ġ<-": 2067,
      "etwork": 2068,
      "df": 2069,
      "Ġchange": 2070,
      "Ġ:=": 2071,
      "ĠGPT": 2072,
      "ĠYes": 2073,
      "log": 2074,
      "Ġbar": 2075,
      "andom": 2076,
      "ference": 2077,
      "Ġcap": 2078,
      "Ġmax": 2079,
      "Ġrelevant": 2080,
      "Ġaff": 2081,
      "head": 2082,
      "Ġdel": 2083,
      "Ġsound": 2084,
      "Ġlife": 2085,
      "Ġstd": 2086,
      "ames": 2087,
      "Ġplease": 2088,
      "utri": 2089,
      "Ġcompany": 2090,
      "Ġinitial": 2091,
      "test": 2092,
      "ade": 2093,
      "Ġpo": 2094,
      "Ġtitle": 2095,
      "ences": 2096,
      "Ġpie": 2097,
      "ĠUI": 2098,
      "Box": 2099,
      "Ġpersonal": 2100,
      "Ġchanges": 2101,
      "ython": 2102,
      "Ġbreak": 2103,
      "NS": 2104,
      "avor": 2105,
      "vern": 2106,
      "'re": 2107,
      "Of": 2108,
      "Ġconnection": 2109,
      "Ġfrequ": 2110,
      "ql": 2111,
      "ral": 2112,
      "Ġ</": 2113,
      "Trans": 2114,
      "Image": 2115,
      "SELECT": 2116,
      "ividual": 2117,
      "Ġconc": 2118,
      "Ġinte": 2119,
      "Ġavailable": 2120,
      "title": 2121,
      "vices": 2122,
      "Ġlot": 2123,
      "Ġcour": 2124,
      "Ġgoing": 2125,
      "CE": 2126,
      "Ġnon": 2127,
      "ording": 2128,
      "Ġvers": 2129,
      "Ġscore": 2130,
      "leg": 2131,
      "ĠDet": 2132,
      "atform": 2133,
      "ores": 2134,
      "ume": 2135,
      "Ġair": 2136,
      "Ġenvironment": 2137,
      "Ġmove": 2138,
      "iod": 2139,
      "type": 2140,
      "ĠBut": 2141,
      "iction": 2142,
      "ĠOb": 2143,
      "New": 2144,
      "Ġsit": 2145,
      "Value": 2146,
      "Ġaud": 2147,
      "Ġrows": 2148,
      "['": 2149,
      "ogle": 2150,
      "ask": 2151,
      "ait": 2152,
      "Ġtreat": 2153,
      "Ġlaw": 2154,
      "ampa": 2155,
      "loat": 2156,
      "Se": 2157,
      "Ser": 2158,
      "ĠPer": 2159,
      "count": 2160,
      "Ġserver": 2161,
      "Ġmar": 2162,
      "Ġhapp": 2163,
      "Ġfew": 2164,
      "Ġconvers": 2165,
      "ries": 2166,
      "Ġgive": 2167,
      "Ġworking": 2168,
      "Ġoptim": 2169,
      "div": 2170,
      "Ġgame": 2171,
      "def": 2172,
      "Ġregard": 2173,
      "Ġinterface": 2174,
      "Ġdesired": 2175,
      "ingred": 2176,
      "oss": 2177,
      "Ġcreated": 2178,
      "ĠHT": 2179,
      "havi": 2180,
      "ey": 2181,
      "Ġide": 2182,
      "Wh": 2183,
      "Script": 2184,
      "gress": 2185,
      "ĠSp": 2186,
      "Ġmeas": 2187,
      "Ġself": 2188,
      "Yes": 2189,
      "ma": 2190,
      "atter": 2191,
      "Ġcontroller": 2192,
      "ĠPh": 2193,
      "ivers": 2194,
      "Ġmachine": 2195,
      "].": 2196,
      "Ġside": 2197,
      "Ġwithout": 2198,
      "ampaign": 2199,
      "vert": 2200,
      "include": 2201,
      "of": 2202,
      "Ġwords": 2203,
      "ĠGenerate": 2204,
      "Ġdescri": 2205,
      "aging": 2206,
      "Ġprice": 2207,
      "Ġsports": 2208,
      "process": 2209,
      "ances": 2210,
      "Ġoffic": 2211,
      "Ġpredict": 2212,
      "ĠSh": 2213,
      "aces": 2214,
      "Ġeffect": 2215,
      "Ġindividual": 2216,
      "Ġmust": 2217,
      "wit": 2218,
      "Ðµ": 2219,
      "ĠJava": 2220,
      "Ġcontin": 2221,
      "Ġcomplete": 2222,
      "Ġwrite": 2223,
      "Ġexist": 2224,
      "Ġsever": 2225,
      "lation": 2226,
      "Ġpress": 2227,
      "Ġra": 2228,
      "imum": 2229,
      "`.": 2230,
      "Ġneeded": 2231,
      "Ġselected": 2232,
      "dule": 2233,
      "ĠText": 2234,
      "bu": 2235,
      "Ġtre": 2236,
      "Ġagainst": 2237,
      "value": 2238,
      "late": 2239,
      "Ġanother": 2240,
      "Ġsoftware": 2241,
      "png": 2242,
      "Ġsample": 2243,
      "tr": 2244,
      "Ġclient": 2245,
      "xt": 2246,
      "function": 2247,
      "itional": 2248,
      "otal": 2249,
      "side": 2250,
      "Ġ--": 2251,
      "Ġ12": 2252,
      "thing": 2253,
      "ategory": 2254,
      "AL": 2255,
      "Ġemployee": 2256,
      "Ġstored": 2257,
      "Ġparameters": 2258,
      "urs": 2259,
      "dep": 2260,
      "Ġlight": 2261,
      "Ġwom": 2262,
      "Man": 2263,
      "orth": 2264,
      "urity": 2265,
      "oice": 2266,
      "rror": 2267,
      "ogn": 2268,
      "ape": 2269,
      "oci": 2270,
      "ering": 2271,
      "ember": 2272,
      "Ġgraph": 2273,
      "Ġsol": 2274,
      "Ġalgorithm": 2275,
      "Ġpiece": 2276,
      "Ġput": 2277,
      "Ġproblem": 2278,
      "inc": 2279,
      "key": 2280,
      "Ġsort": 2281,
      "ERE": 2282,
      "Ġconsider": 2283,
      "ĠINT": 2284,
      "Ġservice": 2285,
      "Ġexerc": 2286,
      "ception": 2287,
      "escription": 2288,
      "Ġschool": 2289,
      "Ġbo": 2290,
      "Ġ\\": 2291,
      "Ġfilm": 2292,
      "ium": 2293,
      "Ġsens": 2294,
      "inter": 2295,
      "ground": 2296,
      "Ġstatement": 2297,
      "using": 2298,
      "error": 2299,
      "Can": 2300,
      "Ġelect": 2301,
      "Ġprac": 2302,
      "size": 2303,
      "ailed": 2304,
      "alse": 2305,
      "uments": 2306,
      "aly": 2307,
      "For": 2308,
      "bl": 2309,
      "avig": 2310,
      "ĠEn": 2311,
      "yes": 2312,
      "pass": 2313,
      "Ġcity": 2314,
      "Ġbetter": 2315,
      "down": 2316,
      "ĠSo": 2317,
      "ĠMy": 2318,
      "Ġlit": 2319,
      "Ġelement": 2320,
      "ways": 2321,
      "Ġbro": 2322,
      "Ġtypes": 2323,
      "Ġsend": 2324,
      "Thought": 2325,
      "Ġlay": 2326,
      "atients": 2327,
      "Ġfinancial": 2328,
      "ons": 2329,
      "ferences": 2330,
      "plit": 2331,
      "Ġcountry": 2332,
      "ĠThere": 2333,
      "tice": 2334,
      "Ġfilter": 2335,
      "Ġvarious": 2336,
      "Ġcreates": 2337,
      "etch": 2338,
      "alk": 2339,
      "rec": 2340,
      "Ġgrow": 2341,
      "Ġaudio": 2342,
      "ipe": 2343,
      "Ġdoing": 2344,
      "Ġprote": 2345,
      "Ġindex": 2346,
      "Ġclean": 2347,
      "Ġfields": 2348,
      "Ġ18": 2349,
      "Ġold": 2350,
      "oney": 2351,
      "ĠURL": 2352,
      "Ġfeatures": 2353,
      "Ġpoints": 2354,
      "fo": 2355,
      "Ġrout": 2356,
      "ĠVisual": 2357,
      "Table": 2358,
      "Ġbox": 2359,
      "Ġclear": 2360,
      "Ġprot": 2361,
      "ialog": 2362,
      "Ġmil": 2363,
      "Ġleft": 2364,
      "Ġvector": 2365,
      "ww": 2366,
      "Ġremove": 2367,
      "Ġless": 2368,
      "uation": 2369,
      "Ġwindow": 2370,
      "ĠĠĠĠĠĠĠĠĠĠĠĠĠĠĠĠĠĠĠ": 2371,
      "Ġable": 2372,
      "Ġrequired": 2373,
      "Ġmovie": 2374,
      "encies": 2375,
      "itionally": 2376,
      "ohn": 2377,
      "Ġsince": 2378,
      "Ġplatform": 2379,
      "Read": 2380,
      "Ġexpect": 2381,
      "Ġrunning": 2382,
      "Ġincludes": 2383,
      "Ġask": 2384,
      "Ġnear": 2385,
      "Ġloop": 2386,
      "Ġitem": 2387,
      "Ð°": 2388,
      "ane": 2389,
      "Ġpain": 2390,
      "Ã©": 2391,
      "ref": 2392,
      "Ġgovern": 2393,
      "Ġtimes": 2394,
      "Ġben": 2395,
      "ponent": 2396,
      "Ġwar": 2397,
      "25": 2398,
      "Ġdog": 2399,
      "You": 2400,
      "ls": 2401,
      "Ġathlete": 2402,
      "Ġpresent": 2403,
      "Ġimplementation": 2404,
      "Ġdetermine": 2405,
      "ework": 2406,
      "Ġvalid": 2407,
      "ET": 2408,
      "Ġpolitics": 2409,
      "index": 2410,
      "Ġpattern": 2411,
      "pons": 2412,
      "Ġmaking": 2413,
      "actions": 2414,
      "Ġorig": 2415,
      "ĠCheck": 2416,
      "If": 2417,
      "point": 2418,
      "Ã¤": 2419,
      "...": 2420,
      "Ġcontains": 2421,
      "html": 2422,
      "atural": 2423,
      "Ġinstance": 2424,
      "Ġcharacter": 2425,
      "Ġmedical": 2426,
      "agn": 2427,
      "const": 2428,
      "ĠCalculate": 2429,
      "Ġfour": 2430,
      "Ġge": 2431,
      "sub": 2432,
      "Ġmodule": 2433,
      "Ġthings": 2434,
      "Ġpower": 2435,
      "Ġbeli": 2436,
      "Ġmethods": 2437,
      "Ġscience": 2438,
      "Ġregular": 2439,
      "Ġregarding": 2440,
      "asic": 2441,
      "ĠAS": 2442,
      "Ġaccur": 2443,
      "ope": 2444,
      "ert": 2445,
      "21": 2446,
      "Ġbehavi": 2447,
      "aff": 2448,
      "ND": 2449,
      "db": 2450,
      "Ġsci": 2451,
      "Ġmatch": 2452,
      "Ġsets": 2453,
      "ooks": 2454,
      "icro": 2455,
      "Ġparameter": 2456,
      "Ġsegment": 2457,
      "ĠCol": 2458,
      "Ġseveral": 2459,
      "pack": 2460,
      "Ġemploy": 2461,
      "table": 2462,
      "ĠAI": 2463,
      "ĠEnglish": 2464,
      "Ġstrateg": 2465,
      "used": 2466,
      "Ġwhe": 2467,
      "Ġhig": 2468,
      "Ġmeet": 2469,
      "https": 2470,
      "ches": 2471,
      "Ġcertain": 2472,
      "ech": 2473,
      "respond": 2474,
      "joy": 2475,
      "Ġgot": 2476,
      "Ġindic": 2477,
      "Ġhard": 2478,
      "ocal": 2479,
      "Ġexperience": 2480,
      "Ġphys": 2481,
      "ĠShe": 2482,
      "Button": 2483,
      "Ġfavor": 2484,
      "Ġissue": 2485,
      "braries": 2486,
      "Ġ_": 2487,
      "ramework": 2488,
      "ived": 2489,
      "order": 2490,
      "Ġwon": 2491,
      "De": 2492,
      "Ġimpact": 2493,
      "CH": 2494,
      "uro": 2495,
      "ug": 2496,
      "ĠĠĠĠĠĠĠĠĠ": 2497,
      "Par": 2498,
      "Ġsav": 2499,
      "list": 2500,
      "ees": 2501,
      "els": 2502,
      "Form": 2503,
      "ĠThese": 2504,
      "Ġuntil": 2505,
      "over": 2506,
      "venue": 2507,
      "ĠFinally": 2508,
      "Ġlarge": 2509,
      "Ġtoday": 2510,
      "Ġnetwork": 2511,
      "Ġstory": 2512,
      "ĠSome": 2513,
      "ĠAdditionally": 2514,
      "ppl": 2515,
      "Ġtrying": 2516,
      "Ġversion": 2517,
      "Ġconsole": 2518,
      "year": 2519,
      "Ġingred": 2520,
      "Ġcomb": 2521,
      "[]": 2522,
      "tered": 2523,
      "Ġprovided": 2524,
      "omic": 2525,
      "mon": 2526,
      "Ġpast": 2527,
      "Ġsummary": 2528,
      "frame": 2529,
      "Ð¸": 2530,
      "ury": 2531,
      "ĠUnited": 2532,
      "Ġcorrespond": 2533,
      "amer": 2534,
      "ache": 2535,
      "GPT": 2536,
      "Ġlow": 2537,
      "book": 2538,
      "perty": 2539,
      "Ġcampaign": 2540,
      "aring": 2541,
      "IM": 2542,
      "19": 2543,
      "Ġword": 2544,
      "amples": 2545,
      "ĠLe": 2546,
      "Ġhistory": 2547,
      "OR": 2548,
      "artment": 2549,
      "Ġpercent": 2550,
      "ĠGet": 2551,
      "Ġrules": 2552,
      "Ġrisk": 2553,
      "Ġabove": 2554,
      "Ġaudience": 2555,
      "words": 2556,
      "do": 2557,
      "Ġadded": 2558,
      "Ġenjoy": 2559,
      "umber": 2560,
      "Ġperiod": 2561,
      "Ġdiscuss": 2562,
      "ister": 2563,
      "ĠDim": 2564,
      "Ġlim": 2565,
      "Ġdays": 2566,
      "HERE": 2567,
      "ttp": 2568,
      "Ġlibraries": 2569,
      "Ġareas": 2570,
      "Ġ30": 2571,
      "SI": 2572,
      "lin": 2573,
      "Ġstandard": 2574,
      "Ġdevelopment": 2575,
      "Ġissues": 2576,
      "Ġla": 2577,
      "illion": 2578,
      "idd": 2579,
      "model": 2580,
      "reg": 2581,
      "ensity": 2582,
      "Ġdifferen": 2583,
      "othes": 2584,
      "Ġcred": 2585,
      "aut": 2586,
      "Ġsales": 2587,
      "osp": 2588,
      "Line": 2589,
      "Item": 2590,
      "mar": 2591,
      "Ġlat": 2592,
      "ĠUS": 2593,
      "Ġstudent": 2594,
      "Ġmissing": 2595,
      "gs": 2596,
      "ills": 2597,
      "ental": 2598,
      "Ġweight": 2599,
      "ĠCont": 2600,
      "ĠClick": 2601,
      "Ġonline": 2602,
      "Ġheight": 2603,
      "ĠPr": 2604,
      "Ġgl": 2605,
      "ids": 2606,
      "Ġcannot": 2607,
      "Ġoften": 2608,
      "plate": 2609,
      "ribution": 2610,
      "ĠAt": 2611,
      "ouch": 2612,
      "11": 2613,
      "Ġframe": 2614,
      "Ġunique": 2615,
      "With": 2616,
      "ming": 2617,
      "Ġdri": 2618,
      "ĠZ": 2619,
      "leep": 2620,
      "ilar": 2621,
      "ished": 2622,
      "Ġfit": 2623,
      "Rec": 2624,
      "Ġlength": 2625,
      "LL": 2626,
      "Ġlive": 2627,
      "ES": 2628,
      "sing": 2629,
      "sert": 2630,
      "Ġfoot": 2631,
      "Ġtax": 2632,
      "enses": 2633,
      "riter": 2634,
      "ĠMAT": 2635,
      "Ġstudents": 2636,
      "Ġmodify": 2637,
      "Ġfollows": 2638,
      "OU": 2639,
      "ĠFile": 2640,
      "Ġkind": 2641,
      "Ġreason": 2642,
      "Ġturn": 2643,
      "ÑĤ": 2644,
      "Ġmenu": 2645,
      "Ġbook": 2646,
      "LAB": 2647,
      "Ġsingle": 2648,
      "ollow": 2649,
      ";&": 2650,
      "ready": 2651,
      "Ġnutri": 2652,
      "Error": 2653,
      "strong": 2654,
      "Ġindust": 2655,
      "txt": 2656,
      "Ġconnect": 2657,
      "Ġsetting": 2658,
      "igure": 2659,
      "Ġsuccessful": 2660,
      "Ġchildren": 2661,
      "body": 2662,
      "ĠHTML": 2663,
      "Ġdetails": 2664,
      "Ġproducts": 2665,
      "aim": 2666,
      "Ġvi": 2667,
      "ply": 2668,
      "var": 2669,
      "ustomer": 2670,
      "und": 2671,
      "Ġ15": 2672,
      "ĠDate": 2673,
      "rict": 2674,
      "su": 2675,
      "yd": 2676,
      "ĠInstall": 2677,
      "atus": 2678,
      "struct": 2679,
      "ĠMATLAB": 2680,
      "reshold": 2681,
      "Ġsource": 2682,
      "aur": 2683,
      "Ġsection": 2684,
      "OT": 2685,
      "Ġvol": 2686,
      "Ġbi": 2687,
      "SON": 2688,
      "Ġroom": 2689,
      "lood": 2690,
      "Ġrepe": 2691,
      "Ġrelations": 2692,
      "istance": 2693,
      "Ġbenef": 2694,
      "Ġrad": 2695,
      "64": 2696,
      "30": 2697,
      "uture": 2698,
      "Em": 2699,
      "bed": 2700,
      "He": 2701,
      "aug": 2702,
      "ists": 2703,
      "Ġalways": 2704,
      "double": 2705,
      "utive": 2706,
      "ological": 2707,
      "irt": 2708,
      "ribute": 2709,
      "ippet": 2710,
      "entist": 2711,
      "less": 2712,
      "outh": 2713,
      "Ġelements": 2714,
      "ones": 2715,
      "Ġprogress": 2716,
      "ball": 2717,
      "Ġmoney": 2718,
      "ĠLoad": 2719,
      "come": 2720,
      "url": 2721,
      "Ġaccording": 2722,
      "Ġrequirements": 2723,
      "ĠRem": 2724,
      "ĠLet": 2725,
      "ina": 2726,
      "Ġmatrix": 2727,
      "ps": 2728,
      "ĠBY": 2729,
      "Ġnil": 2730,
      "Ġgre": 2731,
      "vis": 2732,
      "Ġpurch": 2733,
      "ris": 2734,
      "Do": 2735,
      "Ġknown": 2736,
      "ik": 2737,
      "']": 2738,
      "ipment": 2739,
      "atic": 2740,
      "ĠApp": 2741,
      "Ġparent": 2742,
      "Ġcook": 2743,
      "Ġfrequency": 2744,
      "Ġred": 2745,
      "Ġland": 2746,
      "Ġreplace": 2747,
      "ordin": 2748,
      "rics": 2749,
      "Pre": 2750,
      "Ġ+=": 2751,
      "Ġprompt": 2752,
      "Context": 2753,
      "ĠInd": 2754,
      "oud": 2755,
      "lement": 2756,
      "Ġpackages": 2757,
      "weet": 2758,
      "Ġstatus": 2759,
      "Replace": 2760,
      "Ġeffective": 2761,
      "hi": 2762,
      "Ġwhy": 2763,
      "Ġ($": 2764,
      "quest": 2765,
      "Ġinvest": 2766,
      "length": 2767,
      "Ġ...": 2768,
      "Ġfoc": 2769,
      "Ġport": 2770,
      "icy": 2771,
      "ots": 2772,
      "ams": 2773,
      "Ġur": 2774,
      "udget": 2775,
      "Ġdone": 2776,
      "uff": 2777,
      "Ġgovernment": 2778,
      "ĠXcode": 2779,
      "NCE": 2780,
      "Ġshort": 2781,
      "Ġfavorite": 2782,
      "Ġsal": 2783,
      "Ġremain": 2784,
      "password": 2785,
      "Ġcalculates": 2786,
      "ters": 2787,
      "\"&": 2788,
      "ently": 2789,
      "uestion": 2790,
      "Ġcome": 2791,
      "Manager": 2792,
      "wh": 2793,
      "Ġmultiple": 2794,
      "orry": 2795,
      "ĠTru": 2796,
      "ĠPl": 2797,
      "Ġprevent": 2798,
      "Ġ!=": 2799,
      "Ġconversation": 2800,
      "Ġexplain": 2801,
      "aily": 2802,
      "Ġauthor": 2803,
      "Ġbrand": 2804,
      "aking": 2805,
      "Ġver": 2806,
      "Ġrandom": 2807,
      "Ġnormal": 2808,
      "Ġsays": 2809,
      "earch": 2810,
      "Ġcontact": 2811,
      "Ġgetting": 2812,
      "UI": 2813,
      "Ġofficial": 2814,
      "Ġgene": 2815,
      "Ġrelated": 2816,
      "Ġstyle": 2817,
      "Ġalready": 2818,
      "Ġbehavior": 2819,
      "ĠMon": 2820,
      "Ġcreating": 2821,
      "No": 2822,
      "Ġbuilding": 2823,
      "Ġspace": 2824,
      "Ġcontext": 2825,
      "Ġenter": 2826,
      "ride": 2827,
      "Ġfree": 2828,
      "Array": 2829,
      "Ġphone": 2830,
      "Ġest": 2831,
      "Ġterminal": 2832,
      "Ġcorresponding": 2833,
      "Ġbound": 2834,
      "ny": 2835,
      "Ġfac": 2836,
      "Ġfunctions": 2837,
      "ĠĠĠĠĠĠ": 2838,
      "Ġsomeone": 2839,
      "39": 2840,
      "Ġhaving": 2841,
      "Ġfur": 2842,
      "ĠStates": 2843,
      "ĠSer": 2844,
      "Ġnever": 2845,
      "af": 2846,
      "Ġwhether": 2847,
      "Ġscreen": 2848,
      "Ġcult": 2849,
      "ĠSub": 2850,
      "Ġcomputer": 2851,
      "Ġbig": 2852,
      "Sh": 2853,
      "Ġprom": 2854,
      "Ġstre": 2855,
      "icult": 2856,
      "ilities": 2857,
      "library": 2858,
      "Ġseries": 2859,
      "ension": 2860,
      "iting": 2861,
      "Ġleast": 2862,
      "--------": 2863,
      "Please": 2864,
      "Ġsurvey": 2865,
      "Ġinside": 2866,
      "Ġaffect": 2867,
      "Ġtold": 2868,
      "**": 2869,
      "SS": 2870,
      "Ġpopular": 2871,
      "ĠSystem": 2872,
      "Ġtask": 2873,
      "Ġsnippet": 2874,
      "Ġspecial": 2875,
      "ĠEm": 2876,
      "Ġlater": 2877,
      "Ġitems": 2878,
      "json": 2879,
      "Ġupdated": 2880,
      "Ġstudy": 2881,
      "gen": 2882,
      "Ġprob": 2883,
      "light": 2884,
      "arter": 2885,
      "func": 2886,
      "like": 2887,
      "ott": 2888,
      "CRE": 2889,
      "At": 2890,
      "chie": 2891,
      "Ġseason": 2892,
      "Ġstop": 2893,
      "ges": 2894,
      "FROM": 2895,
      "Ġpatients": 2896,
      "Ġ50": 2897,
      "Ġhouse": 2898,
      "Ġjo": 2899,
      "Ġdiff": 2900,
      "Are": 2901,
      "Ġonto": 2902,
      "Count": 2903,
      "Ġactivity": 2904,
      "antity": 2905,
      "ney": 2906,
      "Ġproviding": 2907,
      "Ġnavig": 2908,
      "Le": 2909,
      "Ġclose": 2910,
      "Ġnight": 2911,
      "abor": 2912,
      "rag": 2913,
      "));": 2914,
      "ators": 2915,
      "Ġthing": 2916,
      "ĠAmerican": 2917,
      "aste": 2918,
      "Ð½": 2919,
      "HP": 2920,
      "iversity": 2921,
      "Ġintern": 2922,
      "Ġhold": 2923,
      "Set": 2924,
      "Ġnatural": 2925,
      "Ġrelationship": 2926,
      "Ġdru": 2927,
      "iver": 2928,
      "wards": 2929,
      "Ġclust": 2930,
      "Ġpolitic": 2931,
      "Ġgoals": 2932,
      "Ġdistance": 2933,
      "Ġinstead": 2934,
      "Ġloy": 2935,
      "ĠBased": 2936,
      "Ġhours": 2937,
      "Ġâ": 2938,
      "Out": 2939,
      "lines": 2940,
      "Ä±": 2941,
      "isplay": 2942,
      "Ġparticip": 2943,
      "ĠName": 2944,
      "jor": 2945,
      "usion": 2946,
      "omet": 2947,
      "Frame": 2948,
      "App": 2949,
      "Ġregion": 2950,
      "Ġtaking": 2951,
      "ĠCondition": 2952,
      "Ġwatch": 2953,
      "ypothes": 2954,
      "Ġsignific": 2955,
      "Ġadditional": 2956,
      "lob": 2957,
      "Ġtoget": 2958,
      "Ġschedule": 2959,
      "Ġtogether": 2960,
      "ises": 2961,
      "Ġlevels": 2962,
      "ĠAd": 2963,
      "Ġdrop": 2964,
      "ĠBe": 2965,
      "Ġ25": 2966,
      "Label": 2967,
      "train": 2968,
      "py": 2969,
      "Ġevents": 2970,
      "Map": 2971,
      "hest": 2972,
      "from": 2973,
      "Ġstrong": 2974,
      "mission": 2975,
      "result": 2976,
      "15": 2977,
      "rc": 2978,
      "tire": 2979,
      "Key": 2980,
      "Ġeat": 2981,
      "click": 2982,
      "une": 2983,
      "Ġband": 2984,
      "ĠNS": 2985,
      "There": 2986,
      "sequ": 2987,
      "ides": 2988,
      "Ġmaterials": 2989,
      "Ġtravel": 2990,
      "Ñģ": 2991,
      "Ġbelie": 2992,
      "Ġmembers": 2993,
      "Ġbegin": 2994,
      "trans": 2995,
      "tem": 2996,
      "Ġpopulation": 2997,
      "Get": 2998,
      "orpor": 2999,
      "Ġavoid": 3000,
      "())": 3001,
      "ole": 3002,
      "ypothesis": 3003,
      "80": 3004,
      "cer": 3005,
      "Ġconditions": 3006,
      "bar": 3007,
      "Ġfurther": 3008,
      "Ġ},": 3009,
      "rate": 3010,
      "Un": 3011,
      "Qu": 3012,
      "Ġexecutive": 3013,
      "Ġaway": 3014,
      "Ġsw": 3015,
      "ViewController": 3016,
      "Ġincrease": 3017,
      "Ġ->": 3018,
      "Pr": 3019,
      "ĠInt": 3020,
      "Ġeval": 3021,
      "Object": 3022,
      "Ġdue": 3023,
      "vas": 3024,
      "Ġprofession": 3025,
      "Ġspecies": 3026,
      "Ġflow": 3027,
      "ged": 3028,
      "Ġfive": 3029,
      "Ġreduce": 3030,
      "Ġachie": 3031,
      "Ġdise": 3032,
      "Ġmemory": 3033,
      "Ġreports": 3034,
      "Ġfuture": 3035,
      "ips": 3036,
      "NN": 3037,
      "atis": 3038,
      "Ġdownload": 3039,
      "Ġalong": 3040,
      "Ġmanagement": 3041,
      "Ġeduc": 3042,
      "ĠOr": 3043,
      "start": 3044,
      "ĠOne": 3045,
      "Ġintegr": 3046,
      "idence": 3047,
      "Ġgoal": 3048,
      "Ġ16": 3049,
      "Ġworks": 3050,
      "ĠÃ": 3051,
      "Ġlittle": 3052,
      "Ġhot": 3053,
      "pture": 3054,
      "Ġsimilar": 3055,
      "Ġblack": 3056,
      "Ġfalse": 3057,
      "odes": 3058,
      "Ġresources": 3059,
      "irm": 3060,
      "ctivity": 3061,
      "Ġadding": 3062,
      "Ġcompl": 3063,
      "ĠDevelop": 3064,
      "ags": 3065,
      "redict": 3066,
      "Ġlooking": 3067,
      "Ġassign": 3068,
      "Ġpa": 3069,
      "Ġandroid": 3070,
      "met": 3071,
      "Ġlegal": 3072,
      "lear": 3073,
      "Translate": 3074,
      "andas": 3075,
      "ĠOnce": 3076,
      "Ġseparated": 3077,
      "effic": 3078,
      "lib": 3079,
      "ĠJohn": 3080,
      "End": 3081,
      "ĠView": 3082,
      "rypt": 3083,
      "Ġsong": 3084,
      "izing": 3085,
      "based": 3086,
      "?</": 3087,
      "Ġobservation": 3088,
      "Ġann": 3089,
      "ĠPHP": 3090,
      "Per": 3091,
      "ÑĢ": 3092,
      "org": 3093,
      "Ġgenerates": 3094,
      "Ġsecurity": 3095,
      "Ġfactors": 3096,
      "Ġcoll": 3097,
      "Ġgen": 3098,
      "Int": 3099,
      "Ġinflu": 3100,
      "lected": 3101,
      "Ġcustomers": 3102,
      "orical": 3103,
      "Ġseems": 3104,
      "Ġrecords": 3105,
      "username": 3106,
      "Ġthird": 3107,
      "Ġcause": 3108,
      "patient": 3109,
      "When": 3110,
      "Ġminutes": 3111,
      "istent": 3112,
      "};": 3113,
      "Ġrestaur": 3114,
      "Ġmom": 3115,
      "ump": 3116,
      "Ġindustry": 3117,
      "'ll": 3118,
      "Ġanalyze": 3119,
      "Ġcur": 3120,
      "cast": 3121,
      "tist": 3122,
      "tional": 3123,
      "Request": 3124,
      "na": 3125,
      "aged": 3126,
      "Ġcard": 3127,
      "Ġdiet": 3128,
      "Ġ});": 3129,
      "Ġmeasure": 3130,
      "Ġquality": 3131,
      "ĠType": 3132,
      "Ġeasy": 3133,
      "valid": 3134,
      "ĠPar": 3135,
      "img": 3136,
      "UP": 3137,
      "Ġanything": 3138,
      "Ġgroups": 3139,
      "Ġdirectly": 3140,
      "().": 3141,
      "query": 3142,
      "ĠGoogle": 3143,
      "istic": 3144,
      "Ġcut": 3145,
      "pare": 3146,
      "ographic": 3147,
      "ARCH": 3148,
      "Ġchoose": 3149,
      "Ġsqu": 3150,
      "Enter": 3151,
      "osed": 3152,
      "iques": 3153,
      "Model": 3154,
      "Ġrole": 3155,
      "Question": 3156,
      "fort": 3157,
      "Ð¾Ð": 3158,
      "Ġcomma": 3159,
      "amera": 3160,
      "Ġlink": 3161,
      "itation": 3162,
      "Ġeffects": 3163,
      "location": 3164,
      "Ġ[]": 3165,
      "Ġinj": 3166,
      "Number": 3167,
      "Ġsuper": 3168,
      "Ġways": 3169,
      "ĠReplace": 3170,
      "EY": 3171,
      "rown": 3172,
      "Ġscientist": 3173,
      "Color": 3174,
      "NA": 3175,
      "care": 3176,
      "Ġenough": 3177,
      "ulate": 3178,
      "hentic": 3179,
      "Ġrating": 3180,
      "Ġstay": 3181,
      "ĠChoose": 3182,
      "Ġpreferences": 3183,
      "Ġproduction": 3184,
      "Ġassoci": 3185,
      "rad": 3186,
      "Ġoriginal": 3187,
      "Ġheart": 3188,
      "ARCHAR": 3189,
      "ĠPerl": 3190,
      "On": 3191,
      "Ġbuy": 3192,
      "ither": 3193,
      "ored": 3194,
      "Ġdoesn": 3195,
      "cel": 3196,
      "Ġyoung": 3197,
      "ched": 3198,
      "pping": 3199,
      "witter": 3200,
      "mptoms": 3201,
      "Al": 3202,
      "tification": 3203,
      "ĠImport": 3204,
      "conn": 3205,
      "Ass": 3206,
      "16": 3207,
      "Ġanswering": 3208,
      "cing": 3209,
      "Ġthought": 3210,
      "cks": 3211,
      "sy": 3212,
      "opy": 3213,
      "yard": 3214,
      "Ġbal": 3215,
      "roll": 3216,
      "pper": 3217,
      "Ġattack": 3218,
      "tivi": 3219,
      "ĠRet": 3220,
      "ensor": 3221,
      "po": 3222,
      "Ġmess": 3223,
      "Ġbackground": 3224,
      "uate": 3225,
      "ĠJSON": 3226,
      "Ġaw": 3227,
      "22": 3228,
      "ĠRub": 3229,
      "Ġec": 3230,
      "Ġlearn": 3231,
      "urope": 3232,
      "Ġmeans": 3233,
      "Ġargument": 3234,
      "ony": 3235,
      "inary": 3236,
      "Ġcourse": 3237,
      "friend": 3238,
      "])": 3239,
      "Ġfar": 3240,
      "Ġcases": 3241,
      "izes": 3242,
      "Ġwidth": 3243,
      "ointment": 3244,
      "Ġequipment": 3245,
      "group": 3246,
      "ĠVARCHAR": 3247,
      "Ġearly": 3248,
      "Ġrecogn": 3249,
      "Ġpassword": 3250,
      "Ġnull": 3251,
      "Ġservices": 3252,
      "aps": 3253,
      "void": 3254,
      "Ġwin": 3255,
      "output": 3256,
      "User": 3257,
      "Ġprim": 3258,
      "ula": 3259,
      "active": 3260,
      "Ġemployees": 3261,
      "Ġeffic": 3262,
      "Field": 3263,
      "LENCE": 3264,
      "Ġtechniques": 3265,
      "SILENCE": 3266,
      "ison": 3267,
      "td": 3268,
      "Ġ199": 3269,
      "Ġrefer": 3270,
      "open": 3271,
      "Ġpush": 3272,
      "Ġscene": 3273,
      "State": 3274,
      "Ġmajor": 3275,
      "pped": 3276,
      "Ġecon": 3277,
      "Ġprotein": 3278,
      "ended": 3279,
      "alf": 3280,
      "ront": 3281,
      "rest": 3282,
      "Ġgir": 3283,
      "Ġpolitician": 3284,
      "EN": 3285,
      "Ġoverall": 3286,
      "Ġchall": 3287,
      "ĠYork": 3288,
      "Ġdraw": 3289,
      "off": 3290,
      "Ġheat": 3291,
      "Ġbase": 3292,
      "SQL": 3293,
      "width": 3294,
      "Row": 3295,
      "pective": 3296,
      "bs": 3297,
      "ighb": 3298,
      "Ġlabels": 3299,
      "Ġsignificant": 3300,
      "Ġclaim": 3301,
      "rior": 3302,
      "Ġconcern": 3303,
      "Ġfolder": 3304,
      "izer": 3305,
      "Ġsleep": 3306,
      "ĠAfter": 3307,
      "tivities": 3308,
      "ename": 3309,
      "ĠPython": 3310,
      "Ġothers": 3311,
      "Ġtrad": 3312,
      "Ġbudget": 3313,
      "Pl": 3314,
      "Ġang": 3315,
      "Ġphysical": 3316,
      "Ġpolice": 3317,
      "Ġcat": 3318,
      "Ġdevice": 3319,
      "Ġhair": 3320,
      "Ġgender": 3321,
      "Index": 3322,
      "oring": 3323,
      "ĠFROM": 3324,
      "Ġpreprocess": 3325,
      "Ġconduct": 3326,
      "Ġmakes": 3327,
      "Ġadds": 3328,
      "Ġet": 3329,
      "tig": 3330,
      "Ġtreatment": 3331,
      "ably": 3332,
      "[\"": 3333,
      "ye": 3334,
      "eral": 3335,
      "pm": 3336,
      "Ġcomplex": 3337,
      "Ġhttp": 3338,
      "Ġinstructions": 3339,
      "Option": 3340,
      "Ġexpected": 3341,
      "Rate": 3342,
      "ites": 3343,
      "lean": 3344,
      "Ġfund": 3345,
      "Ġhref": 3346,
      "php": 3347,
      "Ġcorrectly": 3348,
      "vector": 3349,
      "erged": 3350,
      "mt": 3351,
      "Ġshare": 3352,
      "fig": 3353,
      "And": 3354,
      "this": 3355,
      "osition": 3356,
      "Ġassum": 3357,
      "ictionary": 3358,
      "atio": 3359,
      "acc": 3360,
      "email": 3361,
      "ese": 3362,
      "Ġapply": 3363,
      "Ġmass": 3364,
      "ĠThat": 3365,
      "Ġmaximum": 3366,
      "Ġlower": 3367,
      "alled": 3368,
      "ocuments": 3369,
      "Ġacross": 3370,
      "ctions": 3371,
      "OL": 3372,
      "icate": 3373,
      "ĠBy": 3374,
      "ributes": 3375,
      "aling": 3376,
      "hell": 3377,
      "Ġfull": 3378,
      "Ġpressure": 3379,
      "Ġface": 3380,
      "lex": 3381,
      "ponents": 3382,
      "IT": 3383,
      "Ġparticular": 3384,
      "ification": 3385,
      "asing": 3386,
      "':": 3387,
      "java": 3388,
      "comp": 3389,
      "Ġcri": 3390,
      "Ġplayer": 3391,
      "Ġcir": 3392,
      "Ġconsum": 3393,
      "number": 3394,
      "Ġmaintain": 3395,
      "Ġreach": 3396,
      "Ġautom": 3397,
      "ires": 3398,
      "color": 3399,
      "script": 3400,
      "Ġrecommended": 3401,
      "Ġbecome": 3402,
      "Ġdefault": 3403,
      "Ġthreshold": 3404,
      "ĠWorld": 3405,
      "ĠSave": 3406,
      "raft": 3407,
      ".âĢĿ": 3408,
      "pload": 3409,
      "Ġingredients": 3410,
      "CREATE": 3411,
      "Ġprefer": 3412,
      "Ġspeed": 3413,
      "Generate": 3414,
      "Ġincome": 3415,
      "unch": 3416,
      "ĠMan": 3417,
      "urance": 3418,
      "Ġprocessing": 3419,
      "Ġiter": 3420,
      "Ġmix": 3421,
      "rench": 3422,
      "Ġdepth": 3423,
      "semb": 3424,
      "Ġoutside": 3425,
      "uck": 3426,
      "enn": 3427,
      "TO": 3428,
      "att": 3429,
      "Ġfloat": 3430,
      "ULL": 3431,
      "Ġthough": 3432,
      "Ġweather": 3433,
      "ules": 3434,
      "ulations": 3435,
      "ABLE": 3436,
      "Ġstock": 3437,
      "Ġdeb": 3438,
      "Element": 3439,
      "ĠFr": 3440,
      "Ġfocus": 3441,
      "ĠGr": 3442,
      "Ġerrors": 3443,
      "ĠDep": 3444,
      "Ġsorry": 3445,
      "Ġshows": 3446,
      "lier": 3447,
      "Ġsymptoms": 3448,
      "Ġonce": 3449,
      "Ġfriends": 3450,
      "Ġlocated": 3451,
      "ctive": 3452,
      "urch": 3453,
      "Ġdie": 3454,
      "Ġnumbers": 3455,
      "Ġidea": 3456,
      "Ġblood": 3457,
      "Ġbad": 3458,
      "std": 3459,
      "Ġbit": 3460,
      "Ġexercise": 3461,
      "ians": 3462,
      "Ġincorpor": 3463,
      "ĠRuby": 3464,
      "ĠPol": 3465,
      "ĠFl": 3466,
      "heet": 3467,
      "flow": 3468,
      "Ġcategory": 3469,
      "Ġdecision": 3470,
      "ounds": 3471,
      "ius": 3472,
      "mical": 3473,
      "ley": 3474,
      "0000": 3475,
      "ention": 3476,
      "Ġmonitor": 3477,
      "Ġengine": 3478,
      "Ġ11": 3479,
      "Ġfix": 3480,
      "Ġimpos": 3481,
      "Ġguide": 3482,
      "Ġconvert": 3483,
      "Size": 3484,
      "Ġmor": 3485,
      "hood": 3486,
      "Sub": 3487,
      "Ġloss": 3488,
      "Ġdaily": 3489,
      "AD": 3490,
      "Ġcommunity": 3491,
      "Ġgenerated": 3492,
      "That": 3493,
      "fact": 3494,
      "px": 3495,
      "Ġmonths": 3496,
      "Ġgrad": 3497,
      "Ġecho": 3498,
      "Ġoil": 3499,
      "Ġblock": 3500,
      "Ġsequ": 3501,
      "ried": 3502,
      "Ġdifficult": 3503,
      "hol": 3504,
      "indows": 3505,
      "aced": 3506,
      "total": 3507,
      "Ġsaf": 3508,
      "Location": 3509,
      "ĠCar": 3510,
      "Ġorg": 3511,
      "Click": 3512,
      "Ġwomen": 3513,
      "Ġeax": 3514,
      "ĠDetection": 3515,
      "anks": 3516,
      "Ġlines": 3517,
      "ĠStudio": 3518,
      "ĠPres": 3519,
      "close": 3520,
      "Ġstaff": 3521,
      "Ġmillion": 3522,
      "icture": 3523,
      "level": 3524,
      "Ġactivities": 3525,
      "ĠFrom": 3526,
      "Ġgeneral": 3527,
      "host": 3528,
      "ĠForm": 3529,
      "++)": 3530,
      "fit": 3531,
      "idget": 3532,
      "Ġimag": 3533,
      "ĠBl": 3534,
      "ĠEurope": 3535,
      "Ġdest": 3536,
      "Ġquarter": 3537,
      "Ġcand": 3538,
      "Ġoffer": 3539,
      "sers": 3540,
      "ĠMar": 3541,
      "eline": 3542,
      "axis": 3543,
      "lient": 3544,
      "Ġmind": 3545,
      ":\\": 3546,
      "Ġrestaurant": 3547,
      "Ġmole": 3548,
      "bum": 3549,
      "ĠTrump": 3550,
      "Ġexisting": 3551,
      "bon": 3552,
      "ama": 3553,
      "sec": 3554,
      "Ġstress": 3555,
      "Ġmag": 3556,
      "Answer": 3557,
      "Ġmedication": 3558,
      "DF": 3559,
      "Ġcomponent": 3560,
      "Ġtook": 3561,
      "Ġdefined": 3562,
      "verse": 3563,
      "mise": 3564,
      "Ġincluded": 3565,
      "Ġdig": 3566,
      "?\"": 3567,
      "Load": 3568,
      "Ġfall": 3569,
      "Ġveget": 3570,
      "Ġdeath": 3571,
      "Ġhum": 3572,
      "pty": 3573,
      "Ġpercentage": 3574,
      "},": 3575,
      "chan": 3576,
      "Ġidentified": 3577,
      "ening": 3578,
      "pdate": 3579,
      "Ġtried": 3580,
      ",âĢĿ": 3581,
      "Ġtouch": 3582,
      "Ġcy": 3583,
      "plays": 3584,
      "Ġrock": 3585,
      "Ġcontract": 3586,
      "mod": 3587,
      "Ġpret": 3588,
      "Ġmember": 3589,
      "Ġfont": 3590,
      "Ġ17": 3591,
      "Ġpatterns": 3592,
      "Ġhealthy": 3593,
      "Now": 3594,
      "ashboard": 3595,
      "Me": 3596,
      "pecial": 3597,
      "Ġgra": 3598,
      "Ġeb": 3599,
      "Ġinterview": 3600,
      "Ġlikely": 3601,
      "Ġpandas": 3602,
      "Ġframework": 3603,
      "oph": 3604,
      "tices": 3605,
      "ĠObject": 3606,
      "ynam": 3607,
      "server": 3608,
      "Ġax": 3609,
      "Ġdataframe": 3610,
      "oto": 3611,
      "Ġtrend": 3612,
      "that": 3613,
      "Ġfiltered": 3614,
      "14": 3615,
      "Ġwhite": 3616,
      "Ġsafety": 3617,
      "pread": 3618,
      "Ġhost": 3619,
      "ĠProvide": 3620,
      "Ġpub": 3621,
      "ĠJavaScript": 3622,
      "ĠNULL": 3623,
      "Observation": 3624,
      "ĠSu": 3625,
      "Event": 3626,
      "cher": 3627,
      "Ġgoes": 3628,
      "My": 3629,
      "Ġdb": 3630,
      "Ġdrag": 3631,
      "Ġsaved": 3632,
      "Ġtaken": 3633,
      "Ġ14": 3634,
      "Def": 3635,
      "ĠRep": 3636,
      "Ġaccept": 3637,
      "Ġsources": 3638,
      "depend": 3639,
      "ĠMe": 3640,
      "ĠTABLE": 3641,
      "Ġactually": 3642,
      "ster": 3643,
      "Or": 3644,
      "Ġmeal": 3645,
      "Ph": 3646,
      "Ġsubject": 3647,
      "Ġdisease": 3648,
      "Ġpan": 3649,
      "Ġwait": 3650,
      "UM": 3651,
      "Ġboundary": 3652,
      "Ġexpress": 3653,
      "dart": 3654,
      "Ġadv": 3655,
      "Point": 3656,
      "ourn": 3657,
      "cy": 3658,
      "Ġoccur": 3659,
      "Ġpolitical": 3660,
      "});": 3661,
      "Ġimpossible": 3662,
      "Ġdeg": 3663,
      "Ġreading": 3664,
      "alking": 3665,
      "Ġart": 3666,
      "Ġimm": 3667,
      "Ġcoun": 3668,
      "Ġtemplate": 3669,
      "\"]": 3670,
      "ĠSw": 3671,
      "Ġrequests": 3672,
      "iddle": 3673,
      "esign": 3674,
      "Ġdisplays": 3675,
      "ensions": 3676,
      "ised": 3677,
      "pose": 3678,
      "ibility": 3679,
      "Ġprovides": 3680,
      "aster": 3681,
      "Ġbenefits": 3682,
      "Ġsun": 3683,
      "Ġdiv": 3684,
      "Ġterms": 3685,
      "Ġobserv": 3686,
      "Ġprotect": 3687,
      "Ġrevenue": 3688,
      "info": 3689,
      "ngth": 3690,
      "Ġrecipe": 3691,
      "So": 3692,
      "Ġwent": 3693,
      "fl": 3694,
      "Ġloaded": 3695,
      "Ġcommunication": 3696,
      "DB": 3697,
      "main": 3698,
      "All": 3699,
      "Ġarr": 3700,
      "ĠâĢĺ": 3701,
      "icker": 3702,
      "Ġrates": 3703,
      "dis": 3704,
      "connect": 3705,
      "Sure": 3706,
      "times": 3707,
      "ĠEd": 3708,
      "ĠâĢĶ": 3709,
      "Ġ)": 3710,
      "Ġfire": 3711,
      "Ġsounds": 3712,
      "ĠPre": 3713,
      "illing": 3714,
      "mark": 3715,
      "soft": 3716,
      "Ġhandler": 3717,
      "Ġgrowth": 3718,
      "Chart": 3719,
      "Ġever": 3720,
      "ffer": 3721,
      "ĠInst": 3722,
      "Ġdistribution": 3723,
      "='": 3724,
      "Ġabs": 3725,
      "Ġsense": 3726,
      "sql": 3727,
      "column": 3728,
      "Ġapproach": 3729,
      "Ġsafe": 3730,
      "Ġsex": 3731,
      "Ġestim": 3732,
      "height": 3733,
      "Ġdim": 3734,
      "ĠSelect": 3735,
      "Ġexpenses": 3736,
      "Ġpurchase": 3737,
      "Ġdead": 3738,
      "SER": 3739,
      "ĠĠĠĠĠĠĠĠĠĠĠĠĠĠĠĠĠĠĠĠĠĠĠĠĠĠĠĠĠĠĠĠ": 3740,
      "uses": 3741,
      "Ġsimple": 3742,
      "100": 3743,
      "Ġeither": 3744,
      "rue": 3745,
      "Ġobtain": 3746,
      "Would": 3747,
      "ta": 3748,
      "Dim": 3749,
      "Patient": 3750,
      "TP": 3751,
      "ĠMay": 3752,
      "ĠMed": 3753,
      "Ġdependencies": 3754,
      "Ġtab": 3755,
      "Ġseen": 3756,
      "ĠMr": 3757,
      "olve": 3758,
      "Ġresulting": 3759,
      "Ġrecommendations": 3760,
      "ln": 3761,
      "press": 3762,
      "where": 3763,
      "Dialog": 3764,
      "ends": 3765,
      "ĠGe": 3766,
      "Ġwoman": 3767,
      "Ġcoordin": 3768,
      "ĠBasic": 3769,
      "System": 3770,
      "Ġsus": 3771,
      "Ġstrict": 3772,
      "Ġjava": 3773,
      "Bu": 3774,
      "Âł": 3775,
      "Ġsession": 3776,
      "room": 3777,
      "((": 3778,
      "Ġtransport": 3779,
      "ards": 3780,
      "Ġquick": 3781,
      "Ġvisit": 3782,
      "Ġdetection": 3783,
      "Fe": 3784,
      "Class": 3785,
      "Ġengagement": 3786,
      "product": 3787,
      "Ġemo": 3788,
      "resh": 3789,
      "tes": 3790,
      "wer": 3791,
      "Ġdidn": 3792,
      "ync": 3793,
      "illed": 3794,
      "Ġreleased": 3795,
      "pplication": 3796,
      "Ġcharacters": 3797,
      "Ġcru": 3798,
      "OS": 3799,
      "Ġpayment": 3800,
      "ued": 3801,
      "Ġcamera": 3802,
      "Ġdecl": 3803,
      "pir": 3804,
      "oll": 3805,
      "Ġsmo": 3806,
      "ticles": 3807,
      "api": 3808,
      "ĠBar": 3809,
      "istics": 3810,
      "60": 3811,
      "Ġcool": 3812,
      "Lay": 3813,
      "Ġsell": 3814,
      "eter": 3815,
      "Ġcame": 3816,
      "Ġyourself": 3817,
      "ging": 3818,
      "max": 3819,
      "ilt": 3820,
      "content": 3821,
      "Ġupdates": 3822,
      "Ġliving": 3823,
      "Ġearlier": 3824,
      "Ġmarketing": 3825,
      "coming": 3826,
      "top": 3827,
      "Ġindividuals": 3828,
      "item": 3829,
      "create": 3830,
      "Ġplant": 3831,
      "agram": 3832,
      "Ġcateg": 3833,
      "\").": 3834,
      "ROUP": 3835,
      "Fil": 3836,
      "Ġdom": 3837,
      "erv": 3838,
      "Ġdifference": 3839,
      "ele": 3840,
      "Ġgreen": 3841,
      "osis": 3842,
      "ME": 3843,
      "vestig": 3844,
      "otlin": 3845,
      "imal": 3846,
      "pan": 3847,
      "Ġrespon": 3848,
      "Ġconfig": 3849,
      "Ġhigher": 3850,
      "Ġhalf": 3851,
      "({": 3852,
      "Ġcolle": 3853,
      "estions": 3854,
      "Ġregression": 3855,
      "Ġroot": 3856,
      "18": 3857,
      "sets": 3858,
      "Ġprofessional": 3859,
      "enu": 3860,
      "local": 3861,
      "entence": 3862,
      "Ġroute": 3863,
      "Ġtoken": 3864,
      "Ġsubmit": 3865,
      "Level": 3866,
      "Ġmechan": 3867,
      "Client": 3868,
      "13": 3869,
      "ĠAm": 3870,
      "Ġcho": 3871,
      "Ġdam": 3872,
      "Ġappear": 3873,
      "ĠMake": 3874,
      "ĠUser": 3875,
      "Ġscatter": 3876,
      "'),": 3877,
      "Ġamong": 3878,
      "ĠAll": 3879,
      "sembly": 3880,
      "ining": 3881,
      "Ġvot": 3882,
      "nes": 3883,
      "ai": 3884,
      "acher": 3885,
      "Ġalbum": 3886,
      "Ġexperi": 3887,
      "Ġ&&": 3888,
      "ened": 3889,
      "Content": 3890,
      "Ġobser": 3891,
      "Ġparty": 3892,
      "Result": 3893,
      "orage": 3894,
      "ĠNOT": 3895,
      "Ġwriting": 3896,
      "Cell": 3897,
      "Ġsurface": 3898,
      "Ġneighb": 3899,
      "irtual": 3900,
      "Ġreaction": 3901,
      "Ġrespective": 3902,
      "Ġdoctor": 3903,
      "bes": 3904,
      "Ġbelow": 3905,
      "field": 3906,
      "score": 3907,
      "Ġreceived": 3908,
      "ĠMap": 3909,
      "'d": 3910,
      "ĠGerm": 3911,
      "uted": 3912,
      "Ġexamples": 3913,
      "Ġ13": 3914,
      "ĠAp": 3915,
      "ĠAf": 3916,
      "Ġtables": 3917,
      "Ġexplan": 3918,
      "Ġrepl": 3919,
      "ĠPresident": 3920,
      "Ġmother": 3921,
      "Ġproced": 3922,
      "ĠWith": 3923,
      "2021": 3924,
      "mber": 3925,
      "Ġshape": 3926,
      "ĠCal": 3927,
      "ino": 3928,
      "Ġtrained": 3929,
      "Ġexpression": 3930,
      "Ġflu": 3931,
      "Ġparents": 3932,
      "Aut": 3933,
      "Ġpretty": 3934,
      "Ġsystems": 3935,
      "hello": 3936,
      "Ġprec": 3937,
      "tract": 3938,
      "eds": 3939,
      "Ġphoto": 3940,
      "viation": 3941,
      "Ġbeh": 3942,
      "Ġcenter": 3943,
      "Ġgames": 3944,
      "ĠÂ": 3945,
      "sian": 3946,
      "ili": 3947,
      "outine": 3948,
      "Ġproperly": 3949,
      "Ġanimals": 3950,
      "Ġcolors": 3951,
      "Ġviol": 3952,
      "ĠEnd": 3953,
      "Grid": 3954,
      "Ġnumer": 3955,
      "Ġplaying": 3956,
      "ĠCode": 3957,
      "Ġmut": 3958,
      "Ġconcept": 3959,
      "atory": 3960,
      "www": 3961,
      "Ġcapture": 3962,
      "Ġoutputs": 3963,
      "ĠUnder": 3964,
      "iment": 3965,
      "example": 3966,
      "Ġinvent": 3967,
      "anced": 3968,
      "(),": 3969,
      "Ġprior": 3970,
      "Ġartist": 3971,
      "Ġball": 3972,
      "Ġblue": 3973,
      "ĠFrench": 3974,
      "Ġusually": 3975,
      "Ġste": 3976,
      "Ġanti": 3977,
      "Ġimported": 3978,
      "hic": 3979,
      "gest": 3980,
      "Ġclim": 3981,
      "ĠId": 3982,
      "Ġusage": 3983,
      "Ġinterested": 3984,
      "Options": 3985,
      "Ġren": 3986,
      "Ġmob": 3987,
      "Ġinstalled": 3988,
      "Ġsite": 3989,
      "Ġstatic": 3990,
      "Ġspo": 3991,
      "Ġconver": 3992,
      "hing": 3993,
      "Ġestab": 3994,
      "ospital": 3995,
      "Ġrepeat": 3996,
      "ponses": 3997,
      "URL": 3998,
      "unction": 3999,
      "Ġassess": 4000,
      "Det": 4001,
      "sib": 4002,
      "Ġpair": 4003,
      "Ġauthentic": 4004,
      "ĠSun": 4005,
      "Ġguest": 4006,
      "ners": 4007,
      "Ġdiagn": 4008,
      "Ġcalls": 4009,
      "cular": 4010,
      "apan": 4011,
      "45": 4012,
      "Ġstarted": 4013,
      "Ġkids": 4014,
      "Ġsupp": 4015,
      "pense": 4016,
      "WHERE": 4017,
      "Ad": 4018,
      "ops": 4019,
      "most": 4020,
      "Ġeducation": 4021,
      "Ġhypothesis": 4022,
      "tenance": 4023,
      "Am": 4024,
      "perties": 4025,
      "Ġhighest": 4026,
      "inks": 4027,
      "ancy": 4028,
      "char": 4029,
      "==": 4030,
      "ĠKEY": 4031,
      "customer": 4032,
      "ĠTypeScript": 4033,
      "ok": 4034,
      "astic": 4035,
      "othing": 4036,
      "itary": 4037,
      "long": 4038,
      "Äĥ": 4039,
      "Ġempty": 4040,
      "option": 4041,
      "Ġfat": 4042,
      "entials": 4043,
      "Ġmeaning": 4044,
      "lobal": 4045,
      "Ġseparate": 4046,
      "Ġbelieve": 4047,
      "Ġeditor": 4048,
      "riteria": 4049,
      "ocol": 4050,
      "ains": 4051,
      "Ġscen": 4052,
      "irth": 4053,
      "Ġanalyz": 4054,
      "OST": 4055,
      "oding": 4056,
      "Ġagree": 4057,
      "Ġpractice": 4058,
      "Ġhope": 4059,
      "Ġlayout": 4060,
      "with": 4061,
      "case": 4062,
      "Ġcompe": 4063,
      "Ġboy": 4064,
      "minist": 4065,
      "Ġmetrics": 4066,
      "ym": 4067,
      "Ġdu": 4068,
      "Ġhed": 4069,
      "Ġachieve": 4070,
      "Ġentire": 4071,
      "Ġpredicted": 4072,
      "ĠQu": 4073,
      "Reg": 4074,
      "ĠTwitter": 4075,
      "ung": 4076,
      "ĠMc": 4077,
      "Ġexport": 4078,
      "Ġpolicy": 4079,
      "Ġvisible": 4080,
      "net": 4081,
      "resents": 4082,
      "itory": 4083,
      "ĠRead": 4084,
      "Ġcatch": 4085,
      "response": 4086,
      "pg": 4087,
      "Ġcontinue": 4088,
      "Ġvisualization": 4089,
      "pportun": 4090,
      "ĠExpl": 4091,
      "Ġsix": 4092,
      "Ġreference": 4093,
      "button": 4094,
      "Ġspecify": 4095,
      "Ġsplit": 4096,
      "Range": 4097,
      "Ġinvolved": 4098,
      "lose": 4099,
      "ĠLi": 4100,
      "ĠDon": 4101,
      "cor": 4102,
      "Ġtherap": 4103,
      "Ġrepresents": 4104,
      "Ġtag": 4105,
      "Ġskills": 4106,
      "rer": 4107,
      "Ġwr": 4108,
      "Ġforce": 4109,
      "Ġstri": 4110,
      "ĠFe": 4111,
      "Ġ40": 4112,
      "Ġdire": 4113,
      "Ġformula": 4114,
      "ocr": 4115,
      "rol": 4116,
      "Ġspeak": 4117,
      "ensive": 4118,
      "ached": 4119,
      "Ġaccuracy": 4120,
      "Tem": 4121,
      "Product": 4122,
      "Ġfunctionality": 4123,
      "agraph": 4124,
      "Ġformer": 4125,
      "Ġtree": 4126,
      "Ġanimal": 4127,
      "xy": 4128,
      "urren": 4129,
      "udent": 4130,
      "Ġhit": 4131,
      "Ġexercises": 4132,
      "istory": 4133,
      "Ġsubs": 4134,
      "Ġability": 4135,
      "idered": 4136,
      "lished": 4137,
      "eness": 4138,
      "ĠâĢĵ": 4139,
      "Med": 4140,
      "spe": 4141,
      "pace": 4142,
      "Ġassociated": 4143,
      "ussian": 4144,
      "Ġsubr": 4145,
      "Ġchecks": 4146,
      "ĠSk": 4147,
      "Ġrelease": 4148,
      "Ġinvestig": 4149,
      "ĠCity": 4150,
      "Ġrecip": 4151,
      "raight": 4152,
      "Ġgirl": 4153,
      "Ġconsidered": 4154,
      "icrosoft": 4155,
      "Ġskin": 4156,
      "Ġstrategies": 4157,
      "Ġapolog": 4158,
      "Ġsuit": 4159,
      "Ġcourt": 4160,
      "rew": 4161,
      "Ġseem": 4162,
      "atisf": 4163,
      "vest": 4164,
      "lam": 4165,
      "ior": 4166,
      "Ġwide": 4167,
      "Ġpun": 4168,
      "ĠDataFrame": 4169,
      "Ġloyal": 4170,
      ".'": 4171,
      "Source": 4172,
      "One": 4173,
      "Ġsho": 4174,
      "Ġstrategy": 4175,
      "Ġsuccessfully": 4176,
      "iency": 4177,
      "dered": 4178,
      "Ġsimulation": 4179,
      "osing": 4180,
      "arty": 4181,
      "40": 4182,
      "Ġmodels": 4183,
      "post": 4184,
      "find": 4185,
      "Ġalign": 4186,
      "Ġrespond": 4187,
      "Ġstrings": 4188,
      "Ġslice": 4189,
      "require": 4190,
      "utter": 4191,
      "fol": 4192,
      "kn": 4193,
      "Ġchalleng": 4194,
      "ober": 4195,
      "ov": 4196,
      "acity": 4197,
      "Ġtw": 4198,
      "structor": 4199,
      "ashing": 4200,
      "ictions": 4201,
      "position": 4202,
      "Ġfront": 4203,
      "Ġeffort": 4204,
      "ĠTool": 4205,
      "Ġfru": 4206,
      "17": 4207,
      "ĠTest": 4208,
      "enter": 4209,
      "idate": 4210,
      "rome": 4211,
      "erral": 4212,
      "Ġproblems": 4213,
      "Ġchann": 4214,
      "Ġcrop": 4215,
      "Ġgreater": 4216,
      "Ġcou": 4217,
      "tish": 4218,
      "ector": 4219,
      "Ġencour": 4220,
      "ĠĠĠĠĠĠĠĠĊ": 4221,
      "tition": 4222,
      "Ġreturned": 4223,
      "mic": 4224,
      "Ġhistorical": 4225,
      "Ġhab": 4226,
      "oom": 4227,
      "Ġobservations": 4228,
      "tial": 4229,
      "rus": 4230,
      "Ġmodified": 4231,
      "Score": 4232,
      "Ġdeal": 4233,
      "empt": 4234,
      "ran": 4235,
      "ĠRec": 4236,
      "AP": 4237,
      "Ġflo": 4238,
      "lated": 4239,
      "Ġstores": 4240,
      "Ġcover": 4241,
      "Ġcollection": 4242,
      "Code": 4243,
      "Ġcurrently": 4244,
      "ders": 4245,
      "ĠNext": 4246,
      "Ġsoil": 4247,
      "ĠAng": 4248,
      "());": 4249,
      "change": 4250,
      "rief": 4251,
      "Ġhor": 4252,
      "Log": 4253,
      "Ġmicro": 4254,
      "state": 4255,
      "hand": 4256,
      "Ġcountries": 4257,
      "atur": 4258,
      "Ġmeeting": 4259,
      "Ġinputs": 4260,
      "Ġchemical": 4261,
      "ana": 4262,
      "calculate": 4263,
      "Ġdefin": 4264,
      "aves": 4265,
      "Ġopportun": 4266,
      "layout": 4267,
      "Ġbring": 4268,
      "Ġsubroutine": 4269,
      "medi": 4270,
      "igration": 4271,
      "ottom": 4272,
      "Ġcoeffic": 4273,
      "Ġinsert": 4274,
      "Service": 4275,
      "oolean": 4276,
      "Ġmatter": 4277,
      "Ġstraight": 4278,
      "Ġdynam": 4279,
      ",'": 4280,
      "Ġyet": 4281,
      "Ġebx": 4282,
      "Ġpick": 4283,
      "answer": 4284,
      "Connection": 4285,
      "show": 4286,
      "Column": 4287,
      "ux": 4288,
      "Ġduration": 4289,
      "atives": 4290,
      "||||": 4291,
      "pecially": 4292,
      "ĠCount": 4293,
      "Ġ|||||": 4294,
      "Ġstrength": 4295,
      "Ġdocuments": 4296,
      "Ġcomponents": 4297,
      "augh": 4298,
      "estamp": 4299,
      "Ġtalk": 4300,
      "Ġ>=": 4301,
      "Info": 4302,
      "raint": 4303,
      "Ġdelete": 4304,
      "Ġdrink": 4305,
      "package": 4306,
      "Ġnice": 4307,
      ".,": 4308,
      "Ġarch": 4309,
      "Ġeth": 4310,
      "ares": 4311,
      "Ġplans": 4312,
      "Ġnote": 4313,
      "ĠDisplay": 4314,
      "entify": 4315,
      "page": 4316,
      "ĠAND": 4317,
      "Ġcompan": 4318,
      "Exception": 4319,
      "Ġcompleted": 4320,
      "Ġground": 4321,
      "ĠSy": 4322,
      "Ġlimit": 4323,
      "Bar": 4324,
      "lat": 4325,
      "Ã¼": 4326,
      "append": 4327,
      "Ġsubsequ": 4328,
      "fh": 4329,
      "Ð»": 4330,
      "Ġdescribes": 4331,
      "ĠBri": 4332,
      "32": 4333,
      "stain": 4334,
      "ĠWar": 4335,
      "ĠState": 4336,
      "Ġ21": 4337,
      "oman": 4338,
      "izations": 4339,
      "Ġwritten": 4340,
      "Ġdesigned": 4341,
      "Ġvirtual": 4342,
      "uel": 4343,
      "cell": 4344,
      "Ġcalculated": 4345,
      "ĠBu": 4346,
      "database": 4347,
      "Ġinventory": 4348,
      "Ġvariety": 4349,
      "Ġcommit": 4350,
      "ED": 4351,
      "que": 4352,
      "Total": 4353,
      "gar": 4354,
      "iety": 4355,
      "ilder": 4356,
      "Ġreads": 4357,
      "uming": 4358,
      "Ġspread": 4359,
      "Ġequal": 4360,
      "acebook": 4361,
      "Ġattributes": 4362,
      "ĠĠĠĠĠĠĠĠĠĠĠĠĠĠĠĠĠĠĠĠĠĠĠ": 4363,
      "ĠReturn": 4364,
      "oles": 4365,
      "Ġgather": 4366,
      "ĠCo": 4367,
      "Ġhandling": 4368,
      "Ġtraffic": 4369,
      "Ġreported": 4370,
      "Ġ24": 4371,
      "Ġbecame": 4372,
      "Ġcross": 4373,
      "icon": 4374,
      "Ġtrigg": 4375,
      "ĠHouse": 4376,
      "vity": 4377,
      "Ġtransaction": 4378,
      "Ġheader": 4379,
      "Ġ%>": 4380,
      "Ġfigure": 4381,
      "rodu": 4382,
      "Ġri": 4383,
      "Ġess": 4384,
      "Ġarguments": 4385,
      "jective": 4386,
      "ĠAb": 4387,
      "ague": 4388,
      "Ġquantity": 4389,
      "Ġsettings": 4390,
      "ned": 4391,
      "Gr": 4392,
      "Ġdrive": 4393,
      "essions": 4394,
      "ĠAust": 4395,
      "Ġtopic": 4396,
      "Which": 4397,
      "ById": 4398,
      "Select": 4399,
      "ĠGu": 4400,
      "dom": 4401,
      "Ġphotos": 4402,
      "Ġdepending": 4403,
      "Ġsustain": 4404,
      "Ġcout": 4405,
      "Ġcells": 4406,
      "ifier": 4407,
      "Ġelectron": 4408,
      "Ġsecure": 4409,
      "bit": 4410,
      "Ġthroughout": 4411,
      "Ġstream": 4412,
      "Ġrather": 4413,
      "ilos": 4414,
      "install": 4415,
      "Ġsensor": 4416,
      "Ġmanage": 4417,
      "wise": 4418,
      "Ġhealthcare": 4419,
      "Ġreferring": 4420,
      "select": 4421,
      "tis": 4422,
      "From": 4423,
      "apt": 4424,
      "tml": 4425,
      "ocks": 4426,
      "Ġactive": 4427,
      "Ġtour": 4428,
      "Ġdepartment": 4429,
      "property": 4430,
      "First": 4431,
      "ternative": 4432,
      "Ġprimary": 4433,
      "ithub": 4434,
      "Ġattempt": 4435,
      "][": 4436,
      "Ġlate": 4437,
      "Ġemerg": 4438,
      "run": 4439,
      "Ġthrow": 4440,
      "201": 4441,
      "Ġfarm": 4442,
      "abilities": 4443,
      "weets": 4444,
      "employee": 4445,
      "Ġequation": 4446,
      "values": 4447,
      "Ġminimum": 4448,
      "Ġcompare": 4449,
      "Open": 4450,
      "Ġchoice": 4451,
      "Ġpropos": 4452,
      "Ġbrow": 4453,
      "inner": 4454,
      "Ġparts": 4455,
      "Ġdetailed": 4456,
      "titution": 4457,
      "Ġgas": 4458,
      "pol": 4459,
      "Ġclasses": 4460,
      "Ġfish": 4461,
      "Ġfather": 4462,
      "Ġhour": 4463,
      "ogram": 4464,
      "ggplot": 4465,
      "though": 4466,
      "99": 4467,
      "Ġhom": 4468,
      "ĠMySQL": 4469,
      "EX": 4470,
      "mand": 4471,
      "CA": 4472,
      "Ġnode": 4473,
      "anish": 4474,
      "ĠJapan": 4475,
      "Ġmessages": 4476,
      "Ġmanager": 4477,
      "ternal": 4478,
      "ĠFirst": 4479,
      "write": 4480,
      "iance": 4481,
      "Ġbooks": 4482,
      "depth": 4483,
      "Ġstates": 4484,
      "bin": 4485,
      "Ġlatest": 4486,
      "Ġleading": 4487,
      "GROUP": 4488,
      "roller": 4489,
      "cending": 4490,
      "amount": 4491,
      "Mat": 4492,
      "Ġimagine": 4493,
      "Status": 4494,
      "spec": 4495,
      "Ġhelps": 4496,
      "chart": 4497,
      "Ġedge": 4498,
      "ĠNorth": 4499,
      "Ġbehind": 4500,
      "ĠHuman": 4501,
      "Ġexact": 4502,
      "ĠTe": 4503,
      "Ġasked": 4504,
      "Ġfake": 4505,
      "Ġsignal": 4506,
      "vari": 4507,
      "Report": 4508,
      "ban": 4509,
      "55": 4510,
      "Message": 4511,
      "Ġevidence": 4512,
      "stream": 4513,
      "Ġconcerns": 4514,
      "ĠMin": 4515,
      "ĠOut": 4516,
      "Ġespecially": 4517,
      "Ġinitialize": 4518,
      "Ġcomments": 4519,
      "ledge": 4520,
      "ĠSouth": 4521,
      "Ġinvestment": 4522,
      "ĠĠĠĠĠĠĠĠĠĠĠĠĠ": 4523,
      "tn": 4524,
      "Ġplayed": 4525,
      "zer": 4526,
      "ĠMain": 4527,
      "mbol": 4528,
      "Ġscores": 4529,
      "ĉĉ": 4530,
      "Ġslow": 4531,
      "Ġshoot": 4532,
      "emale": 4533,
      "MP": 4534,
      "vision": 4535,
      "Ġgets": 4536,
      "Work": 4537,
      "ĠSure": 4538,
      "Ġcanvas": 4539,
      "Ġeasily": 4540,
      "Ġpicture": 4541,
      "reed": 4542,
      "eks": 4543,
      "python": 4544,
      "echo": 4545,
      "Reader": 4546,
      "Ġdisplayed": 4547,
      "EG": 4548,
      "imes": 4549,
      "ĠAcc": 4550,
      "umb": 4551,
      "Over": 4552,
      "200": 4553,
      ":(": 4554,
      "Ġspeech": 4555,
      "comes": 4556,
      "Ġdeep": 4557,
      "ĠDescription": 4558,
      "ising": 4559,
      "Ġprices": 4560,
      "Ġdriv": 4561,
      "Ġbasic": 4562,
      "Ġassumes": 4563,
      "Ġdefines": 4564,
      "Ġpd": 4565,
      "idity": 4566,
      "Inter": 4567,
      "ĠJan": 4568,
      "Ġlocations": 4569,
      "ĠRepublic": 4570,
      "ĠResearch": 4571,
      "ĠPDF": 4572,
      "Ġcredit": 4573,
      "Ġ\"$": 4574,
      "riday": 4575,
      "Ġtowards": 4576,
      "hedule": 4577,
      "Ġill": 4578,
      "OUNT": 4579,
      "Ġreceive": 4580,
      "ĠFacebook": 4581,
      "Ġconstant": 4582,
      "requency": 4583,
      "Ġinteresting": 4584,
      "Ġtele": 4585,
      "Ġsituation": 4586,
      "Ġwarm": 4587,
      "Ġtweet": 4588,
      "SERT": 4589,
      "ĠSm": 4590,
      "Ġcriteria": 4591,
      "izz": 4592,
      "âĢĶ": 4593,
      "inder": 4594,
      "Ġdark": 4595,
      "Ġsentences": 4596,
      "Stream": 4597,
      "Ġ197": 4598,
      "INSERT": 4599,
      "Ġfine": 4600,
      "ĠAss": 4601,
      "ils": 4602,
      "tick": 4603,
      "Ġwhole": 4604,
      "angle": 4605,
      "ĠCons": 4606,
      "build": 4607,
      "ĠMod": 4608,
      "Ġupload": 4609,
      "alysis": 4610,
      "BC": 4611,
      "save": 4612,
      "Test": 4613,
      "Ġstarting": 4614,
      "current": 4615,
      "Ġconcent": 4616,
      "Ġcompile": 4617,
      "fully": 4618,
      "ĠAir": 4619,
      "Ġdeterm": 4620,
      "Assuming": 4621,
      "OV": 4622,
      "Ġoffice": 4623,
      "ography": 4624,
      "Ġcrime": 4625,
      "ĠWHERE": 4626,
      "ĠSE": 4627,
      "ĠAre": 4628,
      "Ġnotes": 4629,
      "`:": 4630,
      "Ġdialog": 4631,
      "Ġsubsequent": 4632,
      "ĠAssum": 4633,
      "Ġindicating": 4634,
      "Ed": 4635,
      "status": 4636,
      "ĠEar": 4637,
      "gy": 4638,
      "Ġpersonalized": 4639,
      "DO": 4640,
      "Ġcorrelation": 4641,
      "Ġcopy": 4642,
      "friendly": 4643,
      "band": 4644,
      "price": 4645,
      "Ġvolume": 4646,
      "anger": 4647,
      "Ġwanted": 4648,
      "Ġparagraph": 4649,
      "rack": 4650,
      "Ġsold": 4651,
      "jpg": 4652,
      "Ġorganization": 4653,
      "Ġden": 4654,
      "Ġobserve": 4655,
      "ffee": 4656,
      "term": 4657,
      "ube": 4658,
      "Ġfollowed": 4659,
      "teger": 4660,
      "endor": 4661,
      "Ġwall": 4662,
      "24": 4663,
      "ournal": 4664,
      "Ġsimply": 4665,
      "endar": 4666,
      "token": 4667,
      "Ġvehic": 4668,
      "Ġ60": 4669,
      "Ġbalance": 4670,
      "Ġlab": 4671,
      "iet": 4672,
      "ĠMonday": 4673,
      "uesday": 4674,
      "Query": 4675,
      "Ġplatforms": 4676,
      "Ġ${": 4677,
      "rist": 4678,
      "Ġnavigate": 4679,
      "sl": 4680,
      ">&": 4681,
      "Ġhyd": 4682,
      "Ġpaper": 4683,
      "ĠConsole": 4684,
      "ĠRemember": 4685,
      "dy": 4686,
      "Hand": 4687,
      "description": 4688,
      "Ġtracking": 4689,
      "ĠPatient": 4690,
      "aches": 4691,
      "Ġwalk": 4692,
      "Ġattribute": 4693,
      "Ġsorted": 4694,
      "float": 4695,
      "filter": 4696,
      "Ġson": 4697,
      "Ġunderstanding": 4698,
      "Ġprobably": 4699,
      "phone": 4700,
      "check": 4701,
      "Ġunit": 4702,
      "------": 4703,
      "Ġreli": 4704,
      "Ġinvolve": 4705,
      "FF": 4706,
      "adata": 4707,
      "ĠNational": 4708,
      "Ġfitness": 4709,
      "ĠRemove": 4710,
      "Ġcollabor": 4711,
      "Ġbed": 4712,
      "Ġassist": 4713,
      "ĠSec": 4714,
      "urvey": 4715,
      "Ġmorning": 4716,
      "Ġhelpful": 4717,
      "ceed": 4718,
      "âĢĵ": 4719,
      "').": 4720,
      "ashion": 4721,
      "Ġappointment": 4722,
      "Ġdiscussions": 4723,
      "akes": 4724,
      "mm": 4725,
      "Title": 4726,
      "what": 4727,
      "legate": 4728,
      "formation": 4729,
      "Ġhash": 4730,
      "@\"": 4731,
      "ĠUsers": 4732,
      "arr": 4733,
      "tives": 4734,
      "Ġconsult": 4735,
      "rade": 4736,
      "Ġteacher": 4737,
      "bot": 4738,
      "Ġleave": 4739,
      "Ġprogramming": 4740,
      "ĠINTO": 4741,
      "Ġsaying": 4742,
      "kay": 4743,
      "Ġstar": 4744,
      "urg": 4745,
      "ĠUniversity": 4746,
      "itch": 4747,
      "Ġparse": 4748,
      "Ġsrc": 4749,
      "Ġvideos": 4750,
      "gu": 4751,
      "inancial": 4752,
      "Ġ*)": 4753,
      "UST": 4754,
      "ednes": 4755,
      "Ġapologize": 4756,
      "push": 4757,
      "ĠPR": 4758,
      "ĠDem": 4759,
      "Based": 4760,
      "Ġpreprocessed": 4761,
      "Ġenvironmental": 4762,
      "acter": 4763,
      "Ġcompanies": 4764,
      "ĠOther": 4765,
      "round": 4766,
      "netic": 4767,
      "ĠIntern": 4768,
      "Ġfight": 4769,
      "Ġweeks": 4770,
      "Ġinsurance": 4771,
      "Ġideas": 4772,
      "ades": 4773,
      "DATE": 4774,
      "oe": 4775,
      "Ġkeywords": 4776,
      "acing": 4777,
      "Ġsoon": 4778,
      "Ġmeasures": 4779,
      "Ġmilitary": 4780,
      "Be": 4781,
      "Ġfactor": 4782,
      "hib": 4783,
      "ocial": 4784,
      "idents": 4785,
      "LO": 4786,
      "can": 4787,
      "Ġcomes": 4788,
      "ĠNe": 4789,
      "aven": 4790,
      "Ġcoffee": 4791,
      "Ġextra": 4792,
      "ĠAV": 4793,
      "Ġbuilt": 4794,
      "ĠEl": 4795,
      "apter": 4796,
      "Ġwrong": 4797,
      "ednesday": 4798,
      "Ġpreferred": 4799,
      "iers": 4800,
      "Ġpers": 4801,
      "Ġstays": 4802,
      "Ġasking": 4803,
      "Ġmobile": 4804,
      "Ġadminist": 4805,
      "Ġbab": 4806,
      "rim": 4807,
      "ALU": 4808,
      "Ġfailed": 4809,
      "arian": 4810,
      "ĠMath": 4811,
      "ike": 4812,
      "Ġlooks": 4813,
      "Ġcollege": 4814,
      "Sum": 4815,
      "Ġfail": 4816,
      "Ġdesigner": 4817,
      "Ġtypically": 4818,
      "uce": 4819,
      "Ġ=&": 4820,
      "amin": 4821,
      "Ġdogs": 4822,
      "oga": 4823,
      "xim": 4824,
      "hern": 4825,
      "Ġlonger": 4826,
      "Ġdemand": 4827,
      "Ġbegan": 4828,
      "dir": 4829,
      "Ġdensity": 4830,
      "ARY": 4831,
      "Ġgenetic": 4832,
      "Ġrecent": 4833,
      "Response": 4834,
      "kens": 4835,
      "Ġinvolves": 4836,
      "Ġshot": 4837,
      "ĠWeb": 4838,
      "iforn": 4839,
      "Ġposts": 4840,
      "255": 4841,
      "Ġmention": 4842,
      "Ġlinear": 4843,
      "Ġpresident": 4844,
      "Ġtrends": 4845,
      "Ġcosts": 4846,
      "Output": 4847,
      "AC": 4848,
      "Ġblog": 4849,
      "Follow": 4850,
      "ided": 4851,
      "ĠVal": 4852,
      "ĠHar": 4853,
      "ĠFriday": 4854,
      "event": 4855,
      "Ġfoods": 4856,
      "Ġeverything": 4857,
      "sort": 4858,
      "rees": 4859,
      "Ġwife": 4860,
      "Ġbrief": 4861,
      "Ġendpoint": 4862,
      "Ġcomment": 4863,
      "ĠArray": 4864,
      "ĠTrans": 4865,
      "Ġmode": 4866,
      "Ġeconomic": 4867,
      "itiz": 4868,
      "positive": 4869,
      "Ġseconds": 4870,
      "ceived": 4871,
      "cal": 4872,
      "Ġwind": 4873,
      "Ġexception": 4874,
      "Ġfunc": 4875,
      "Ġer": 4876,
      "TableView": 4877,
      "ĠTuesday": 4878,
      "ĠBritish": 4879,
      "Ġtick": 4880,
      "Ġannoun": 4881,
      "ĠInc": 4882,
      "stance": 4883,
      "Ġdashboard": 4884,
      "'.": 4885,
      "Ġetc": 4886,
      "Ġled": 4887,
      "Ġpose": 4888,
      "lim": 4889,
      "Ġder": 4890,
      "Double": 4891,
      "formance": 4892,
      "omy": 4893,
      "ald": 4894,
      "Ġ||": 4895,
      "Ġindirect": 4896,
      "ressed": 4897,
      "Ġlongitude": 4898,
      "ÏĢ": 4899,
      "Ġsequence": 4900,
      "Ġcredentials": 4901,
      "amb": 4902,
      "Ġpractices": 4903,
      "Ġsuppl": 4904,
      "mean": 4905,
      "Ġbrain": 4906,
      "ĠWill": 4907,
      "ocity": 4908,
      "Ġstorage": 4909,
      "Ġlost": 4910,
      "GridView": 4911,
      "Ġ1000": 4912,
      "ifornia": 4913,
      "DE": 4914,
      "Co": 4915,
      "Ġdictionary": 4916,
      "Ġdevices": 4917,
      "Ġresponses": 4918,
      "Ġcultural": 4919,
      "true": 4920,
      "Ġrespectively": 4921,
      "mov": 4922,
      "Ġgain": 4923,
      "Ġinteger": 4924,
      "Ġattention": 4925,
      "ĠEach": 4926,
      "layer": 4927,
      "Ġpremise": 4928,
      "Ġcapital": 4929,
      "Ġregist": 4930,
      "Ġbirth": 4931,
      "message": 4932,
      "idential": 4933,
      "Ġlayer": 4934,
      "Amount": 4935,
      "ivil": 4936,
      "ecute": 4937,
      "Ġfast": 4938,
      "Ġoptimal": 4939,
      "-&": 4940,
      "IG": 4941,
      "ĠReg": 4942,
      "Ġwaste": 4943,
      "Ġdrug": 4944,
      "ĠUpdate": 4945,
      "Ġroad": 4946,
      "ief": 4947,
      "entity": 4948,
      "ĠChar": 4949,
      "ÅŁ": 4950,
      "Ġago": 4951,
      "Ġefficient": 4952,
      "AS": 4953,
      "ada": 4954,
      "ĠHis": 4955,
      "ĠWindows": 4956,
      "iff": 4957,
      "uary": 4958,
      "weight": 4959,
      "Ġrent": 4960,
      "fect": 4961,
      "Su": 4962,
      "sq": 4963,
      "Ġexplanations": 4964,
      "Why": 4965,
      "Ġcup": 4966,
      "ederal": 4967,
      "Ġcareer": 4968,
      "ĠAfric": 4969,
      "Ġthreat": 4970,
      "Ġaccurate": 4971,
      "Ġcombination": 4972,
      "Employee": 4973,
      "avy": 4974,
      "ĠClass": 4975,
      "Ġ198": 4976,
      "zz": 4977,
      "ĠDATE": 4978,
      "ĠDetermine": 4979,
      "05": 4980,
      "Ġalert": 4981,
      "Ġsuggestions": 4982,
      "Ġplayers": 4983,
      "Ġshell": 4984,
      "Ġhospital": 4985,
      "Ġextracted": 4986,
      "nings": 4987,
      "Ġcoordinates": 4988,
      "aching": 4989,
      "tiveness": 4990,
      "Ġboard": 4991,
      "witch": 4992,
      "Ġinit": 4993,
      "Ġbus": 4994,
      "ĠHand": 4995,
      "Ġcollect": 4996,
      "Ġchat": 4997,
      "Ġecx": 4998,
      "Ġconfirm": 4999,
      "ĠEvent": 5000,
      "ursday": 5001,
      "Ġwor": 5002,
      "Ġsynt": 5003,
      "Ġhappy": 5004,
      "02": 5005,
      "Ġanyone": 5006,
      "auti": 5007,
      "Ġinfluenc": 5008,
      "ashington": 5009,
      "Activity": 5010,
      "negative": 5011,
      "Ġep": 5012,
      "ĠAmerica": 5013,
      "Ġscale": 5014,
      "Ġweak": 5015,
      "OIN": 5016,
      "Ġpoll": 5017,
      "iny": 5018,
      "ÃŃ": 5019,
      "elcome": 5020,
      "attle": 5021,
      "Email": 5022,
      "ĠWednesday": 5023,
      "ĠAut": 5024,
      "Ġclients": 5025,
      "array": 5026,
      "Ġofficials": 5027,
      "Ġdimensions": 5028,
      "Ġhighlight": 5029,
      "rames": 5030,
      "yg": 5031,
      "Document": 5032,
      "ĠON": 5033,
      "UT": 5034,
      "Ġtown": 5035,
      "(-": 5036,
      "Sty": 5037,
      "matrix": 5038,
      "Ġingredient": 5039,
      "bre": 5040,
      "ĠAlso": 5041,
      "Ġneighbor": 5042,
      "Ġhands": 5043,
      "ĠObama": 5044,
      "]);": 5045,
      "Ġcomfort": 5046,
      "pa": 5047,
      "ĠMus": 5048,
      "Ġpix": 5049,
      "Ġsatisf": 5050,
      "Ġincreased": 5051,
      "otes": 5052,
      "Fact": 5053,
      "Ġfill": 5054,
      "Ġprofit": 5055,
      "Ġlif": 5056,
      "ĠPe": 5057,
      "ĠChart": 5058,
      "ĠSpanish": 5059,
      "ĠAnaly": 5060,
      "ĠWhile": 5061,
      "Ġmovies": 5062,
      "ALUES": 5063,
      "Ġactions": 5064,
      "utor": 5065,
      "pes": 5066,
      "ĠCore": 5067,
      "ros": 5068,
      "ĠSegment": 5069,
      "Ġwonder": 5070,
      "35": 5071,
      "Ġnational": 5072,
      "Ġexc": 5073,
      "Ġ<=": 5074,
      "Ġshop": 5075,
      "OUR": 5076,
      "verti": 5077,
      "ĠPrint": 5078,
      "Ġopin": 5079,
      "Ġmoment": 5080,
      "Ġbas": 5081,
      "Ġforeign": 5082,
      "IS": 5083,
      "Ġintrodu": 5084,
      "ographics": 5085,
      "ĠFire": 5086,
      "Ġenh": 5087,
      "ĠDis": 5088,
      "Ġcaused": 5089,
      "ĠRE": 5090,
      "Previous": 5091,
      "jection": 5092,
      "ĠUsing": 5093,
      "how": 5094,
      "sk": 5095,
      "inese": 5096,
      "equ": 5097,
      "ĠPhoto": 5098,
      "Ġcounter": 5099,
      "force": 5100,
      "style": 5101,
      "Ġproduce": 5102,
      "ato": 5103,
      "Ġsometimes": 5104,
      "dataset": 5105,
      "Items": 5106,
      "hens": 5107,
      "rt": 5108,
      "Ġimmedi": 5109,
      "car": 5110,
      "Ġevaluate": 5111,
      "Ġisn": 5112,
      "Ġdates": 5113,
      "Ġpromote": 5114,
      "section": 5115,
      "Ġedit": 5116,
      "Ġdemographic": 5117,
      "produ": 5118,
      "Ġheard": 5119,
      "Ġir": 5120,
      "CSV": 5121,
      "rm": 5122,
      "Ġpassed": 5123,
      "ĠMUST": 5124,
      "Ġheld": 5125,
      "ĠIdentify": 5126,
      "Ġkeyword": 5127,
      "rac": 5128,
      "Ġeating": 5129,
      "Price": 5130,
      "Ġ500": 5131,
      "Ġcancer": 5132,
      "Ġworked": 5133,
      "Ġattend": 5134,
      "Ġaware": 5135,
      "request": 5136,
      "ĠJu": 5137,
      "IMARY": 5138,
      "Ġtransportation": 5139,
      "ham": 5140,
      "Ġeye": 5141,
      "Ġavailability": 5142,
      "Ġrequires": 5143,
      "ventory": 5144,
      "ĠFil": 5145,
      "Ġvia": 5146,
      "aught": 5147,
      "lying": 5148,
      "ĠAssuming": 5149,
      "Ġstage": 5150,
      "Ġprograms": 5151,
      "Ġindirectly": 5152,
      "Ġeveryone": 5153,
      "Ġiniti": 5154,
      "Ġtherapy": 5155,
      "iation": 5156,
      "ĠSim": 5157,
      "Ġkilled": 5158,
      "Ġconfiguration": 5159,
      "Ġglobal": 5160,
      "ĠPRIMARY": 5161,
      "ĠCOUNT": 5162,
      "cles": 5163,
      "Ġmaintenance": 5164,
      "che": 5165,
      "Ġratio": 5166,
      "packages": 5167,
      "cost": 5168,
      "selves": 5169,
      "Property": 5170,
      "oper": 5171,
      "ĠThank": 5172,
      "Ġusername": 5173,
      "Ġpet": 5174,
      "Ġsolve": 5175,
      "web": 5176,
      "Ġcast": 5177,
      "answerable": 5178,
      "Ġansw": 5179,
      "Ġcarbon": 5180,
      "ellow": 5181,
      "Ġborder": 5182,
      "missions": 5183,
      "project": 5184,
      "Ġcouple": 5185,
      "Ġspect": 5186,
      "WriteLine": 5187,
      "ĠRun": 5188,
      "oughts": 5189,
      "Node": 5190,
      "Description": 5191,
      "jo": 5192,
      "ka": 5193,
      "Ġbank": 5194,
      "stack": 5195,
      "Ġadjustments": 5196,
      "Ġfresh": 5197,
      "Ġnothing": 5198,
      "Ġlatitude": 5199,
      ">,": 5200,
      "NG": 5201,
      "Ġ\";": 5202,
      "files": 5203,
      "pected": 5204,
      "OLS": 5205,
      "Ġdry": 5206,
      "Ġones": 5207,
      "ĠChe": 5208,
      "existent": 5209,
      "Ġsaw": 5210,
      "Ġdied": 5211,
      "document": 5212,
      "ĠNews": 5213,
      "rote": 5214,
      "Ġprinc": 5215,
      "ectiveness": 5216,
      "Ġconflic": 5217,
      "ctors": 5218,
      "ĠKe": 5219,
      "ĠRed": 5220,
      "Start": 5221,
      "Ġwave": 5222,
      "Mod": 5223,
      "})": 5224,
      "access": 5225,
      "Ġrelig": 5226,
      "bing": 5227,
      "grad": 5228,
      "Length": 5229,
      "Ġhear": 5230,
      "Ġready": 5231,
      "ĠToolbox": 5232,
      "follow": 5233,
      "Ġopp": 5234,
      "gn": 5235,
      "Ġalgorithms": 5236,
      "Ġaccordingly": 5237,
      "xml": 5238,
      "Ġgun": 5239,
      "block": 5240,
      "generate": 5241,
      "ĠThursday": 5242,
      "while": 5243,
      "Ġparticipants": 5244,
      "Ġquickly": 5245,
      "ding": 5246,
      "ero": 5247,
      "Filter": 5248,
      "mail": 5249,
      "Ġwriter": 5250,
      "ĠWashington": 5251,
      "aughter": 5252,
      "Ġinfection": 5253,
      "config": 5254,
      "Ġmodern": 5255,
      "Ġharm": 5256,
      "Ġsty": 5257,
      "Ã¡": 5258,
      "asure": 5259,
      "Ġcontents": 5260,
      "ament": 5261,
      "Ġ};": 5262,
      "Ġmental": 5263,
      "Ġkeys": 5264,
      "ugin": 5265,
      "Ġalmost": 5266,
      "ĠThoughts": 5267,
      "Ġsil": 5268,
      "month": 5269,
      "isms": 5270,
      "Ġreviews": 5271,
      "sheet": 5272,
      "ĠSwift": 5273,
      "Ġmovement": 5274,
      "\"))": 5275,
      "Ġvisualize": 5276,
      "Ġitself": 5277,
      "TOOLS": 5278,
      "Ġdietary": 5279,
      "Ġloyally": 5280,
      "oub": 5281,
      "uters": 5282,
      "Ġintake": 5283,
      "Ġreader": 5284,
      "Ġnotification": 5285,
      "vention": 5286,
      "Ġdriver": 5287,
      "audio": 5288,
      "Ġforward": 5289,
      "ĠPost": 5290,
      "ository": 5291,
      "nel": 5292,
      "Ġjoin": 5293,
      "ĠMo": 5294,
      "Ġgem": 5295,
      "Ġmerged": 5296,
      "Ġrace": 5297,
      "Bl": 5298,
      "Ġfeet": 5299,
      "Ġsquare": 5300,
      "Width": 5301,
      "atically": 5302,
      "move": 5303,
      "det": 5304,
      "Ġserious": 5305,
      "localhost": 5306,
      "inding": 5307,
      "ĠEmployee": 5308,
      "Ġstret": 5309,
      "anges": 5310,
      "predict": 5311,
      "Ġworkout": 5312,
      "ĠInstagram": 5313,
      "Ġtrade": 5314,
      "ford": 5315,
      "*)": 5316,
      "ĠConvert": 5317,
      "la": 5318,
      "first": 5319,
      "Ġregister": 5320,
      "target": 5321,
      "Ġmodules": 5322,
      "Ġplaces": 5323,
      "Ġgenerally": 5324,
      "Ġvel": 5325,
      "Did": 5326,
      "ĠEuropean": 5327,
      "Style": 5328,
      "ORD": 5329,
      "ivery": 5330,
      "Ġmatches": 5331,
      "category": 5332,
      "Ġmiddle": 5333,
      "Layout": 5334,
      "ously": 5335,
      "Ġentity": 5336,
      "plt": 5337,
      "Ñĥ": 5338,
      "Ġtests": 5339,
      "Ġplants": 5340,
      "Ġjud": 5341,
      "Ġsolutions": 5342,
      "Att": 5343,
      "ĠWest": 5344,
      "ellig": 5345,
      "Ġalloc": 5346,
      "ĠDav": 5347,
      "Group": 5348,
      "Ġ80": 5349,
      "Ġworth": 5350,
      "Could": 5351,
      "Ġknowledge": 5352,
      "rect": 5353,
      "33": 5354,
      "ilosoph": 5355,
      "ĠChris": 5356,
      "client": 5357,
      "Ġdamage": 5358,
      "Ġnotif": 5359,
      "Exp": 5360,
      "!!": 5361,
      "sm": 5362,
      "Ðº": 5363,
      "Ġnature": 5364,
      "=$": 5365,
      "ĠMicrosoft": 5366,
      "Ġcooking": 5367,
      "Ġoperations": 5368,
      "(_": 5369,
      "Show": 5370,
      "Ġawait": 5371,
      "google": 5372,
      "Ġangle": 5373,
      "Save": 5374,
      "ker": 5375,
      "Ġpassage": 5376,
      "OP": 5377,
      "urt": 5378,
      "ĠSunday": 5379,
      "Ġbrother": 5380,
      "Ġarticles": 5381,
      "ufact": 5382,
      "eff": 5383,
      "Ġforces": 5384,
      "report": 5385,
      "github": 5386,
      ">>": 5387,
      "ĠDateTime": 5388,
      "Ġmonthly": 5389,
      "Ġcontainer": 5390,
      "Ġhowever": 5391,
      "icken": 5392,
      "Ġscenari": 5393,
      "Ġimprovement": 5394,
      "ĠâĪ": 5395,
      "ĠAustral": 5396,
      "ĠKing": 5397,
      "Ġactiv": 5398,
      "Ġquite": 5399,
      "ictim": 5400,
      "Ġinstallation": 5401,
      "Ġclub": 5402,
      "Ġtransactions": 5403,
      "pi": 5404,
      "ured": 5405,
      "util": 5406,
      "Ġvary": 5407,
      "aled": 5408,
      "Ġbeginning": 5409,
      "Ġwild": 5410,
      "iam": 5411,
      "ĠYour": 5412,
      "celer": 5413,
      "ĠChina": 5414,
      "Ġmeat": 5415,
      "ĠEnter": 5416,
      "ĠCA": 5417,
      "notation": 5418,
      "now": 5419,
      "Ġmoving": 5420,
      "ĠTH": 5421,
      "ĠOct": 5422,
      "ĠGerman": 5423,
      "Ġaddition": 5424,
      "POST": 5425,
      "oop": 5426,
      "Ġrot": 5427,
      "Ġwatching": 5428,
      "Ġcalling": 5429,
      "sentiment": 5430,
      "exic": 5431,
      "FileDialog": 5432,
      "Ġpurpose": 5433,
      "67": 5434,
      "onstr": 5435,
      "lor": 5436,
      "\"),": 5437,
      "Ġconclude": 5438,
      "Ã¶": 5439,
      "Ġrain": 5440,
      "ocket": 5441,
      "inte": 5442,
      "EXT": 5443,
      "outer": 5444,
      "Ġenable": 5445,
      "parent": 5446,
      "Ġclos": 5447,
      "Ġinternational": 5448,
      "android": 5449,
      "Ġnuc": 5450,
      "Ġcluster": 5451,
      "ĠAssembly": 5452,
      "Ġentered": 5453,
      "{$": 5454,
      "Ġendl": 5455,
      "Ġtopics": 5456,
      "Ġpredictions": 5457,
      "Ġsurvi": 5458,
      "HT": 5459,
      "Ġborn": 5460,
      "Ġforeach": 5461,
      "ky": 5462,
      "Ġconstructor": 5463,
      "Ġemergency": 5464,
      "ĠIndian": 5465,
      "rb": 5466,
      "ĠWhite": 5467,
      "Ġrelax": 5468,
      "ondon": 5469,
      "Ġow": 5470,
      "ĠÂ£": 5471,
      "Ġleaders": 5472,
      "Cost": 5473,
      "Ġrestric": 5474,
      "Ġdivid": 5475,
      "ĠSept": 5476,
      "Ġtransfer": 5477,
      "MS": 5478,
      "Ġbuffer": 5479,
      "Ġurl": 5480,
      "Application": 5481,
      "npm": 5482,
      "Ġful": 5483,
      "Ġvegetables": 5484,
      "split": 5485,
      "autiful": 5486,
      "ĠAug": 5487,
      "Ġincreasing": 5488,
      "Ġtips": 5489,
      "Ġoccup": 5490,
      "Ġremoving": 5491,
      "Sim": 5492,
      "well": 5493,
      "ifies": 5494,
      "ĠSte": 5495,
      "uge": 5496,
      "unt": 5497,
      "ĠIndia": 5498,
      "ĠKotlin": 5499,
      "Does": 5500,
      "Ġtheme": 5501,
      "Acc": 5502,
      "Ġchallenges": 5503,
      "ameters": 5504,
      "Rem": 5505,
      "LT": 5506,
      "Ġarri": 5507,
      "Ġallowing": 5508,
      "ĠHave": 5509,
      "Listener": 5510,
      "Ġinteractive": 5511,
      "NET": 5512,
      "step": 5513,
      "Ġcos": 5514,
      "ĠJanuary": 5515,
      "Ġregularly": 5516,
      "ĠCalifornia": 5517,
      "Ġhus": 5518,
      "Ġdescribed": 5519,
      "ayment": 5520,
      "holders": 5521,
      "Ġdigital": 5522,
      "Ġselection": 5523,
      "Ġdescribe": 5524,
      "ĠRussian": 5525,
      "isions": 5526,
      "Ġnutrient": 5527,
      "icial": 5528,
      "Record": 5529,
      "ĠChinese": 5530,
      "Ġlisten": 5531,
      "Ġedx": 5532,
      "Sentence": 5533,
      "aj": 5534,
      "Ġstructures": 5535,
      "Ġvoice": 5536,
      "Ġinteractions": 5537,
      "Ġcommands": 5538,
      "ĠTV": 5539,
      "Ġtouchdown": 5540,
      "Ġfashion": 5541,
      "Ġkit": 5542,
      "Ġextre": 5543,
      "han": 5544,
      "src": 5545,
      "Ġeffectiveness": 5546,
      "md": 5547,
      "Ġfootball": 5548,
      "ometry": 5549,
      "life": 5550,
      "ying": 5551,
      "vol": 5552,
      "iter": 5553,
      "Ġnet": 5554,
      "types": 5555,
      "exp": 5556,
      "Ġstatements": 5557,
      "ING": 5558,
      "Ġrender": 5559,
      "ĠExcel": 5560,
      "utable": 5561,
      "ĠTime": 5562,
      "ĠTry": 5563,
      "contain": 5564,
      "Ġestablish": 5565,
      "arily": 5566,
      "Ġflight": 5567,
      "Ġretrieves": 5568,
      "gers": 5569,
      "Ġeffectively": 5570,
      "Ġdirection": 5571,
      "Ġcer": 5572,
      "Ġclimate": 5573,
      "Ġsuitable": 5574,
      "Ġgar": 5575,
      "ios": 5576,
      "Ġcontrols": 5577,
      "Ġinterests": 5578,
      "\"><": 5579,
      "cos": 5580,
      "Ġinsights": 5581,
      ":\"": 5582,
      "ĠNormal": 5583,
      "34": 5584,
      "500": 5585,
      "Ġtreatments": 5586,
      "Ġswitch": 5587,
      "Gener": 5588,
      "Ġoperating": 5589,
      "pop": 5590,
      "ns": 5591,
      "Ġdeviation": 5592,
      "ĠButton": 5593,
      "\"></": 5594,
      "ĠPa": 5595,
      "ndrome": 5596,
      "Ġwrote": 5597,
      "Ġapplications": 5598,
      "ida": 5599,
      "Args": 5600,
      "eles": 5601,
      "iber": 5602,
      "ĠNot": 5603,
      "ĠHTTP": 5604,
      "Ġexecute": 5605,
      "Ġresponsible": 5606,
      "Ġbottom": 5607,
      "Ġculture": 5608,
      "parse": 5609,
      "Ġbreath": 5610,
      "Ġtransform": 5611,
      "Ġroutine": 5612,
      "Ġtheory": 5613,
      "olute": 5614,
      "RA": 5615,
      "Ġbond": 5616,
      "Ġpor": 5617,
      "ĠAnother": 5618,
      "marize": 5619,
      "Ġbird": 5620,
      "ĠCSS": 5621,
      "ĠSan": 5622,
      "tities": 5623,
      "rupt": 5624,
      "inn": 5625,
      "Ġbow": 5626,
      "icies": 5627,
      "Ġwear": 5628,
      "temperature": 5629,
      "Ġthinking": 5630,
      "Ġthemselves": 5631,
      "Ġdemonstr": 5632,
      "aint": 5633,
      "Ġlogic": 5634,
      "Dis": 5635,
      "aker": 5636,
      "ĠMat": 5637,
      "Ġmid": 5638,
      "rooms": 5639,
      "Ġ})": 5640,
      "filename": 5641,
      "iling": 5642,
      "Ġvisually": 5643,
      "Ġyoga": 5644,
      "Ġ),": 5645,
      "Ġimplementing": 5646,
      "YOUR": 5647,
      "Ġcold": 5648,
      "Ġbrowser": 5649,
      "di": 5650,
      "Ġegg": 5651,
      "Ġoptimize": 5652,
      "erge": 5653,
      "Ġcash": 5654,
      "Ġexit": 5655,
      "Ġdegree": 5656,
      "Ġpen": 5657,
      "Ġrisks": 5658,
      "Ġselecting": 5659,
      "Ġleader": 5660,
      "PA": 5661,
      "olid": 5662,
      "water": 5663,
      "itect": 5664,
      "Ġrecognition": 5665,
      "Ġcele": 5666,
      "tian": 5667,
      "ĠPal": 5668,
      "lights": 5669,
      "Ġpark": 5670,
      "iding": 5671,
      "Ġice": 5672,
      "req": 5673,
      "person": 5674,
      "Ġflag": 5675,
      "Ġten": 5676,
      "Ġdish": 5677,
      "Ġtrust": 5678,
      "28": 5679,
      "rows": 5680,
      "Ġremoved": 5681,
      "anguages": 5682,
      "ĠMark": 5683,
      "Ġcritical": 5684,
      "Ġlives": 5685,
      "rip": 5686,
      "Ur": 5687,
      "centage": 5688,
      "Ġbaby": 5689,
      "Ġmis": 5690,
      "ĠSen": 5691,
      "Ġtraditional": 5692,
      "Ġhusband": 5693,
      "API": 5694,
      "mun": 5695,
      "irectory": 5696,
      "vere": 5697,
      "folio": 5698,
      "Ġround": 5699,
      "tra": 5700,
      "Ġimportance": 5701,
      "Ġguidelines": 5702,
      "Ġfetch": 5703,
      "ands": 5704,
      "ĠPredict": 5705,
      "elt": 5706,
      "ĠWhy": 5707,
      "ĠUnderstand": 5708,
      "aturday": 5709,
      "Ġletter": 5710,
      "apache": 5711,
      "ĠProm": 5712,
      "Ġcauses": 5713,
      "Ġdeveloped": 5714,
      "Ġeasier": 5715,
      "Ġfeed": 5716,
      "Ġ2013": 5717,
      "Ġinteract": 5718,
      "Ġhtml": 5719,
      "uations": 5720,
      "ĠÎ": 5721,
      "anner": 5722,
      "Ġpow": 5723,
      "PS": 5724,
      "Ġtimeline": 5725,
      "Ġwidget": 5726,
      "Ġadvice": 5727,
      "Ġprints": 5728,
      "Pol": 5729,
      "Ġdx": 5730,
      "tein": 5731,
      "ĠCounty": 5732,
      "pite": 5733,
      "ĠEast": 5734,
      ".)": 5735,
      "Ġcollected": 5736,
      "Values": 5737,
      "area": 5738,
      "Ġconcl": 5739,
      "([": 5740,
      "lab": 5741,
      "ĠEarth": 5742,
      "itions": 5743,
      "Ġmedications": 5744,
      "Ġfloor": 5745,
      "Sp": 5746,
      "Ġhar": 5747,
      "Ġflex": 5748,
      "cohol": 5749,
      "Ġau": 5750,
      "Ġdepends": 5751,
      "Ġdocumentation": 5752,
      "private": 5753,
      "Ġmanip": 5754,
      "Ġ`$": 5755,
      "ĠNote": 5756,
      "address": 5757,
      "raz": 5758,
      "vo": 5759,
      "ensus": 5760,
      "Ġdeveloping": 5761,
      "Ġmagnetic": 5762,
      "Ġ%>%": 5763,
      "Ġjump": 5764,
      "Ġengaging": 5765,
      "23": 5766,
      "ĠNow": 5767,
      "Ġtrip": 5768,
      "Ġperfect": 5769,
      "letes": 5770,
      "ĠMich": 5771,
      "Ġapproxim": 5772,
      "rypted": 5773,
      "osen": 5774,
      "Ġ);": 5775,
      "Ġcoming": 5776,
      "reet": 5777,
      "Ñĭ": 5778,
      "Ġeyes": 5779,
      "Ġalleg": 5780,
      "ĠCall": 5781,
      "ĠDE": 5782,
      "Ġspent": 5783,
      "Ġhabit": 5784,
      "gl": 5785,
      "Ġ>>": 5786,
      "nofollow": 5787,
      "----------------": 5788,
      "Ġlogin": 5789,
      "Ġter": 5790,
      "Ġincorporate": 5791,
      "Ġ(!": 5792,
      "Ġrights": 5793,
      "Ġ('": 5794,
      "Ġencourage": 5795,
      "Ġexpos": 5796,
      "Ġwood": 5797,
      "version": 5798,
      "Ġreact": 5799,
      "node": 5800,
      "}\"": 5801,
      "ĠPark": 5802,
      "CO": 5803,
      "Close": 5804,
      "Ġelection": 5805,
      "ĠConsider": 5806,
      "Ġcharge": 5807,
      "quality": 5808,
      "dist": 5809,
      "....": 5810,
      "omp": 5811,
      "Mon": 5812,
      ".\"?": 5813,
      "Ġprocedure": 5814,
      "Ġsmaller": 5815,
      "ruby": 5816,
      "Ġhimself": 5817,
      "Ġhy": 5818,
      "Des": 5819,
      "ĠGreat": 5820,
      "Ġlighting": 5821,
      "ĠFunction": 5822,
      "Ġindepend": 5823,
      "Ġinstru": 5824,
      "ĠAc": 5825,
      "ĠCour": 5826,
      "filePath": 5827,
      "(:": 5828,
      "Ġremaining": 5829,
      "ĠAndroid": 5830,
      "Ġmount": 5831,
      "Ġcentury": 5832,
      "Ġcloud": 5833,
      "ives": 5834,
      "Ġcompletion": 5835,
      "gender": 5836,
      "cat": 5837,
      "Ġhotel": 5838,
      "getElement": 5839,
      "Ġcandidate": 5840,
      "urb": 5841,
      "Ġpi": 5842,
      "hyd": 5843,
      "Web": 5844,
      "Ġclause": 5845,
      "Ġ22": 5846,
      "Ġshowing": 5847,
      "Ġauthentication": 5848,
      "Handler": 5849,
      "Page": 5850,
      "itely": 5851,
      "ideo": 5852,
      "Ġsessions": 5853,
      "entially": 5854,
      "Ġautomatically": 5855,
      "ĠCor": 5856,
      "Default": 5857,
      "ĠDataGridView": 5858,
      "Ġmonitoring": 5859,
      "ĠDemocr": 5860,
      "Ñı": 5861,
      "Ġrespect": 5862,
      "Ġspend": 5863,
      "rier": 5864,
      "source": 5865,
      "inger": 5866,
      "ĠModify": 5867,
      "75": 5868,
      "Format": 5869,
      "Ġcivil": 5870,
      "Ġestimated": 5871,
      "Ġprovider": 5872,
      "Ġlargest": 5873,
      "Ġradius": 5874,
      "anged": 5875,
      "getElementById": 5876,
      "Ġallowed": 5877,
      "free": 5878,
      "Ġ2012": 5879,
      "Ġtal": 5880,
      "Ġsecret": 5881,
      "ĠLondon": 5882,
      "chen": 5883,
      "Ġshared": 5884,
      "Ġcirc": 5885,
      "hr": 5886,
      "ĠAny": 5887,
      "sender": 5888,
      "ria": 5889,
      "draw": 5890,
      "known": 5891,
      "Ġrelative": 5892,
      "Ð²": 5893,
      "Ġfilename": 5894,
      "prehens": 5895,
      "Ġfemale": 5896,
      "wood": 5897,
      "Ġvictim": 5898,
      "Ġprojects": 5899,
      "ĠProject": 5900,
      "rial": 5901,
      "Ġaccounts": 5902,
      "Ġbinary": 5903,
      "Ġorders": 5904,
      "sych": 5905,
      "Ref": 5906,
      "Ġqual": 5907,
      "Ġlarger": 5908,
      "employ": 5909,
      "Ġshown": 5910,
      "\\/": 5911,
      "house": 5912,
      "ende": 5913,
      "Ġwish": 5914,
      "Ġpromo": 5915,
      "clean": 5916,
      "Ð¼": 5917,
      "Ġsymbol": 5918,
      "overed": 5919,
      "Ġmargin": 5920,
      "Ġclin": 5921,
      "ĠInteger": 5922,
      "uries": 5923,
      "sales": 5924,
      "Height": 5925,
      "ille": 5926,
      "Ġfeeling": 5927,
      "Ġinterval": 5928,
      "Ġconstraint": 5929,
      "Ġinjury": 5930,
      "Ġgrid": 5931,
      "ulated": 5932,
      "Ġmotion": 5933,
      "RU": 5934,
      "views": 5935,
      "Ġpresence": 5936,
      "da": 5937,
      "Ġparticularly": 5938,
      "Ġtalking": 5939,
      "Ġbul": 5940,
      "Ġgave": 5941,
      "Ġspending": 5942,
      "Ġkill": 5943,
      "otor": 5944,
      "compl": 5945,
      "cean": 5946,
      "Ġmur": 5947,
      "itialize": 5948,
      "Ġarrest": 5949,
      "Ġneighborhood": 5950,
      "Ġexperienc": 5951,
      "Analy": 5952,
      "Ġkid": 5953,
      "Ġremote": 5954,
      "Ġessential": 5955,
      "istan": 5956,
      "submit": 5957,
      "PE": 5958,
      "return": 5959,
      "unte": 5960,
      "ĠJune": 5961,
      ">();": 5962,
      "core": 5963,
      "idden": 5964,
      "nic": 5965,
      "Ġsongs": 5966,
      "Ġcv": 5967,
      "Ġtail": 5968,
      "quote": 5969,
      ".\",": 5970,
      "enge": 5971,
      "Ġstructs": 5972,
      "Ġmaybe": 5973,
      "ĠAugust": 5974,
      "Ġmarried": 5975,
      "John": 5976,
      "mas": 5977,
      "dev": 5978,
      "Ġhop": 5979,
      "Ġefforts": 5980,
      "Ġconcentration": 5981,
      "Ġdro": 5982,
      "Age": 5983,
      "Ġmanufact": 5984,
      "math": 5985,
      "ĠBo": 5986,
      "Ġrese": 5987,
      "raq": 5988,
      "ĠCNN": 5989,
      "Ġunits": 5990,
      "Print": 5991,
      "airs": 5992,
      "Ġprobability": 5993,
      "orer": 5994,
      "igr": 5995,
      "Ġclothing": 5996,
      "ĠSUM": 5997,
      "ĠMarch": 5998,
      "ae": 5999,
      "03": 6000,
      "Ġsem": 6001,
      "Average": 6002,
      "Ġefficiency": 6003,
      "Ġjournal": 6004,
      "Ġmetal": 6005,
      "Ġ23": 6006,
      "OK": 6007,
      "Ġwants": 6008,
      "Hypothesis": 6009,
      "Ġstack": 6010,
      "issions": 6011,
      "rogen": 6012,
      "Ne": 6013,
      "Ġhon": 6014,
      "Ġreducing": 6015,
      "Ġpunct": 6016,
      "Ġpolicies": 6017,
      "Ġchoices": 6018,
      "Ġnoise": 6019,
      "Ġadapt": 6020,
      "Ġconv": 6021,
      "RI": 6022,
      "ael": 6023,
      "cons": 6024,
      "imize": 6025,
      "Ġsurround": 6026,
      "Ġauto": 6027,
      "ĠTur": 6028,
      "Ġtruck": 6029,
      "pril": 6030,
      "Use": 6031,
      "ĠCould": 6032,
      "Ġrecipes": 6033,
      "Ġprepare": 6034,
      "learn": 6035,
      "Ġlanguages": 6036,
      "IO": 6037,
      "Ġtechnical": 6038,
      "tifact": 6039,
      "Let": 6040,
      "Ġgrand": 6041,
      "iving": 6042,
      "ĠStart": 6043,
      "icated": 6044,
      "ĠSELECT": 6045,
      "Ġboolean": 6046,
      "Ġjson": 6047,
      "Ġconfigure": 6048,
      "Ġopportunities": 6049,
      "urchase": 6050,
      "Check": 6051,
      "But": 6052,
      "ferrer": 6053,
      "Ġnutrition": 6054,
      "urrency": 6055,
      "ĠSmith": 6056,
      "vit": 6057,
      "Ġopening": 6058,
      "Ġcleaned": 6059,
      "Ġconsist": 6060,
      "Ġpip": 6061,
      "ĠDart": 6062,
      "Ġcausing": 6063,
      "cribe": 6064,
      "ameter": 6065,
      "Ġcoefficient": 6066,
      "range": 6067,
      "Writer": 6068,
      "Business": 6069,
      "Ġmeals": 6070,
      "olar": 6071,
      "Met": 6072,
      "unanswerable": 6073,
      "Ġpriv": 6074,
      "ĠDesign": 6075,
      "istry": 6076,
      "Ġ27": 6077,
      "->{": 6078,
      "cale": 6079,
      "Ġstatistics": 6080,
      "ado": 6081,
      "Ġsustainable": 6082,
      "bru": 6083,
      "BI": 6084,
      "ancing": 6085,
      "abric": 6086,
      "Ġdaughter": 6087,
      "Ġgold": 6088,
      "elling": 6089,
      "Ġsyndrome": 6090,
      "}{": 6091,
      "Ġmist": 6092,
      "Ġbelief": 6093,
      "Ġconsumption": 6094,
      "Ġmentioned": 6095,
      "Ġmigration": 6096,
      "ĠOver": 6097,
      "Ġ\"\"": 6098,
      "65": 6099,
      "left": 6100,
      "chools": 6101,
      "ĠSeptember": 6102,
      "Ġrecently": 6103,
      "Ġdelivery": 6104,
      "ĠJuly": 6105,
      "ĠTable": 6106,
      "Database": 6107,
      "Ġq": 6108,
      "Ġprocesses": 6109,
      "random": 6110,
      "Ġbroad": 6111,
      "omb": 6112,
      "results": 6113,
      "Ġadult": 6114,
      "mosp": 6115,
      "icious": 6116,
      "Ġstreet": 6117,
      "itar": 6118,
      "legal": 6119,
      "Te": 6120,
      "27": 6121,
      "ĠSaturday": 6122,
      "Ġschema": 6123,
      "Ġoffers": 6124,
      "Ġconnected": 6125,
      "Ġconversion": 6126,
      "roy": 6127,
      "Ġcommonly": 6128,
      "Ġple": 6129,
      "alian": 6130,
      "Ġsummer": 6131,
      "FI": 6132,
      "Ġvac": 6133,
      "going": 6134,
      "Ġobtained": 6135,
      "Ġmoved": 6136,
      "Ġhighlights": 6137,
      "Ġaspect": 6138,
      "ilies": 6139,
      "ervation": 6140,
      "Ġcamp": 6141,
      "eric": 6142,
      "craft": 6143,
      "graph": 6144,
      "vation": 6145,
      "Ġdanger": 6146,
      "Ġdress": 6147,
      "oded": 6148,
      "Ġregulations": 6149,
      "vider": 6150,
      "Ġdecre": 6151,
      "Human": 6152,
      "vents": 6153,
      "hel": 6154,
      "Ġtranslation": 6155,
      "init": 6156,
      "uster": 6157,
      "Ġcomprehens": 6158,
      "Ġfootage": 6159,
      "Session": 6160,
      "Ġextreme": 6161,
      "update": 6162,
      "oreferrer": 6163,
      "summary": 6164,
      "iring": 6165,
      "plotlib": 6166,
      "Ġproduced": 6167,
      "Ġpartners": 6168,
      "Ġthread": 6169,
      "Ġgiving": 6170,
      "Ġhttps": 6171,
      "Ġcats": 6172,
      "ĠChrist": 6173,
      "estern": 6174,
      "Ġvehicle": 6175,
      "Spe": 6176,
      "Post": 6177,
      "format": 6178,
      "ĠDes": 6179,
      "ributed": 6180,
      "mys": 6181,
      "Ġplays": 6182,
      "Ġadverti": 6183,
      "Ġexpense": 6184,
      "ĠHer": 6185,
      "ĠAg": 6186,
      "Ġsurg": 6187,
      "ĠLa": 6188,
      "Ġviews": 6189,
      "ĠSketch": 6190,
      "Ġprofile": 6191,
      "Ġhighly": 6192,
      "pred": 6193,
      "Ġimmediately": 6194,
      "ĠHol": 6195,
      "Ġcelebr": 6196,
      "Ġwelcome": 6197,
      "non": 6198,
      "orter": 6199,
      "Ġpaid": 6200,
      "pdf": 6201,
      "merged": 6202,
      "Ġlaws": 6203,
      "ĠIraq": 6204,
      "Some": 6205,
      "Ġ#{": 6206,
      "Ġrelationships": 6207,
      "fast": 6208,
      "Ġ[\"": 6209,
      "Ġdf": 6210,
      "Ġneural": 6211,
      "Ġdirector": 6212,
      ">.": 6213,
      "Ġcalendar": 6214,
      "Ġentry": 6215,
      "ears": 6216,
      "AX": 6217,
      "Ġcontinu": 6218,
      "ĠPress": 6219,
      "YY": 6220,
      "Ġscheme": 6221,
      "Ġcarry": 6222,
      "Ġarrays": 6223,
      "asc": 6224,
      "Ġsen": 6225,
      "Ġbill": 6226,
      "Ġprep": 6227,
      "Ġinternet": 6228,
      "Make": 6229,
      "Ġreferral": 6230,
      "Â°": 6231,
      "Ġnp": 6232,
      "Ġforest": 6233,
      "(&": 6234,
      "90": 6235,
      "Ġconsistent": 6236,
      "iven": 6237,
      "Ġsensors": 6238,
      "cap": 6239,
      "Ġimplemented": 6240,
      "elligence": 6241,
      "Ġsto": 6242,
      "ui": 6243,
      "Ġfair": 6244,
      "Ġserve": 6245,
      "sed": 6246,
      "iant": 6247,
      "ĠPose": 6248,
      "ĠOctober": 6249,
      "ovember": 6250,
      "ussia": 6251,
      "Ġrepeated": 6252,
      "Ġ[[": 6253,
      "Ġmel": 6254,
      "Ġpat": 6255,
      "Ent": 6256,
      "ked": 6257,
      "icing": 6258,
      "Ġyield": 6259,
      "Ġbyte": 6260,
      "ĠEngland": 6261,
      "Cal": 6262,
      "Ġfederal": 6263,
      "??": 6264,
      "cember": 6265,
      "Ġelectric": 6266,
      "eries": 6267,
      "Ġalternative": 6268,
      "Ġâī": 6269,
      "Ġbuttons": 6270,
      "Ġreplaced": 6271,
      "[:": 6272,
      "Ġburn": 6273,
      "ĠDepth": 6274,
      "arp": 6275,
      "Ġradio": 6276,
      "Ġchannel": 6277,
      "each": 6278,
      "rates": 6279,
      "ointments": 6280,
      "Ġpu": 6281,
      "ission": 6282,
      "Ġutil": 6283,
      "Ġavg": 6284,
      "ĠComp": 6285,
      "filtered": 6286,
      "anch": 6287,
      "Ġforms": 6288,
      "Ġplanning": 6289,
      "ĠApril": 6290,
      "Instruction": 6291,
      "bal": 6292,
      "ĠJack": 6293,
      "Ġstake": 6294,
      "Ġsched": 6295,
      "Ġchanged": 6296,
      "After": 6297,
      "Customer": 6298,
      "ĠBro": 6299,
      "Ġverify": 6300,
      "Ġindicate": 6301,
      "Ġchecking": 6302,
      "link": 6303,
      "ĠĠĠĠĠĠĠĠĠĠ": 6304,
      "Ġsand": 6305,
      "Ġguess": 6306,
      "yl": 6307,
      "ĠInter": 6308,
      "Ġdifferences": 6309,
      "ĠTex": 6310,
      "Ġhappened": 6311,
      "ca": 6312,
      "eting": 6313,
      "Ġban": 6314,
      "Ġrule": 6315,
      "ĠDrag": 6316,
      "orough": 6317,
      "Ġstrugg": 6318,
      "ĠKore": 6319,
      "Ġinser": 6320,
      "Ġlic": 6321,
      ".*": 6322,
      "Ġ===": 6323,
      "integer": 6324,
      "Ġdescending": 6325,
      "ĠSch": 6326,
      "Ġexperiences": 6327,
      "Ġmuscle": 6328,
      "US": 6329,
      "eces": 6330,
      "Ġcrim": 6331,
      "ĠGroup": 6332,
      "Ġarchitect": 6333,
      "ago": 6334,
      "oute": 6335,
      "pus": 6336,
      "Ġconcepts": 6337,
      "Ġtimestamp": 6338,
      "Ġcategories": 6339,
      "Ġstation": 6340,
      "tings": 6341,
      "Ġchanging": 6342,
      "hist": 6343,
      "ltim": 6344,
      "uts": 6345,
      "ello": 6346,
      "ĠIN": 6347,
      "Ġincident": 6348,
      "Ġdiscount": 6349,
      "Ġreasons": 6350,
      "ĠRoman": 6351,
      "Ġagreement": 6352,
      "plyr": 6353,
      "aks": 6354,
      "ayscale": 6355,
      "sign": 6356,
      "Ġarm": 6357,
      "Ġlimited": 6358,
      "Ġparticles": 6359,
      "ĠReceived": 6360,
      "ToString": 6361,
      "Run": 6362,
      "antum": 6363,
      "Ġcache": 6364,
      "Kit": 6365,
      "tidy": 6366,
      "Ġmyself": 6367,
      "ĠSince": 6368,
      "Ġgard": 6369,
      "Ġswim": 6370,
      "Ġwalking": 6371,
      "Ġsugar": 6372,
      "ycl": 6373,
      "Ġcustomize": 6374,
      "cd": 6375,
      "Ġaffected": 6376,
      "doc": 6377,
      "ĠHealth": 6378,
      "object": 6379,
      "iler": 6380,
      "Track": 6381,
      "(*)": 6382,
      "Ġded": 6383,
      "ĠController": 6384,
      "Ġimpl": 6385,
      "():": 6386,
      "ĠPort": 6387,
      "Ġallerg": 6388,
      "Ġglass": 6389,
      "boBox": 6390,
      "Ġ28": 6391,
      "Ġcritic": 6392,
      "Ġcleaning": 6393,
      "Ġpartner": 6394,
      "Ġexam": 6395,
      "Ġpull": 6396,
      "II": 6397,
      "Menu": 6398,
      "Ġreality": 6399,
      "des": 6400,
      "send": 6401,
      "Ġextension": 6402,
      "efore": 6403,
      "rime": 6404,
      "Ġmill": 6405,
      "ĠÐ¿": 6406,
      "ĠHigh": 6407,
      "Ġ(@": 6408,
      "Ġfourth": 6409,
      "Ġdeploy": 6410,
      "ĠMexic": 6411,
      "Series": 6412,
      "Ġinterpre": 6413,
      "Ġvalidation": 6414,
      "erve": 6415,
      "Ġpanel": 6416,
      "Ġolder": 6417,
      "Ġtrigger": 6418,
      "track": 6419,
      "ustice": 6420,
      "Ġbur": 6421,
      "esti": 6422,
      "Control": 6423,
      "ĠGener": 6424,
      "Ġalcohol": 6425,
      "Ġnation": 6426,
      "Ġshift": 6427,
      "Ġactor": 6428,
      "Ġsuggested": 6429,
      "Ġwhose": 6430,
      "Ġorganizations": 6431,
      "ĠDepartment": 6432,
      "Ġdegrees": 6433,
      "Ġspaces": 6434,
      "Ġanx": 6435,
      "Ġmath": 6436,
      "Ġexactly": 6437,
      "Ġpoor": 6438,
      "oting": 6439,
      "2022": 6440,
      "Ġstudies": 6441,
      "spring": 6442,
      "37": 6443,
      "ĠProduct": 6444,
      "Ġassistance": 6445,
      "Ġliter": 6446,
      "LP": 6447,
      "Ġlawy": 6448,
      "Flow": 6449,
      "chers": 6450,
      "dem": 6451,
      "Core": 6452,
      "Ġpublished": 6453,
      "Matrix": 6454,
      "video": 6455,
      "Ġselects": 6456,
      "Ġsamples": 6457,
      "Ġmagn": 6458,
      "Ġ2014": 6459,
      "inated": 6460,
      "part": 6461,
      "sites": 6462,
      "orge": 6463,
      "Ġinfluence": 6464,
      "Task": 6465,
      "Ġicon": 6466,
      "Ġoperation": 6467,
      "Builder": 6468,
      "Rep": 6469,
      "Ġ$_": 6470,
      "commod": 6471,
      "Ġreve": 6472,
      "Ġpages": 6473,
      "olic": 6474,
      "ste": 6475,
      "Ġ]": 6476,
      "variable": 6477,
      "Ġroll": 6478,
      "Rows": 6479,
      "Ġmiles": 6480,
      "?.": 6481,
      "Url": 6482,
      "Address": 6483,
      "itness": 6484,
      "gal": 6485,
      "eli": 6486,
      "illa": 6487,
      "Ġreflect": 6488,
      "ĠLog": 6489,
      "Sentiment": 6490,
      "Ġque": 6491,
      "Ġacid": 6492,
      "Ġtweets": 6493,
      "ĠPat": 6494,
      "ds": 6495,
      "anel": 6496,
      "Ġloan": 6497,
      "Ġresear": 6498,
      "ĠNovember": 6499,
      "Ġenhance": 6500,
      "Ġputs": 6501,
      "Ġlack": 6502,
      "Ġsketch": 6503,
      "println": 6504,
      "Ġappealing": 6505,
      "erts": 6506,
      "Ġfirm": 6507,
      "holder": 6508,
      "Ġpointer": 6509,
      "Ġvelocity": 6510,
      "Ġvacc": 6511,
      "Ġ2010": 6512,
      "Ġdriving": 6513,
      "Ġsmooth": 6514,
      "Ġnamespace": 6515,
      "Ġ/&": 6516,
      "Command": 6517,
      "Ġcapacity": 6518,
      "Ġgraphics": 6519,
      "cule": 6520,
      "Ġmatching": 6521,
      "Ġgenre": 6522,
      "Ġclaims": 6523,
      "istical": 6524,
      "ticip": 6525,
      "\"];": 6526,
      "66": 6527,
      "Ġsmart": 6528,
      "Ġbrown": 6529,
      "Ġcompletely": 6530,
      "sibility": 6531,
      "ĠFind": 6532,
      "Area": 6533,
      "Ġinvalid": 6534,
      "Ġremains": 6535,
      "ĠHed": 6536,
      "Ġanalyzing": 6537,
      "last": 6538,
      "Ġdynamic": 6539,
      "ĠDavid": 6540,
      "Ġchance": 6541,
      "avas": 6542,
      "ini": 6543,
      "Net": 6544,
      "Ġsuff": 6545,
      "Ġvote": 6546,
      "ĠTEXT": 6547,
      "ĠGUI": 6548,
      "ÑģÑĤ": 6549,
      "Ġdetected": 6550,
      "Go": 6551,
      "ĠTrain": 6552,
      "ĠDecember": 6553,
      "ĠBusiness": 6554,
      "Ġprop": 6555,
      "amed": 6556,
      "overy": 6557,
      "rieve": 6558,
      "Ġemotional": 6559,
      "izza": 6560,
      "gred": 6561,
      "ĠScience": 6562,
      "Ġcompared": 6563,
      "Ġmetadata": 6564,
      "Ġappears": 6565,
      "ston": 6566,
      "ingu": 6567,
      "apping": 6568,
      "next": 6569,
      "Ġatmosp": 6570,
      "Ġexists": 6571,
      "asket": 6572,
      "Parse": 6573,
      "Ġclusters": 6574,
      "Ġton": 6575,
      "Ġplane": 6576,
      "ĠPath": 6577,
      "Ġalthough": 6578,
      ")\"": 6579,
      "ryption": 6580,
      "foreach": 6581,
      "Ġexperiment": 6582,
      "DA": 6583,
      "Ġpsych": 6584,
      "Ġresolution": 6585,
      "Ġcream": 6586,
      "uth": 6587,
      "hey": 6588,
      "ĠApplication": 6589,
      "cout": 6590,
      "ĠIns": 6591,
      "Ġ26": 6592,
      "Ġsyn": 6593,
      "Ġtranslate": 6594,
      "Case": 6595,
      "sample": 6596,
      "Ġannounced": 6597,
      "duled": 6598,
      "Ġbtn": 6599,
      "feedback": 6600,
      "Ġspecifies": 6601,
      "âĪ": 6602,
      "29": 6603,
      "ragment": 6604,
      "Ac": 6605,
      "Ġconfusion": 6606,
      "ĠDuring": 6607,
      "Eng": 6608,
      "Private": 6609,
      "kit": 6610,
      "ĠOutput": 6611,
      "Ġsheet": 6612,
      "ĠÃĹ": 6613,
      "Ġtrouble": 6614,
      "ials": 6615,
      "Ġextends": 6616,
      "Graph": 6617,
      "material": 6618,
      "Ġlistening": 6619,
      "Ġremember": 6620,
      "Ð´": 6621,
      "Ġstretch": 6622,
      "xx": 6623,
      "Ġtrial": 6624,
      "ĠDr": 6625,
      "Ġ35": 6626,
      "Ġsweet": 6627,
      "atell": 6628,
      "ĠGree": 6629,
      "cial": 6630,
      "ASE": 6631,
      "Ġ2016": 6632,
      "fill": 6633,
      "ĠUITableView": 6634,
      "Ġgrant": 6635,
      "css": 6636,
      "Ġcharts": 6637,
      "Ġexperim": 6638,
      "Ġcomfortable": 6639,
      "Ġsup": 6640,
      "Finally": 6641,
      "Ġfinding": 6642,
      "ĠApple": 6643,
      "rast": 6644,
      "mes": 6645,
      "conf": 6646,
      "Ġearth": 6647,
      "ship": 6648,
      "Ġhappen": 6649,
      "ĠLabel": 6650,
      "service": 6651,
      "ica": 6652,
      "Ġ\"<": 6653,
      "xygen": 6654,
      "Ġbright": 6655,
      "remove": 6656,
      "match": 6657,
      "TextField": 6658,
      "ÑĮ": 6659,
      "Change": 6660,
      "ĠJapanese": 6661,
      "Ġdoll": 6662,
      "Ġmale": 6663,
      "Ġ45": 6664,
      "Order": 6665,
      "Ġalone": 6666,
      "uis": 6667,
      "ĠUK": 6668,
      "=&": 6669,
      "Ġtechnique": 6670,
      "Ġdrugs": 6671,
      "Ġsending": 6672,
      "normal": 6673,
      "ĠPhil": 6674,
      "Ġcomprehensive": 6675,
      "Ġedges": 6676,
      "pip": 6677,
      "energy": 6678,
      "ĠExtract": 6679,
      "Ġclicked": 6680,
      "Ġowner": 6681,
      "tte": 6682,
      "Head": 6683,
      "ĠFrance": 6684,
      "IB": 6685,
      ":@\"": 6686,
      "Ġnavigation": 6687,
      "Ġhasht": 6688,
      "Ġ['": 6689,
      "Ġfilters": 6690,
      "NAME": 6691,
      "Ġchicken": 6692,
      "ĠRussia": 6693,
      ".\\": 6694,
      "Ġ\"\\": 6695,
      "Ġpreviously": 6696,
      "stances": 6697,
      "Ġconn": 6698,
      "Ġdecided": 6699,
      "These": 6700,
      "goti": 6701,
      "Ġprompts": 6702,
      "Ġapproximately": 6703,
      "Ġmeets": 6704,
      "ĠStore": 6705,
      "Ġhistogram": 6706,
      "ĠLeague": 6707,
      "Entity": 6708,
      "Ġchosen": 6709,
      "Ġfamous": 6710,
      "Ġcmp": 6711,
      "Ġexternal": 6712,
      "Ġresource": 6713,
      "loop": 6714,
      "Ġstatistical": 6715,
      "Position": 6716,
      "Ġfuel": 6717,
      "Ġwasn": 6718,
      "ĠCap": 6719,
      "Ġpassing": 6720,
      "'],": 6721,
      "edy": 6722,
      "Ġdoor": 6723,
      "CV": 6724,
      "IGN": 6725,
      "Picker": 6726,
      "inations": 6727,
      "sim": 6728,
      "men": 6729,
      "Ġ70": 6730,
      "ĠColor": 6731,
      "Update": 6732,
      "nOptions": 6733,
      "rating": 6734,
      "names": 6735,
      "oder": 6736,
      "Ġsale": 6737,
      "vered": 6738,
      "Ġfully": 6739,
      "Main": 6740,
      "Ġregions": 6741,
      "ylabel": 6742,
      "Collection": 6743,
      "Ġvit": 6744,
      "uk": 6745,
      "Ġsides": 6746,
      "Ġobj": 6747,
      "Ġfriendly": 6748,
      "Ġ90": 6749,
      "you": 6750,
      "ĠAVG": 6751,
      "esome": 6752,
      "antic": 6753,
      "Ġcars": 6754,
      "ĠWho": 6755,
      "tirement": 6756,
      "Ġschools": 6757,
      "Ġclustering": 6758,
      "Ġrare": 6759,
      "older": 6760,
      "Ġworkers": 6761,
      "Ġguard": 6762,
      "rand": 6763,
      "Ġwearing": 6764,
      "avascript": 6765,
      "Ġportfolio": 6766,
      "Ġdecisions": 6767,
      "Ġbag": 6768,
      "ipal": 6769,
      "Ġneut": 6770,
      "ipher": 6771,
      "rian": 6772,
      "entific": 6773,
      "ĠGET": 6774,
      "adow": 6775,
      "${": 6776,
      "ĠIB": 6777,
      "Ġcanny": 6778,
      "context": 6779,
      "Ġbackup": 6780,
      "Ġdupl": 6781,
      "Char": 6782,
      "Ġclosed": 6783,
      "Ġrecorded": 6784,
      "Ġ()": 6785,
      "erate": 6786,
      "usive": 6787,
      "44": 6788,
      "Ġappearance": 6789,
      "Tool": 6790,
      "Ġrecording": 6791,
      "TE": 6792,
      "AV": 6793,
      "Don": 6794,
      "adding": 6795,
      "Ġprocedures": 6796,
      "Ġspot": 6797,
      "ij": 6798,
      "ĠGive": 6799,
      "ĠEventArgs": 6800,
      "Ġhob": 6801,
      "display": 6802,
      "AG": 6803,
      "pha": 6804,
      "igen": 6805,
      "ĠMany": 6806,
      "Ġplugin": 6807,
      "Ġcheese": 6808,
      "Ġtelevision": 6809,
      "ture": 6810,
      "roc": 6811,
      "Ġbeach": 6812,
      "Build": 6813,
      "good": 6814,
      "estival": 6815,
      "Ġparticle": 6816,
      "ara": 6817,
      "Windows": 6818,
      "orders": 6819,
      ")^": 6820,
      "Ġcitiz": 6821,
      "36": 6822,
      "Ġfamilies": 6823,
      "Ġheavy": 6824,
      "GB": 6825,
      "tag": 6826,
      "Ġbeautiful": 6827,
      "Ġcentral": 6828,
      "Method": 6829,
      "Ġtxt": 6830,
      "Ġsalt": 6831,
      "Up": 6832,
      "Ġtags": 6833,
      "Ġacceler": 6834,
      "Ġfluid": 6835,
      "Ġ2000": 6836,
      "xlabel": 6837,
      "ĠYouT": 6838,
      "Ġsea": 6839,
      "dbname": 6840,
      "Server": 6841,
      "Pass": 6842,
      "ĠPolice": 6843,
      "Ġinteraction": 6844,
      "Ġheaders": 6845,
      "Ġprotocol": 6846,
      "idge": 6847,
      "Ġmilk": 6848,
      "Ġworksh": 6849,
      "Ġassume": 6850,
      "Ġje": 6851,
      "isture": 6852,
      "Ġattacks": 6853,
      "store": 6854,
      "abs": 6855,
      "mitted": 6856,
      "Ġpositions": 6857,
      "Ġreached": 6858,
      "Ġaccessible": 6859,
      "uting": 6860,
      "Ġupon": 6861,
      "ĠTim": 6862,
      "yy": 6863,
      "activity": 6864,
      "Ġalt": 6865,
      "Ġagg": 6866,
      "ĠLine": 6867,
      "urse": 6868,
      "osystem": 6869,
      "Ġgrayscale": 6870,
      "Ġdishes": 6871,
      "arg": 6872,
      "rep": 6873,
      "orida": 6874,
      "enty": 6875,
      "Ġcsv": 6876,
      "azon": 6877,
      "len": 6878,
      "ologies": 6879,
      "Ġruns": 6880,
      "Ġrap": 6881,
      "ongo": 6882,
      "Ġstoryboard": 6883,
      "Vari": 6884,
      "Ġsender": 6885,
      "ĠCenter": 6886,
      "sure": 6887,
      "Ġformation": 6888,
      "Ġdestination": 6889,
      "Num": 6890,
      "look": 6891,
      "rase": 6892,
      "fall": 6893,
      "ĠProperty": 6894,
      "inton": 6895,
      "quantity": 6896,
      "04": 6897,
      "ounter": 6898,
      "Ġ~": 6899,
      "Ġpets": 6900,
      "Back": 6901,
      "framework": 6902,
      "Ġrestrictions": 6903,
      "Ġhous": 6904,
      "Ġappend": 6905,
      "ĠMor": 6906,
      "Feedback": 6907,
      "Search": 6908,
      "DK": 6909,
      "iles": 6910,
      "food": 6911,
      "sect": 6912,
      "ingle": 6913,
      "Ġexchange": 6914,
      "ĠInsert": 6915,
      "Ġsends": 6916,
      "Ġcontinued": 6917,
      "ĠAtt": 6918,
      "Ġresistance": 6919,
      "Comp": 6920,
      "ORDER": 6921,
      "Ġven": 6922,
      "rape": 6923,
      "ĠCent": 6924,
      "Ġ2011": 6925,
      "Ġnorm": 6926,
      "ĠWork": 6927,
      "dplyr": 6928,
      "Ġfilms": 6929,
      "tool": 6930,
      "Ġil": 6931,
      "Ġensuring": 6932,
      "Then": 6933,
      "Ġmac": 6934,
      "plements": 6935,
      "auth": 6936,
      "Ġsitting": 6937,
      "Ġmotiv": 6938,
      "Ġstarts": 6939,
      "blockquote": 6940,
      "Ġediting": 6941,
      "Token": 6942,
      "Ġmood": 6943,
      "Where": 6944,
      "****": 6945,
      "ĠArrayList": 6946,
      "Ġepis": 6947,
      "Ġsolar": 6948,
      "Ġgenerating": 6949,
      "ĠBrown": 6950,
      "inct": 6951,
      "Ġpeace": 6952,
      "Ġremind": 6953,
      "Ġsites": 6954,
      "frac": 6955,
      "imgur": 6956,
      "cv": 6957,
      "Ġprison": 6958,
      "Ġbutter": 6959,
      "swift": 6960,
      "ĠApply": 6961,
      "VALUES": 6962,
      "ĠExplain": 6963,
      "Ġamb": 6964,
      "Edit": 6965,
      "Ġdele": 6966,
      "undle": 6967,
      "Ġstuff": 6968,
      "Ġbillion": 6969,
      "ĠMore": 6970,
      "vin": 6971,
      "$$": 6972,
      "Ġperformed": 6973,
      "Phone": 6974,
      "rs": 6975,
      "Ġmeters": 6976,
      "ĠMessage": 6977,
      "rum": 6978,
      "ĠInitialize": 6979,
      "!\"": 6980,
      "Ġtemper": 6981,
      "Ġwea": 6982,
      "lands": 6983,
      "Words": 6984,
      "31": 6985,
      "estic": 6986,
      "Ġoutdo": 6987,
      "plete": 6988,
      "ĠTherefore": 6989,
      "Ġhumans": 6990,
      "fetch": 6991,
      "structure": 6992,
      "Ax": 6993,
      "Ġmolecular": 6994,
      "Component": 6995,
      "Ġidentifying": 6996,
      "Ġturned": 6997,
      "root": 6998,
      "Ġfinished": 6999,
      "ĠCourt": 7000,
      "Ġbusinesses": 7001,
      "Sports": 7002,
      "Ġnumerical": 7003,
      "Points": 7004,
      "ĠAP": 7005,
      "apped": 7006,
      "ĠTwo": 7007,
      "Ġjoint": 7008,
      "Ġadvant": 7009,
      "Article": 7010,
      "ĠAD": 7011,
      "ĠTom": 7012,
      "ĠAngeles": 7013,
      "river": 7014,
      "Ġloops": 7015,
      "Ġwebsites": 7016,
      "TH": 7017,
      "Ġstories": 7018,
      "ampions": 7019,
      "ĠSchool": 7020,
      "inf": 7021,
      "Ġacqu": 7022,
      "XX": 7023,
      "Ġlaunch": 7024,
      "Ġassessment": 7025,
      "Ġstandards": 7026,
      "ĠVe": 7027,
      "WER": 7028,
      "Ġfan": 7029,
      "Ġordered": 7030,
      "Ġchannels": 7031,
      "Ġran": 7032,
      "ORE": 7033,
      "hetic": 7034,
      "ercial": 7035,
      "Ġmanner": 7036,
      "ĠBlack": 7037,
      "bruary": 7038,
      "valuate": 7039,
      "IME": 7040,
      "Ġtone": 7041,
      "Ġguitar": 7042,
      "Frequency": 7043,
      "Ġnotifications": 7044,
      "titute": 7045,
      "Body": 7046,
      "Ġsexual": 7047,
      "Child": 7048,
      "ifications": 7049,
      "Ġnovel": 7050,
      "ĠExplorer": 7051,
      "Ġforecast": 7052,
      "Ġecosystem": 7053,
      "Ġphilosoph": 7054,
      "ĠBay": 7055,
      "Delegate": 7056,
      "Ġshopping": 7057,
      "Ġassigned": 7058,
      "lar": 7059,
      "Ġseven": 7060,
      "Ġtrees": 7061,
      "History": 7062,
      "Ġsigns": 7063,
      "Ġwat": 7064,
      "ANS": 7065,
      "related": 7066,
      "Ġmysq": 7067,
      "Ġcop": 7068,
      "Ġ32": 7069,
      "gb": 7070,
      "Ġparties": 7071,
      "Year": 7072,
      "ĠJames": 7073,
      "Ġsnow": 7074,
      "Ġevaluation": 7075,
      "Ġpresentation": 7076,
      "Ge": 7077,
      "ĠSql": 7078,
      ">`": 7079,
      "Ġfinally": 7080,
      "Ġimproving": 7081,
      "FT": 7082,
      "iture": 7083,
      "Ġauthorities": 7084,
      "Ġsom": 7085,
      "Ġbrought": 7086,
      "Ġprocessed": 7087,
      "Ġzero": 7088,
      "erry": 7089,
      "Ġaccident": 7090,
      "Ġlinks": 7091,
      "MM": 7092,
      "Ġnuclear": 7093,
      "ĠMac": 7094,
      "history": 7095,
      "Ġdefinitely": 7096,
      "Ġdemographics": 7097,
      "appl": 7098,
      "ĠAlex": 7099,
      "Ġanc": 7100,
      "Ġcovered": 7101,
      "revenue": 7102,
      "Dec": 7103,
      "Equ": 7104,
      "Ġserved": 7105,
      "Ret": 7106,
      "Ġhate": 7107,
      "lang": 7108,
      "servername": 7109,
      "ĠMa": 7110,
      "Who": 7111,
      "Ġlogo": 7112,
      "Ġlogs": 7113,
      "Ġholding": 7114,
      "ĠSomething": 7115,
      "income": 7116,
      "header": 7117,
      "Ġmysqli": 7118,
      "They": 7119,
      "*.": 7120,
      "Ġgives": 7121,
      "Ġrecovery": 7122,
      "ĠPlot": 7123,
      "oric": 7124,
      "ga": 7125,
      "Temperature": 7126,
      "Ġcommunicate": 7127,
      "Ġ\"/": 7128,
      "Ġadvance": 7129,
      "ĠProperties": 7130,
      "Ġopened": 7131,
      "={": 7132,
      "cules": 7133,
      "ĠBrit": 7134,
      "Ġanalytics": 7135,
      "Ġinvestigation": 7136,
      "JOIN": 7137,
      "Ġpieces": 7138,
      "ĠIsra": 7139,
      "48": 7140,
      "volution": 7141,
      "Ġfmt": 7142,
      "Ġterror": 7143,
      "Ġstanding": 7144,
      "Ġchallenge": 7145,
      "Ġcoverage": 7146,
      "Ġinterviews": 7147,
      "Ġtend": 7148,
      "09": 7149,
      "Ġcertif": 7150,
      "Ġdiagnosis": 7151,
      "Ġaim": 7152,
      "veloper": 7153,
      "atellite": 7154,
      "health": 7155,
      "ĠNode": 7156,
      "Ġhappens": 7157,
      "ĠAmericans": 7158,
      "Ġanxiety": 7159,
      "distance": 7160,
      "Ġscrap": 7161,
      "Ġagency": 7162,
      "ĠJust": 7163,
      "alle": 7164,
      "Ġcriminal": 7165,
      "orney": 7166,
      "Ġpregn": 7167,
      "ĠFranc": 7168,
      "?\\": 7169,
      "Ġsusp": 7170,
      "system": 7171,
      "ĠWhich": 7172,
      "isk": 7173,
      "Ġcris": 7174,
      "Ġcompar": 7175,
      "ĠAR": 7176,
      "Ġclassifier": 7177,
      "Ġpaths": 7178,
      "Ġstyles": 7179,
      "Ġthick": 7180,
      "Ġsurpr": 7181,
      "ĠPaul": 7182,
      "pute": 7183,
      "Ġjobs": 7184,
      "ĠDay": 7185,
      "38": 7186,
      "Ġassets": 7187,
      "Ġsaves": 7188,
      "Media": 7189,
      "Ġathletes": 7190,
      "execute": 7191,
      "Ġgam": 7192,
      "ĠDel": 7193,
      "Ġha": 7194,
      "ĠInternational": 7195,
      "Ġmotor": 7196,
      "andard": 7197,
      "Ġserving": 7198,
      "author": 7199,
      "aud": 7200,
      "Ġcrucial": 7201,
      "anging": 7202,
      "Ġexpand": 7203,
      "Ġanswers": 7204,
      "phas": 7205,
      "Ġoperator": 7206,
      "Ġprotest": 7207,
      "party": 7208,
      "Ġnodes": 7209,
      "olved": 7210,
      "Ġpool": 7211,
      "Ġperforming": 7212,
      "Ġpunctuation": 7213,
      "Ġtro": 7214,
      "dec": 7215,
      "Buff": 7216,
      "Ġthorough": 7217,
      "\",\"": 7218,
      "atal": 7219,
      "Ġapprec": 7220,
      "Ġchain": 7221,
      "haps": 7222,
      "Ġeconomy": 7223,
      "dim": 7224,
      "ĠStep": 7225,
      "Ġdecimal": 7226,
      "atomic": 7227,
      "Ġsociety": 7228,
      "scale": 7229,
      "ĠDNA": 7230,
      "Ġdomain": 7231,
      "Ġspecifically": 7232,
      "join": 7233,
      "Ġanimation": 7234,
      "Ġasset": 7235,
      "Ġquantum": 7236,
      "Ġcrew": 7237,
      "Ġdecor": 7238,
      "ĠTexas": 7239,
      "Ġsevere": 7240,
      "Ġintensity": 7241,
      "Config": 7242,
      "orrow": 7243,
      "ĠSpe": 7244,
      "Ġcompati": 7245,
      "Ġsurgery": 7246,
      "Invalid": 7247,
      "Ġclar": 7248,
      "Ġprepar": 7249,
      "Ġstoring": 7250,
      "edia": 7251,
      "UR": 7252,
      "ona": 7253,
      "Plan": 7254,
      "ii": 7255,
      "ĠMichael": 7256,
      "Ġsurve": 7257,
      "session": 7258,
      "Ġcommunities": 7259,
      "apes": 7260,
      "Ġ`<": 7261,
      "images": 7262,
      "DI": 7263,
      "Ġ2015": 7264,
      "ĠItalian": 7265,
      "Ġsimpl": 7266,
      "asion": 7267,
      "Sign": 7268,
      "job": 7269,
      "'];": 7270,
      "Ġlabor": 7271,
      "Ġweekend": 7272,
      "Ġ300": 7273,
      "Ġsan": 7274,
      "Car": 7275,
      "Top": 7276,
      "Ġpul": 7277,
      "Ġshooting": 7278,
      "fire": 7279,
      "inate": 7280,
      "Ġmanaging": 7281,
      "rush": 7282,
      "Ġlists": 7283,
      "Ġsensitive": 7284,
      "Ġhuge": 7285,
      "Ġnearly": 7286,
      "Ġscheduled": 7287,
      "Not": 7288,
      "ĠPoint": 7289,
      "ĠtableView": 7290,
      "Ġoccurred": 7291,
      "override": 7292,
      "Ġpotentially": 7293,
      "Ġ^": 7294,
      "defined": 7295,
      "mi": 7296,
      "Ġhaven": 7297,
      "Ġagent": 7298,
      "Ġliqu": 7299,
      "Ġcampaigns": 7300,
      "Ġconfir": 7301,
      "chron": 7302,
      "den": 7303,
      "Ġ29": 7304,
      "ĠClinton": 7305,
      "Panel": 7306,
      "ĠFirebase": 7307,
      "26": 7308,
      "terday": 7309,
      "estyle": 7310,
      "Ġexhib": 7311,
      "odies": 7312,
      "Mo": 7313,
      "fortun": 7314,
      "lert": 7315,
      "oma": 7316,
      "Ġtexture": 7317,
      "NSString": 7318,
      "items": 7319,
      "Ġclassification": 7320,
      "Ġscientific": 7321,
      "alt": 7322,
      "Ġqueries": 7323,
      "Ġiterate": 7324,
      "Ġaccommod": 7325,
      "KEY": 7326,
      "Ġintelligence": 7327,
      "ĠVer": 7328,
      "Ġconference": 7329,
      "}\\": 7330,
      "Ġcounts": 7331,
      "Rect": 7332,
      "means": 7333,
      "plates": 7334,
      "null": 7335,
      "Ġrect": 7336,
      "ipitation": 7337,
      "ĠLibrary": 7338,
      "reatment": 7339,
      "rices": 7340,
      "Ġfailure": 7341,
      "etes": 7342,
      "Ġexcl": 7343,
      "Ġtargeted": 7344,
      "49": 7345,
      "ĠCong": 7346,
      "Ġowners": 7347,
      "uated": 7348,
      "Ġfruit": 7349,
      "Ġpizza": 7350,
      "Ġoxygen": 7351,
      "Ġthanks": 7352,
      "false": 7353,
      "Ġcm": 7354,
      "Ġ`'": 7355,
      "abled": 7356,
      "otos": 7357,
      "Ġsharing": 7358,
      "ĠRich": 7359,
      "Ġteams": 7360,
      "Ġgrade": 7361,
      "iverse": 7362,
      "Ġnegoti": 7363,
      "Ġconcise": 7364,
      "Ġestate": 7365,
      "Ġabsolute": 7366,
      "Ġnorth": 7367,
      "raction": 7368,
      "Ġintegrate": 7369,
      "Ġaccurately": 7370,
      "eb": 7371,
      "Ġ__": 7372,
      "ĠFebruary": 7373,
      "Ġ[];": 7374,
      "JSON": 7375,
      "ipping": 7376,
      "Ġcrow": 7377,
      "Ġdetermined": 7378,
      "ĠService": 7379,
      "world": 7380,
      "77": 7381,
      "Ġtokens": 7382,
      "Ġbeat": 7383,
      "ĠLos": 7384,
      "Ġoptimization": 7385,
      "ĠSports": 7386,
      "Ġapplied": 7387,
      "icit": 7388,
      "Ġspons": 7389,
      "ĠWould": 7390,
      "Ġbatter": 7391,
      "Ġdos": 7392,
      "Ġfindings": 7393,
      "Ġattendance": 7394,
      "ĠClose": 7395,
      "Ġscal": 7396,
      "ĠOff": 7397,
      "annel": 7398,
      "CNN": 7399,
      "ĠMet": 7400,
      "more": 7401,
      "ĠRepublican": 7402,
      "Ġeight": 7403,
      "Http": 7404,
      "Ġpil": 7405,
      "olf": 7406,
      ";,": 7407,
      "Ġvolunte": 7408,
      "ocolate": 7409,
      "which": 7410,
      "roke": 7411,
      "Ġbeliefs": 7412,
      "WS": 7413,
      "Ġotherwise": 7414,
      "rivers": 7415,
      "Ġfinish": 7416,
      "Ġoccurs": 7417,
      "Press": 7418,
      "ected": 7419,
      "Ġplt": 7420,
      "Solve": 7421,
      "ectives": 7422,
      "DateTime": 7423,
      "agick": 7424,
      "Ġfabric": 7425,
      "Ġcategor": 7426,
      "ĠBen": 7427,
      "Ġwire": 7428,
      "Ġcapt": 7429,
      "call": 7430,
      "ĠConduct": 7431,
      "asy": 7432,
      "Ġfer": 7433,
      "NNOT": 7434,
      "Ġdisco": 7435,
      "Ġconstruction": 7436,
      "ĠGold": 7437,
      "Ġrevis": 7438,
      "ĠĠĠĠĠĠĠĠĠĠĠĠ": 7439,
      "Ġcommercial": 7440,
      "Ġelectronic": 7441,
      "Ġofficer": 7442,
      "Ġcharges": 7443,
      "ĠInstead": 7444,
      "ĠMal": 7445,
      "Ġconservation": 7446,
      "Ġkick": 7447,
      "Mark": 7448,
      "Ġ2008": 7449,
      "Ġtit": 7450,
      "ĠUnion": 7451,
      "latitude": 7452,
      "Ġhyper": 7453,
      "ANSWER": 7454,
      "Ġcompound": 7455,
      "agon": 7456,
      "Ġbath": 7457,
      "training": 7458,
      "icago": 7459,
      "Ġpowerful": 7460,
      "Ġbacter": 7461,
      "export": 7462,
      "Ġdelay": 7463,
      "Ġahead": 7464,
      "Ġframes": 7465,
      "Ġmatplotlib": 7466,
      "Ġnumpy": 7467,
      "rend": 7468,
      "iost": 7469,
      "tile": 7470,
      "Ġ\",": 7471,
      "ĠPeople": 7472,
      "Ġcin": 7473,
      "ĠÐ²": 7474,
      ".\"\\": 7475,
      "NNOTANSWER": 7476,
      "Ġpitch": 7477,
      "acks": 7478,
      "ĠFollow": 7479,
      "ptive": 7480,
      "Ġboxes": 7481,
      "Ġpixel": 7482,
      "ĠWater": 7483,
      "ĠAssoci": 7484,
      "Ġasync": 7485,
      "Ġoverride": 7486,
      "CC": 7487,
      "Ġcry": 7488,
      "Ġstars": 7489,
      "Ġbool": 7490,
      "utrient": 7491,
      "DidLoad": 7492,
      "Ġexperts": 7493,
      "ano": 7494,
      "fered": 7495,
      "Premise": 7496,
      "Ġappeared": 7497,
      "ĠCG": 7498,
      "07": 7499,
      "Ġurban": 7500,
      "eding": 7501,
      "orest": 7502,
      "Step": 7503,
      "MI": 7504,
      "Reuters": 7505,
      "ĠForms": 7506,
      "Ġspokes": 7507,
      "ĠAfrican": 7508,
      "89": 7509,
      "Ġprepared": 7510,
      "Ġraw": 7511,
      "ĠDown": 7512,
      ")</": 7513,
      "unk": 7514,
      "Ġmaintaining": 7515,
      "Food": 7516,
      "Ġsin": 7517,
      "atistics": 7518,
      "ictures": 7519,
      "AN": 7520,
      "Ġstakeholders": 7521,
      "ĠAccording": 7522,
      "span": 7523,
      "pact": 7524,
      "Calculate": 7525,
      "Ġoptimized": 7526,
      "Ġproceed": 7527,
      "udo": 7528,
      "dt": 7529,
      "Ġcomposition": 7530,
      "gent": 7531,
      "ĠUN": 7532,
      "Ġdebt": 7533,
      "Ġgrowing": 7534,
      "Adapter": 7535,
      "Ġyards": 7536,
      "Ġveter": 7537,
      "Ġlooked": 7538,
      "conomic": 7539,
      "ĠReact": 7540,
      "Ġpaint": 7541,
      "ĠSecurity": 7542,
      "Ġwarnings": 7543,
      "Hello": 7544,
      "Ġstick": 7545,
      "allow": 7546,
      "Ġcontribute": 7547,
      "lymp": 7548,
      "aked": 7549,
      "acle": 7550,
      "Ġcoefficients": 7551,
      "Ġgeneration": 7552,
      "123": 7553,
      "Ġfelt": 7554,
      "peat": 7555,
      "Ġmedian": 7556,
      "rel": 7557,
      "Ġcompliance": 7558,
      "Ġflat": 7559,
      "Audio": 7560,
      "Ġplaced": 7561,
      "Ġdinner": 7562,
      "Ind": 7563,
      "Ġselling": 7564,
      "Ġsatisfaction": 7565,
      "stop": 7566,
      "Ġtells": 7567,
      "Ġleaves": 7568,
      "!/": 7569,
      "custom": 7570,
      "yond": 7571,
      "esh": 7572,
      "heat": 7573,
      "auty": 7574,
      "ĠDec": 7575,
      "ĠĠĠĠĠĠĠĠĠĠĠĠĠĠĠĠĠĠĠĠĠĠĠĠĠĠĠ": 7576,
      "ĠLoop": 7577,
      "Tech": 7578,
      "Ġkitchen": 7579,
      "YPE": 7580,
      "Ġthank": 7581,
      "ĠPack": 7582,
      "Ġemissions": 7583,
      "Ġesi": 7584,
      "Ġconflict": 7585,
      "ool": 7586,
      "Ġcities": 7587,
      "Ġfrequently": 7588,
      "Ġinjuries": 7589,
      "Ġtherm": 7590,
      "Ġseek": 7591,
      "berg": 7592,
      "Ġevening": 7593,
      "Ġmovements": 7594,
      "ĠNet": 7595,
      "Ġcoast": 7596,
      "Float": 7597,
      "Student": 7598,
      "omen": 7599,
      "====": 7600,
      "Access": 7601,
      "Ġhardware": 7602,
      "Ġestablished": 7603,
      "Ġmaps": 7604,
      "ĠConnect": 7605,
      "tee": 7606,
      "Ġnutritional": 7607,
      "Material": 7608,
      "Ġleaving": 7609,
      "Each": 7610,
      "ĠBel": 7611,
      "Ġloads": 7612,
      "Ġbasket": 7613,
      "Ġconsequ": 7614,
      "cil": 7615,
      "ĠIslam": 7616,
      "amm": 7617,
      "Ġdad": 7618,
      "Ġimproved": 7619,
      "Ġvalidate": 7620,
      "Ġbeyond": 7621,
      "child": 7622,
      "Ġseg": 7623,
      "ĠThanks": 7624,
      "ĠNumber": 7625,
      "Ġnoreferrer": 7626,
      "ightly": 7627,
      "++;": 7628,
      "Provider": 7629,
      "high": 7630,
      "Ġreb": 7631,
      "Ġreligious": 7632,
      "ĠServer": 7633,
      "sey": 7634,
      "ĠAustralia": 7635,
      "Ġcalories": 7636,
      "Ġmolecules": 7637,
      "scores": 7638,
      "Ġcharged": 7639,
      "consum": 7640,
      "idance": 7641,
      "ecause": 7642,
      "Â²": 7643,
      "Ġmetric": 7644,
      "Ġwrites": 7645,
      "TT": 7646,
      "ĠFlorida": 7647,
      "Parameters": 7648,
      "Ġoffered": 7649,
      "Ġcontrast": 7650,
      "Ġthoughts": 7651,
      "voice": 7652,
      "Ñĩ": 7653,
      "isease": 7654,
      "Ġdream": 7655,
      "counts": 7656,
      "ĠRetrieve": 7657,
      "Ġproposed": 7658,
      "bi": 7659,
      "Ġsouth": 7660,
      "Ġattende": 7661,
      "\\\"": 7662,
      "zy": 7663,
      "Ġju": 7664,
      "iostream": 7665,
      "Ġhelped": 7666,
      "Ġsport": 7667,
      "Ġbenefit": 7668,
      "alette": 7669,
      "sin": 7670,
      "%=": 7671,
      "Ġraised": 7672,
      "Ġvict": 7673,
      "rical": 7674,
      "Ġoutcomes": 7675,
      "Ġadvanced": 7676,
      "points": 7677,
      "Ġsalary": 7678,
      "Ġrac": 7679,
      "Ġaxis": 7680,
      "ĠGod": 7681,
      "records": 7682,
      "Ġpasseng": 7683,
      "./": 7684,
      "She": 7685,
      "ĠfilePath": 7686,
      "Factory": 7687,
      "Ġcharacteristics": 7688,
      "Ġtransl": 7689,
      "Ġopportunity": 7690,
      "outhern": 7691,
      "#!/": 7692,
      "Ġconclusion": 7693,
      "Ġvendor": 7694,
      "Ġtranslated": 7695,
      "Ġsupply": 7696,
      "(:,": 7697,
      "Ġengage": 7698,
      "ĠRails": 7699,
      "Ġimmune": 7700,
      "ician": 7701,
      "ordinate": 7702,
      "08": 7703,
      "Ġ\\(": 7704,
      "Produ": 7705,
      "uality": 7706,
      "ĠCup": 7707,
      "Ġroles": 7708,
      "cour": 7709,
      "ĠBuild": 7710,
      "Ġsauce": 7711,
      "Ġfans": 7712,
      "Ġthemes": 7713,
      "iliar": 7714,
      "Ġidentity": 7715,
      "Ġenth": 7716,
      "Ġeventually": 7717,
      "Ġcart": 7718,
      "udes": 7719,
      "Ġintegration": 7720,
      "Submit": 7721,
      "Ġchecked": 7722,
      "iner": 7723,
      "Ġdance": 7724,
      "amily": 7725,
      "Ġlose": 7726,
      "azing": 7727,
      "font": 7728,
      "Ġabsor": 7729,
      "ronic": 7730,
      "va": 7731,
      "Ġgeom": 7732,
      "onym": 7733,
      "Ġnom": 7734,
      "USE": 7735,
      "Ġ```": 7736,
      "ĠMad": 7737,
      "Ġign": 7738,
      "ded": 7739,
      "Ġ((": 7740,
      "ĠLou": 7741,
      "Ġflavor": 7742,
      "Ġmusical": 7743,
      "Ġtextbox": 7744,
      "Ġfixed": 7745,
      "stood": 7746,
      "writ": 7747,
      "Ġupper": 7748,
      "ernel": 7749,
      "menu": 7750,
      "inant": 7751,
      "Ġsuspect": 7752,
      "Ġbot": 7753,
      "ĠTra": 7754,
      "average": 7755,
      "itize": 7756,
      "ltimately": 7757,
      "Ġtu": 7758,
      "Ġadministration": 7759,
      "Ġfilled": 7760,
      "gricult": 7761,
      "Ġdram": 7762,
      "ĠLaw": 7763,
      "eled": 7764,
      "Project": 7765,
      "Ġyesterday": 7766,
      "Ġpainting": 7767,
      "DataSource": 7768,
      "Ġorganic": 7769,
      "Ġopinions": 7770,
      ">\"": 7771,
      "stract": 7772,
      "Base": 7773,
      "Ġdiseases": 7774,
      "selected": 7775,
      "ĠSend": 7776,
      "Vol": 7777,
      "ĠStreet": 7778,
      "Ġprivacy": 7779,
      "Ġupcoming": 7780,
      "Ġguests": 7781,
      "Ġtaste": 7782,
      "Ġsolid": 7783,
      ".\")": 7784,
      "ĠTimes": 7785,
      ")]": 7786,
      "ĠEmail": 7787,
      "Ġatmosphere": 7788,
      "Weight": 7789,
      "Ġdifficulty": 7790,
      "68": 7791,
      "Category": 7792,
      "Ġupdating": 7793,
      "Ġreduced": 7794,
      "attr": 7795,
      "gener": 7796,
      "Ġpotato": 7797,
      "porary": 7798,
      "ĠWell": 7799,
      "drop": 7800,
      "Ġthous": 7801,
      "ÐµÐ½": 7802,
      "ĠPerform": 7803,
      "ĠST": 7804,
      "ĠNavig": 7805,
      "oa": 7806,
      "Ġrivers": 7807,
      "Ġmanaged": 7808,
      "Ġgarden": 7809,
      "Ġacade": 7810,
      "module": 7811,
      "sth": 7812,
      "oubles": 7813,
      "week": 7814,
      "ĠRober": 7815,
      "Ġcorner": 7816,
      "Ġ_,": 7817,
      "ĠTO": 7818,
      "Ġbx": 7819,
      "Ġprotection": 7820,
      "ĠIP": 7821,
      "ĠJohnson": 7822,
      "rains": 7823,
      "Ġamounts": 7824,
      "Details": 7825,
      "ĠTD": 7826,
      "Ġsigned": 7827,
      "Ġtemperatures": 7828,
      "orthern": 7829,
      "Ġextracts": 7830,
      "Process": 7831,
      "Ġteen": 7832,
      "Ġcompetition": 7833,
      "Ġconven": 7834,
      "Once": 7835,
      "poses": 7836,
      "ĠSV": 7837,
      "shape": 7838,
      "piration": 7839,
      "foot": 7840,
      "ĠAnalyze": 7841,
      "'`": 7842,
      "ĠĠĠĠĠĠĠĠĠĠĠĠĠĠĠĠĠ": 7843,
      "Ġscenario": 7844,
      "Ġtun": 7845,
      "Ġspeaking": 7846,
      "Ġgirls": 7847,
      "Ġnone": 7848,
      "Ġpricing": 7849,
      "Ġwaiting": 7850,
      "Gu": 7851,
      "ognitive": 7852,
      "Max": 7853,
      "Ġrental": 7854,
      "Ġaccompl": 7855,
      "lets": 7856,
      "Ġhousehold": 7857,
      "mysql": 7858,
      "ĠMost": 7859,
      "Given": 7860,
      "burg": 7861,
      "efficient": 7862,
      "Ġappointments": 7863,
      "Cap": 7864,
      "default": 7865,
      "Ġviolence": 7866,
      "Ġtutor": 7867,
      "anford": 7868,
      "ĠBill": 7869,
      "Ġcarefully": 7870,
      "ĠGeorge": 7871,
      "abil": 7872,
      "Ġguidance": 7873,
      "ĠFrancis": 7874,
      "idates": 7875,
      "Ġquot": 7876,
      "Ġcompute": 7877,
      "Ġhearing": 7878,
      "ometric": 7879,
      "Ġdev": 7880,
      "ĠGreen": 7881,
      "Ġencryption": 7882,
      "ĠSocial": 7883,
      "Ġprinci": 7884,
      "Ġexplore": 7885,
      "users": 7886,
      "Ġindicates": 7887,
      "prec": 7888,
      "Since": 7889,
      "thlete": 7890,
      "Ġmul": 7891,
      "connection": 7892,
      "Ġhumidity": 7893,
      "ourses": 7894,
      "ograp": 7895,
      "Ġlogical": 7896,
      "Ġbelong": 7897,
      "Ġeggs": 7898,
      "pattern": 7899,
      "Ġinstances": 7900,
      "Ġdetail": 7901,
      "Ġconstraints": 7902,
      "Ġformed": 7903,
      "ĠRO": 7904,
      "Ġaren": 7905,
      "Ġoffset": 7906,
      "specific": 7907,
      "Current": 7908,
      "Tree": 7909,
      "Ġokay": 7910,
      "ĠCustom": 7911,
      "Ġads": 7912,
      "Ġinher": 7913,
      "Thanks": 7914,
      "ĠOR": 7915,
      "Ġloading": 7916,
      "expected": 7917,
      "ĠGermany": 7918,
      "fmt": 7919,
      "Ġdisplaying": 7920,
      "AMP": 7921,
      "ĠPublic": 7922,
      "Ġplastic": 7923,
      "ĠInternet": 7924,
      "window": 7925,
      "ĠRight": 7926,
      "Ġretrieved": 7927,
      "Ġpersonnel": 7928,
      "Ġongoing": 7929,
      "Ġrh": 7930,
      "Ġnotice": 7931,
      "Ġclicks": 7932,
      "record": 7933,
      "patients": 7934,
      "Ġknew": 7935,
      "Us": 7936,
      "ups": 7937,
      "Ġsegmentations": 7938,
      "fortunately": 7939,
      "otel": 7940,
      "ĠCommun": 7941,
      ")`": 7942,
      "ĠReport": 7943,
      "Ġmostly": 7944,
      "Ġretirement": 7945,
      "Ġmurder": 7946,
      "DP": 7947,
      "protein": 7948,
      "Ġteach": 7949,
      "Ġleads": 7950,
      "ersion": 7951,
      "ĠHandles": 7952,
      "Ġkept": 7953,
      "scatter": 7954,
      "Sec": 7955,
      "kin": 7956,
      "Ġdangerous": 7957,
      "Dep": 7958,
      "rot": 7959,
      "Ġemphas": 7960,
      "ĠReview": 7961,
      "Ã³": 7962,
      "ltk": 7963,
      "Ġmolecule": 7964,
      "riage": 7965,
      "ĠTake": 7966,
      "Ġassembly": 7967,
      "cribed": 7968,
      "ĠXML": 7969,
      "Ġsod": 7970,
      "Ġdraft": 7971,
      "region": 7972,
      "\"/": 7973,
      "tify": 7974,
      "True": 7975,
      "Recogn": 7976,
      "undred": 7977,
      "pay": 7978,
      "Your": 7979,
      "ulner": 7980,
      "kins": 7981,
      "ville": 7982,
      "Ġ31": 7983,
      "ĠIDE": 7984,
      "reated": 7985,
      "Ġintended": 7986,
      "ĠCustomer": 7987,
      "chnology": 7988,
      "Ġdoc": 7989,
      "ĠAbout": 7990,
      "Ġraise": 7991,
      "endl": 7992,
      "Call": 7993,
      "Rad": 7994,
      "nce": 7995,
      "Ġexpensive": 7996,
      "Thank": 7997,
      "ĠSearch": 7998,
      "ĠAct": 7999,
      "Widget": 8000,
      "Ġfaster": 8001,
      "Ġdeliver": 8002,
      "Ġtall": 8003,
      "Ġce": 8004,
      "ĠResult": 8005,
      "Ġguy": 8006,
      "handle": 8007,
      "Ġrob": 8008,
      "ĠÑģ": 8009,
      "Ġexcess": 8010,
      "Ġacting": 8011,
      "Ġdesk": 8012,
      "ĠII": 8013,
      "ĠOlymp": 8014,
      "Ġended": 8015,
      "ĠMiss": 8016,
      "Ġchief": 8017,
      "havior": 8018,
      "Sl": 8019,
      "Ġkne": 8020,
      "Ġkeeping": 8021,
      "Ġsubmitted": 8022,
      "HTML": 8023,
      "reens": 8024,
      "Ġappreci": 8025,
      "ested": 8026,
      "Ġcalculation": 8027,
      "Ġindependent": 8028,
      "Ġsister": 8029,
      "Ġbelieved": 8030,
      "survey": 8031,
      "Ġ'$": 8032,
      "squ": 8033,
      "Ġstudying": 8034,
      "Window": 8035,
      "ĠPNG": 8036,
      "ĠCanada": 8037,
      "ĠExpress": 8038,
      "ĠKeep": 8039,
      "Ġseeing": 8040,
      "Ġpros": 8041,
      "Ġrid": 8042,
      "Ingred": 8043,
      "interface": 8044,
      "!\";": 8045,
      "akers": 8046,
      "stmt": 8047,
      "Ġuniverse": 8048,
      "ĠLin": 8049,
      "Ġalleged": 8050,
      "params": 8051,
      ")/": 8052,
      "Ġbusy": 8053,
      "Ġcreative": 8054,
      "Ġaddresses": 8055,
      "Ġscientists": 8056,
      "Ġlots": 8057,
      "icates": 8058,
      "Ġtransition": 8059,
      "plan": 8060,
      "zip": 8061,
      "arc": 8062,
      "Instance": 8063,
      "ĠGood": 8064,
      "inance": 8065,
      "ĠHill": 8066,
      "Ġnearby": 8067,
      "Ġeast": 8068,
      "zen": 8069,
      "ÄŁ": 8070,
      "ribble": 8071,
      "Ġrepresentation": 8072,
      "Ġpurposes": 8073,
      "Ġentities": 8074,
      "Ġfear": 8075,
      "ĠFood": 8076,
      "Ġsyntax": 8077,
      "umes": 8078,
      "Ġscan": 8079,
      "ĠSplit": 8080,
      "Ġpropor": 8081,
      "Function": 8082,
      "orship": 8083,
      "Ġattr": 8084,
      "lers": 8085,
      "ESC": 8086,
      "Layer": 8087,
      "ĠLat": 8088,
      "eah": 8089,
      "sche": 8090,
      "Ġredirect": 8091,
      "Ġopinion": 8092,
      "Ġdiversity": 8093,
      "Ġresolve": 8094,
      "ĠSoft": 8095,
      "Ġcreation": 8096,
      "Ġcombined": 8097,
      "flu": 8098,
      "ailable": 8099,
      "Percentage": 8100,
      "Well": 8101,
      "bert": 8102,
      "ĠIS": 8103,
      "Summarize": 8104,
      "<?": 8105,
      "ĠMart": 8106,
      "EW": 8107,
      "avg": 8108,
      "Axis": 8109,
      "Ġannual": 8110,
      "Ġok": 8111,
      "Ġethnic": 8112,
      "Ġsaving": 8113,
      "Ġsignificantly": 8114,
      "ĠShow": 8115,
      "','": 8116,
      "Ġpoly": 8117,
      "Ġmort": 8118,
      "Ġsavings": 8119,
      "bohyd": 8120,
      "lling": 8121,
      "Player": 8122,
      "[$": 8123,
      "Ġaes": 8124,
      "Ġfly": 8125,
      "Ġsizes": 8126,
      "Ġlifestyle": 8127,
      "env": 8128,
      "Ġcentre": 8129,
      "Ġaid": 8130,
      "ĠRob": 8131,
      "ĠÃ®": 8132,
      "Ġocean": 8133,
      "Ġexposure": 8134,
      "Ġticket": 8135,
      "AM": 8136,
      "Ġrank": 8137,
      "Ġmach": 8138,
      "ĠControl": 8139,
      "IC": 8140,
      "Ġidentifier": 8141,
      "born": 8142,
      "Ġcouldn": 8143,
      "Ġwarning": 8144,
      "gem": 8145,
      "lope": 8146,
      "Ġrough": 8147,
      "Implement": 8148,
      "clip": 8149,
      "Ġproteins": 8150,
      "Ġ2009": 8151,
      "Ġadvertising": 8152,
      "Ġ`@": 8153,
      "Ġfeelings": 8154,
      "ya": 8155,
      "69": 8156,
      "ATAB": 8157,
      "ĠCANNOTANSWER": 8158,
      "Ġspir": 8159,
      "){": 8160,
      "ĠTextBox": 8161,
      "Ġchair": 8162,
      "weather": 8163,
      "ĠeatType": 8164,
      "Ġadvis": 8165,
      "icine": 8166,
      "frequency": 8167,
      "Math": 8168,
      "Ġshares": 8169,
      "final": 8170,
      "Ġinstrument": 8171,
      "Ġwinter": 8172,
      "FA": 8173,
      "Ġcaught": 8174,
      "Ġhole": 8175,
      "ĠLocation": 8176,
      "wide": 8177,
      "ĠTrue": 8178,
      "ooper": 8179,
      "Ġbooking": 8180,
      "Ġfocused": 8181,
      "Ġincorporating": 8182,
      "Ġregul": 8183,
      "Ġhun": 8184,
      "hered": 8185,
      "ĠWH": 8186,
      "Ġmedium": 8187,
      "Ġcycle": 8188,
      "ango": 8189,
      "ander": 8190,
      "Ġshots": 8191,
      "Ġprediction": 8192,
      "tise": 8193,
      "oses": 8194,
      "Ġheatmap": 8195,
      "ĠLocal": 8196,
      "ATABASE": 8197,
      "Ġattract": 8198,
      "ĠParis": 8199,
      "Find": 8200,
      "has": 8201,
      "agers": 8202,
      "Ġentertain": 8203,
      "controller": 8204,
      "Vector": 8205,
      "Ġroutes": 8206,
      "Ġestimate": 8207,
      "Ġwed": 8208,
      "Ġshel": 8209,
      "rich": 8210,
      "Ġinformed": 8211,
      "ĠPrompt": 8212,
      "Ġengineering": 8213,
      "atial": 8214,
      "hemat": 8215,
      "win": 8216,
      "van": 8217,
      "Ġemails": 8218,
      "Ġhidden": 8219,
      "ĠCD": 8220,
      "Ġdatasets": 8221,
      "Ġmessaging": 8222,
      "Ġscribble": 8223,
      "ĠOh": 8224,
      "but": 8225,
      "ĠTem": 8226,
      "Ġbattle": 8227,
      "ĠSam": 8228,
      "Ġchocolate": 8229,
      "temp": 8230,
      "ÑĢÐ°": 8231,
      "Ġrepresented": 8232,
      "Ġrom": 8233,
      "Ġclothes": 8234,
      "Sy": 8235,
      "Ġgenes": 8236,
      "FL": 8237,
      "Ġreminder": 8238,
      "Selected": 8239,
      "rases": 8240,
      "then": 8241,
      "Ġiterates": 8242,
      "Template": 8243,
      "ressive": 8244,
      "Ġequations": 8245,
      "ady": 8246,
      "Ġrich": 8247,
      "Ã§": 8248,
      "Override": 8249,
      "Ab": 8250,
      "CL": 8251,
      "nonatomic": 8252,
      "Ġmouth": 8253,
      "Ġstability": 8254,
      "ĠNa": 8255,
      "Ġbytes": 8256,
      "ĠRef": 8257,
      "Ġposted": 8258,
      "Ġchem": 8259,
      "Ġcas": 8260,
      "Ġcodes": 8261,
      "titude": 8262,
      "Ġexpressions": 8263,
      "Ġtwice": 8264,
      "Ġbecomes": 8265,
      "Ġminor": 8266,
      "Ġvegan": 8267,
      "react": 8268,
      "Ġ{'": 8269,
      "Ġcurve": 8270,
      "tegr": 8271,
      "Ġofficers": 8272,
      "54": 8273,
      "Ġpermissions": 8274,
      "analy": 8275,
      "oul": 8276,
      "Ġsimulate": 8277,
      "Custom": 8278,
      "bug": 8279,
      "Ġtonight": 8280,
      "VER": 8281,
      "Ġtaxes": 8282,
      "ĠAfrica": 8283,
      "faces": 8284,
      "Ġreprodu": 8285,
      "Ġtreated": 8286,
      "Notification": 8287,
      "home": 8288,
      "financial": 8289,
      "Ġresearchers": 8290,
      "Ġvirus": 8291,
      "ita": 8292,
      "ĠBritain": 8293,
      "Ġride": 8294,
      ">\";": 8295,
      "ypes": 8296,
      "ĠMil": 8297,
      "Ġbowl": 8298,
      "Ġfaces": 8299,
      "Ġgone": 8300,
      "uling": 8301,
      "ĠPlay": 8302,
      "Ġvill": 8303,
      "udents": 8304,
      "ansion": 8305,
      "ĠConf": 8306,
      "necessary": 8307,
      "FilePath": 8308,
      "Lat": 8309,
      "Ġdepart": 8310,
      "Ġadjusted": 8311,
      "ptim": 8312,
      "yan": 8313,
      "ĠAmazon": 8314,
      "sa": 8315,
      "Ġfunding": 8316,
      "Ġjudge": 8317,
      "Ġconfidence": 8318,
      "Ġrecommendation": 8319,
      "Ġfunds": 8320,
      "Ġforced": 8321,
      "Outlet": 8322,
      "begin": 8323,
      "Ġcustomized": 8324,
      "Ġdefe": 8325,
      "Ġaf": 8326,
      "ola": 8327,
      "Ġsalad": 8328,
      "Ġencrypted": 8329,
      "template": 8330,
      "ursor": 8331,
      "59": 8332,
      "70": 8333,
      "ĠRom": 8334,
      "sudo": 8335,
      "Ġsat": 8336,
      "usage": 8337,
      "story": 8338,
      "ĠCO": 8339,
      "Ġlaun": 8340,
      "alty": 8341,
      "Ġ@\"": 8342,
      "Ġatoms": 8343,
      "pling": 8344,
      "Ġ2017": 8345,
      "ĠLong": 8346,
      "ading": 8347,
      "Results": 8348,
      "application": 8349,
      "Entry": 8350,
      "Ġcompetit": 8351,
      "Ġpayments": 8352,
      "ĠEND": 8353,
      "hape": 8354,
      "cellent": 8355,
      "Job": 8356,
      "Ġsql": 8357,
      "Ġrepository": 8358,
      "Ġagreed": 8359,
      "Ġ/>": 8360,
      "Ġzone": 8361,
      "Visual": 8362,
      "ĠDi": 8363,
      "Ġdebate": 8364,
      "Friend": 8365,
      "building": 8366,
      "Define": 8367,
      "Ġoffering": 8368,
      "World": 8369,
      "models": 8370,
      "Ġlawyer": 8371,
      "ĠMinister": 8372,
      "Ġ2007": 8373,
      "Ġnative": 8374,
      "Ġfunctional": 8375,
      "Ġencoding": 8376,
      ">(": 8377,
      "Ġdespite": 8378,
      "Ġwidely": 8379,
      "grid": 8380,
      "Ġrenew": 8381,
      "Ġinvoice": 8382,
      "Ġaircraft": 8383,
      "Ġapproval": 8384,
      "ĠHam": 8385,
      "tt": 8386,
      "charge": 8387,
      "Mutable": 8388,
      "Ġanalyzed": 8389,
      "Ġargs": 8390,
      "uable": 8391,
      "Ġpopulations": 8392,
      "Ġsegmentation": 8393,
      "Ca": 8394,
      "Ġbasis": 8395,
      "Ġhelping": 8396,
      "ums": 8397,
      "Dist": 8398,
      "Ġdisorder": 8399,
      "Ġpairs": 8400,
      "Ġconducted": 8401,
      "Ġrise": 8402,
      "Ġbiggest": 8403,
      "Ġwilling": 8404,
      "anta": 8405,
      "Ġbreathing": 8406,
      "Ġshowed": 8407,
      "Ġseverity": 8408,
      "Ġcrisis": 8409,
      "Ġaward": 8410,
      "itt": 8411,
      "Properties": 8412,
      "ĠError": 8413,
      "Ġluck": 8414,
      "Ġcards": 8415,
      "Ġemotions": 8416,
      "ĠMessageBox": 8417,
      "Sample": 8418,
      "\":\"": 8419,
      "Ġmeasurements": 8420,
      "Ġspl": 8421,
      "Ġyellow": 8422,
      "TextBox": 8423,
      "Ġ400": 8424,
      "Ġarrange": 8425,
      "asks": 8426,
      "Ġfig": 8427,
      "Ġreferences": 8428,
      "Ġfif": 8429,
      "media": 8430,
      "Ġbroken": 8431,
      "disp": 8432,
      "oundation": 8433,
      "ĠSuper": 8434,
      "Pop": 8435,
      "Ġclearly": 8436,
      "Ġdistrict": 8437,
      "war": 8438,
      "Ġinstitution": 8439,
      "Alert": 8440,
      "ĠBre": 8441,
      "Controls": 8442,
      "see": 8443,
      "Ġpromoting": 8444,
      "ĠWord": 8445,
      "till": 8446,
      "Ġcore": 8447,
      "Ġreput": 8448,
      "Distance": 8449,
      "Ġswe": 8450,
      "Ġquote": 8451,
      "Ġprime": 8452,
      "Ġafford": 8453,
      "Ġachieved": 8454,
      "Ġchatbot": 8455,
      "Ġsupported": 8456,
      "asted": 8457,
      "Thread": 8458,
      "uracy": 8459,
      "Ġremoves": 8460,
      "Ġmal": 8461,
      "Ġadop": 8462,
      "Ġprinted": 8463,
      "ĠOpenCV": 8464,
      "UB": 8465,
      "WE": 8466,
      "rible": 8467,
      "ĠDan": 8468,
      "ora": 8469,
      "Ġ150": 8470,
      "Down": 8471,
      "Ġcorpor": 8472,
      "loc": 8473,
      "FILE": 8474,
      "Ġwitness": 8475,
      "ĠJew": 8476,
      "Ġ*/": 8477,
      "mol": 8478,
      "night": 8479,
      "(@": 8480,
      "Sw": 8481,
      "Ġ'/": 8482,
      "=\"@": 8483,
      "Ġsatellite": 8484,
      "Off": 8485,
      "Ġsituations": 8486,
      "Ġartwork": 8487,
      "Ġsomew": 8488,
      "Ġrice": 8489,
      "Ġarchitecture": 8490,
      "Ġsad": 8491,
      "ĠStream": 8492,
      "Train": 8493,
      "Ġpermission": 8494,
      "control": 8495,
      "ĠParty": 8496,
      "Ġ{\"": 8497,
      "bow": 8498,
      "Ġpixels": 8499,
      "Ġdecide": 8500,
      "Ġlegend": 8501,
      "uit": 8502,
      "Ġreject": 8503,
      "Ġment": 8504,
      "Ġcomplain": 8505,
      "Ġpictures": 8506,
      "ki": 8507,
      "Ġcoach": 8508,
      "Ġreporting": 8509,
      "gas": 8510,
      "lis": 8511,
      "ena": 8512,
      "Ġbread": 8513,
      "Ġactors": 8514,
      "hour": 8515,
      "ancer": 8516,
      "bies": 8517,
      "Ð¾Ð²": 8518,
      "flutter": 8519,
      "Income": 8520,
      "hoot": 8521,
      "duc": 8522,
      "center": 8523,
      "Ġvulner": 8524,
      "Ġ2004": 8525,
      "Ġpresidential": 8526,
      "Ġethical": 8527,
      "paper": 8528,
      ":\",": 8529,
      "CG": 8530,
      "duration": 8531,
      "ainer": 8532,
      "âĢĿ,": 8533,
      "kish": 8534,
      "Ġinfra": 8535,
      "Ġratings": 8536,
      "Header": 8537,
      "oon": 8538,
      "ĠObjective": 8539,
      "Ġexperienced": 8540,
      "Ġunable": 8541,
      "Ġvs": 8542,
      "?>": 8543,
      "elp": 8544,
      "Ġdefense": 8545,
      "ĠProgram": 8546,
      "Ġdesigns": 8547,
      "scape": 8548,
      "Ġbeauty": 8549,
      "Ġconverts": 8550,
      "Ġmanual": 8551,
      "Ġintegers": 8552,
      "Repository": 8553,
      "Ġholid": 8554,
      "Ġsuggests": 8555,
      "abetes": 8556,
      "ĠCongress": 8557,
      "ĠResize": 8558,
      "icket": 8559,
      "Analysis": 8560,
      "Buffer": 8561,
      "Min": 8562,
      "Ġlegis": 8563,
      "Ġtiss": 8564,
      "fs": 8565,
      "ĠSpring": 8566,
      "screen": 8567,
      "ĠSDK": 8568,
      "Ġhaz": 8569,
      "onic": 8570,
      "\\\\": 8571,
      "oes": 8572,
      "Ġpin": 8573,
      "bash": 8574,
      "Ġ2021": 8575,
      "Ġminute": 8576,
      "Person": 8577,
      "ĠWhere": 8578,
      "roph": 8579,
      "Ġvision": 8580,
      "AND": 8581,
      "javascript": 8582,
      "Ġfamiliar": 8583,
      "RUE": 8584,
      "Ġlived": 8585,
      "performance": 8586,
      "Draw": 8587,
      "Ġeducational": 8588,
      "ĠMexico": 8589,
      "Ġisland": 8590,
      "ĠFramework": 8591,
      "opher": 8592,
      "IP": 8593,
      "grade": 8594,
      "Ġoutcome": 8595,
      "Ġlen": 8596,
      "ota": 8597,
      "Ġmail": 8598,
      "Ġatom": 8599,
      "ĠÐ¸": 8600,
      "Ġdrinking": 8601,
      "Mode": 8602,
      "Ġimprovements": 8603,
      "Ġnewly": 8604,
      "bio": 8605,
      "Single": 8606,
      "ĠEven": 8607,
      "Ġmixture": 8608,
      "Ġwondering": 8609,
      "ĠSal": 8610,
      "Ġevolution": 8611,
      "Ġarms": 8612,
      "Ġcalculations": 8613,
      "space": 8614,
      "47": 8615,
      "tree": 8616,
      "Ġmixed": 8617,
      "Ġ',": 8618,
      "student": 8619,
      "chomp": 8620,
      "Ġfruits": 8621,
      "Ġreactions": 8622,
      "Red": 8623,
      "noon": 8624,
      "irgin": 8625,
      "Ġcycl": 8626,
      "Ġstudio": 8627,
      "Ġsick": 8628,
      "Ġsq": 8629,
      "Ġversions": 8630,
      "Ġinternal": 8631,
      "tx": 8632,
      "Ġbasketball": 8633,
      "else": 8634,
      "Ġmission": 8635,
      "Ġdestroy": 8636,
      "Ġtor": 8637,
      "imate": 8638,
      "Ġcontribution": 8639,
      "Av": 8640,
      "ĠRock": 8641,
      "oundary": 8642,
      "Ġbranch": 8643,
      "orrect": 8644,
      "Ġinspe": 8645,
      "Ġ\\$": 8646,
      "Ġminimize": 8647,
      "86": 8648,
      "ĠCase": 8649,
      "Ġriverside": 8650,
      "('/": 8651,
      "Ġvictory": 8652,
      "Ġvan": 8653,
      "Ġcitizens": 8654,
      "gray": 8655,
      "orse": 8656,
      "ette": 8657,
      "06": 8658,
      "Dictionary": 8659,
      "Ġproposal": 8660,
      "Ġoverview": 8661,
      "Ġapart": 8662,
      "EO": 8663,
      "ĠGeneral": 8664,
      "Ġrecipient": 8665,
      "ĠGl": 8666,
      "ternatively": 8667,
      "vitational": 8668,
      "Ġunnecessary": 8669,
      "izont": 8670,
      "Ġring": 8671,
      "Ġcaptured": 8672,
      "oday": 8673,
      "Ġartists": 8674,
      "organ": 8675,
      "Ġmultiply": 8676,
      "Ġlikes": 8677,
      "Ġgeological": 8678,
      "Ġarrested": 8679,
      "ĠDESC": 8680,
      "Ġsubmission": 8681,
      "Ġterr": 8682,
      "ĠMary": 8683,
      "ADD": 8684,
      "Ġdependency": 8685,
      "gi": 8686,
      "ruption": 8687,
      "ĠDonald": 8688,
      "ĠComboBox": 8689,
      "Ġsignature": 8690,
      "Ġinfections": 8691,
      "Ġexplanation": 8692,
      "bration": 8693,
      "Ġdefinition": 8694,
      "Ġcircle": 8695,
      "cut": 8696,
      "omal": 8697,
      "Ġprofessionals": 8698,
      "rations": 8699,
      "Transaction": 8700,
      "ĠEdge": 8701,
      "Ġiron": 8702,
      "Ġapps": 8703,
      "Ġzip": 8704,
      "ĠpH": 8705,
      "ĠModel": 8706,
      "Ġfacility": 8707,
      ">;": 8708,
      "ĠDist": 8709,
      "Ġphase": 8710,
      "Ġmeasurement": 8711,
      "ĠLook": 8712,
      "Ġbuying": 8713,
      "missing": 8714,
      "Ġwaves": 8715,
      "Ġretail": 8716,
      "ĠIran": 8717,
      "urric": 8718,
      "Water": 8719,
      "Ġdiscovered": 8720,
      "'].": 8721,
      "aid": 8722,
      "Ġtemplates": 8723,
      "Password": 8724,
      "Schedule": 8725,
      "threshold": 8726,
      "Å£": 8727,
      "Using": 8728,
      "live": 8729,
      "ĠArab": 8730,
      "Ġawesome": 8731,
      "Ġmanipulation": 8732,
      "kdir": 8733,
      "Vis": 8734,
      "labels": 8735,
      "Ġagricult": 8736,
      "Ġloved": 8737,
      "Ġpeak": 8738,
      "uisine": 8739,
      "ĠSecret": 8740,
      "Ġmask": 8741,
      "Ġstorm": 8742,
      "Ġwouldn": 8743,
      "mate": 8744,
      ".âĢĻ": 8745,
      "Inventory": 8746,
      "%.": 8747,
      "Ġexpertise": 8748,
      "Ġemp": 8749,
      "Ġconsumer": 8750,
      "Ġbike": 8751,
      "Ġtur": 8752,
      "Ġfa": 8753,
      "Ġfell": 8754,
      "Ġscenes": 8755,
      "Ġtac": 8756,
      "Ġhundred": 8757,
      "ĠiOS": 8758,
      "Ġillegal": 8759,
      "itate": 8760,
      "Ġcandidates": 8761,
      "rif": 8762,
      "Ġorigin": 8763,
      "Ġdropdown": 8764,
      "och": 8765,
      "analysis": 8766,
      "Ġinsect": 8767,
      "Ġsenior": 8768,
      "done": 8769,
      "87": 8770,
      "Ġsupplies": 8771,
      "Ġcontinues": 8772,
      "Ġslightly": 8773,
      "ĠNSString": 8774,
      "Ġfle": 8775,
      "Ġconvey": 8776,
      "Ġmechanisms": 8777,
      "Ġ$(": 8778,
      "endance": 8779,
      "Ġdrinks": 8780,
      "ĠBob": 8781,
      "Ġquan": 8782,
      "insert": 8783,
      "race": 8784,
      "rails": 8785,
      "ĠCloud": 8786,
      "ĠQue": 8787,
      "ĠRest": 8788,
      "Ġvaluable": 8789,
      "iri": 8790,
      "second": 8791,
      ")(": 8792,
      "inish": 8793,
      "Public": 8794,
      "Ġlabeled": 8795,
      "raud": 8796,
      "Ġlib": 8797,
      "feature": 8798,
      ".\");": 8799,
      "Ġlunch": 8800,
      "Ġfunny": 8801,
      "Ġsetup": 8802,
      "angular": 8803,
      "Ġsummar": 8804,
      "NCES": 8805,
      "rocery": 8806,
      "ĠChicago": 8807,
      "contains": 8808,
      "Ġattendees": 8809,
      "element": 8810,
      "ĠLast": 8811,
      "under": 8812,
      "Ġreturning": 8813,
      "Ġsurrounding": 8814,
      "Ġtea": 8815,
      "ĠSenate": 8816,
      "Ġexecuted": 8817,
      "Ġperiods": 8818,
      "blue": 8819,
      "Ġboost": 8820,
      "ĠJOIN": 8821,
      "FERE": 8822,
      "ala": 8823,
      "Ġos": 8824,
      "Ġcow": 8825,
      "ĠTw": 8826,
      "Tim": 8827,
      "Ġpopulate": 8828,
      "Ġconverted": 8829,
      "Ġshut": 8830,
      "Month": 8831,
      "Ġdisp": 8832,
      "longitude": 8833,
      "ocker": 8834,
      "printf": 8835,
      "oston": 8836,
      "Ġtoler": 8837,
      "redit": 8838,
      "Ġextremely": 8839,
      "ourney": 8840,
      "risk": 8841,
      "Ġacceptable": 8842,
      "timestamp": 8843,
      "Video": 8844,
      "Ġorganized": 8845,
      "Ġcompeti": 8846,
      "sn": 8847,
      "Ġmeant": 8848,
      "ao": 8849,
      "Ġserial": 8850,
      "vestment": 8851,
      "NLP": 8852,
      "Ġconfirmed": 8853,
      "Ġinqu": 8854,
      "Ġshowcase": 8855,
      "Ġopens": 8856,
      "Ġinner": 8857,
      "ographer": 8858,
      "ĠGraph": 8859,
      "ĠProcess": 8860,
      "ĠpriceRange": 8861,
      "ĠSum": 8862,
      "Ġconsequences": 8863,
      "Mar": 8864,
      "Ġplate": 8865,
      "Ġassistant": 8866,
      "Ġexcept": 8867,
      "Regression": 8868,
      "Ġmoisture": 8869,
      "Ġresid": 8870,
      "ĠQuestion": 8871,
      "Ġ'<": 8872,
      "CR": 8873,
      "oration": 8874,
      "Sales": 8875,
      "57": 8876,
      "Ġtoward": 8877,
      "Science": 8878,
      "Ġ$!\";": 8879,
      "Ġ(\"": 8880,
      "Ġhabits": 8881,
      "ĠâīĪ": 8882,
      "FERENCES": 8883,
      "Ġtomat": 8884,
      "mpty": 8885,
      "Ġscored": 8886,
      "Ġmutable": 8887,
      "background": 8888,
      "ĠSS": 8889,
      "Intake": 8890,
      "Ġpreference": 8891,
      "Ġapplic": 8892,
      "ĠExample": 8893,
      "Ġcollaboration": 8894,
      "ĠCoun": 8895,
      "Ġbecoming": 8896,
      "Users": 8897,
      "appe": 8898,
      "Ġjoined": 8899,
      "Ġdownloaded": 8900,
      "Ġinitializes": 8901,
      "cs": 8902,
      "Ġannotation": 8903,
      "obj": 8904,
      "Ġseat": 8905,
      "Ġmetab": 8906,
      "Ġpresented": 8907,
      "dp": 8908,
      "allel": 8909,
      "ĠBoth": 8910,
      "However": 8911,
      "tax": 8912,
      "()</": 8913,
      "Ġphrase": 8914,
      "Ġauth": 8915,
      "Performance": 8916,
      "ĠBal": 8917,
      "ĠMel": 8918,
      "ĠReal": 8919,
      "being": 8920,
      "ĠÐ½": 8921,
      "Ġbaking": 8922,
      "Ġwinning": 8923,
      "Ð·": 8924,
      "console": 8925,
      "Ġesc": 8926,
      "Split": 8927,
      "kotlin": 8928,
      "real": 8929,
      "Ġprotected": 8930,
      "days": 8931,
      "Ġcalculating": 8932,
      "cin": 8933,
      "plitude": 8934,
      "ĠTHEN": 8935,
      "Ġsch": 8936,
      "Ġspin": 8937,
      "ĠRad": 8938,
      "Book": 8939,
      "ĠDoes": 8940,
      "$.": 8941,
      "ghan": 8942,
      "rive": 8943,
      "forcement": 8944,
      "Ġhashtags": 8945,
      "Ġ2006": 8946,
      "Ġtechnologies": 8947,
      "Ġpartnership": 8948,
      "Ġwine": 8949,
      "ĠAtl": 8950,
      "method": 8951,
      "Ġlearned": 8952,
      "\"?": 8953,
      "lig": 8954,
      "Ġspreadsheet": 8955,
      "Ġattorney": 8956,
      "Ġhi": 8957,
      "Ġbinding": 8958,
      "Ġinno": 8959,
      "Pay": 8960,
      "ĠEvaluate": 8961,
      "Ġlowest": 8962,
      "sibilities": 8963,
      "Energy": 8964,
      "usr": 8965,
      "ĠBur": 8966,
      "Ġ64": 8967,
      "oli": 8968,
      "Ġweights": 8969,
      "Ġrooms": 8970,
      "ĠDoe": 8971,
      "claim": 8972,
      "Ġpod": 8973,
      "Ġacademic": 8974,
      "ĠOK": 8975,
      "Ġlistener": 8976,
      "Ġmerge": 8977,
      "Ġbra": 8978,
      "Changed": 8979,
      "Ġclassic": 8980,
      "Ġcontrovers": 8981,
      "Ġinfluencers": 8982,
      "ĠKorea": 8983,
      "canvas": 8984,
      "Ġwal": 8985,
      "Ġuniversity": 8986,
      "dden": 8987,
      "Ġweekly": 8988,
      "\"`": 8989,
      "ival": 8990,
      "maps": 8991,
      "tificial": 8992,
      "Ġplain": 8993,
      "forms": 8994,
      "Ġamazing": 8995,
      "Ġarmy": 8996,
      "Ġwalls": 8997,
      "Ġsurveys": 8998,
      "ĠLar": 8999,
      "sorted": 9000,
      "Ġprincipal": 9001,
      "Ġble": 9002,
      "Ġnurs": 9003,
      "portation": 9004,
      "Ġagents": 9005,
      "Spec": 9006,
      "ua": 9007,
      "Ġcurrency": 9008,
      "Ġnarr": 9009,
      "interest": 9010,
      "Ġmuscles": 9011,
      "Ġ{}": 9012,
      "osite": 9013,
      "notations": 9014,
      "Ġbid": 9015,
      "atever": 9016,
      "Ġchurch": 9017,
      "Ġscope": 9018,
      "ests": 9019,
      "hester": 9020,
      "othe": 9021,
      "ĠPhotos": 9022,
      "crop": 9023,
      "Ġ75": 9024,
      "Ġreliable": 9025,
      "embers": 9026,
      "Ġlisted": 9027,
      "ĠMuslim": 9028,
      "Ġincreases": 9029,
      "Ġbought": 9030,
      "options": 9031,
      "Ġkilling": 9032,
      "Impl": 9033,
      "Ġadvantage": 9034,
      "ĠYouTube": 9035,
      "ierarch": 9036,
      "orie": 9037,
      "Ġsinger": 9038,
      "za": 9039,
      "Ġcircum": 9040,
      "Ġstim": 9041,
      "arrow": 9042,
      "Ġbreast": 9043,
      "Ġadministr": 9044,
      "ĠManager": 9045,
      "CON": 9046,
      "ĠAnalytics": 9047,
      "Ġcere": 9048,
      "ipes": 9049,
      "}</": 9050,
      "gre": 9051,
      "ĠEnsure": 9052,
      "Ġweapons": 9053,
      "Ġpal": 9054,
      "Ġapplies": 9055,
      "Ġ2005": 9056,
      "Ġhobbies": 9057,
      "Ġafternoon": 9058,
      "<!": 9059,
      "ĠTop": 9060,
      "Ġlinked": 9061,
      "Ġinterpret": 9062,
      "Okay": 9063,
      "Ġorient": 9064,
      "istant": 9065,
      "Ġperforms": 9066,
      "ĠAlthough": 9067,
      "Design": 9068,
      "Plot": 9069,
      "âĢĿ.": 9070,
      "ismic": 9071,
      "Ġdeadline": 9072,
      "Ġaccomplish": 9073,
      "Long": 9074,
      "Ġcertainly": 9075,
      "transform": 9076,
      "ĠRiver": 9077,
      "Ġles": 9078,
      "Ġemb": 9079,
      "ĠMongo": 9080,
      "Auth": 9081,
      "Ġreduction": 9082,
      "Ġpri": 9083,
      "Ġbind": 9084,
      "cases": 9085,
      "Ġshoes": 9086,
      "liers": 9087,
      "Ġking": 9088,
      "ĠCam": 9089,
      "Ġhyp": 9090,
      "Names": 9091,
      "delete": 9092,
      "Ġhurt": 9093,
      "bility": 9094,
      "oke": 9095,
      "ĠSand": 9096,
      "Ġship": 9097,
      "Ġ36": 9098,
      "param": 9099,
      "ĠOf": 9100,
      "Ġbuildings": 9101,
      "Ġsections": 9102,
      "mits": 9103,
      "ĠPlace": 9104,
      "Ġtailored": 9105,
      "asp": 9106,
      "ĠBush": 9107,
      "otype": 9108,
      "Ġexecution": 9109,
      "ĠParse": 9110,
      "Ġlegs": 9111,
      "Ġmajority": 9112,
      "Ġlol": 9113,
      "Ġtes": 9114,
      "Ġreward": 9115,
      "Ġends": 9116,
      "itz": 9117,
      "ien": 9118,
      "support": 9119,
      "Ġbreakfast": 9120,
      "Ġ(-": 9121,
      "Friendly": 9122,
      "curl": 9123,
      "Ġcourses": 9124,
      "ĠLouis": 9125,
      "Ġspr": 9126,
      "ologist": 9127,
      "ĠAnswer": 9128,
      "keys": 9129,
      "Ġgrouped": 9130,
      "outs": 9131,
      "ĠMail": 9132,
      "Ġappeal": 9133,
      "Ġformats": 9134,
      "Ġmanufacture": 9135,
      "reedom": 9136,
      ">)": 9137,
      "Ġdialogue": 9138,
      "Ġadults": 9139,
      "BA": 9140,
      "question": 9141,
      "Ġideal": 9142,
      "Ġscenarios": 9143,
      "Ġclaimed": 9144,
      "ipped": 9145,
      "Ang": 9146,
      "Ġdiverse": 9147,
      "Ġpurchases": 9148,
      "ĠKey": 9149,
      "Ġ''": 9150,
      "ĠMedia": 9151,
      "gree": 9152,
      "design": 9153,
      "ĠNetwork": 9154,
      "Room": 9155,
      "Ġmechanical": 9156,
      "Local": 9157,
      "vie": 9158,
      "Ġbreaks": 9159,
      "Ġconducting": 9160,
      "entifier": 9161,
      "Ġdosage": 9162,
      "Ñħ": 9163,
      "Ġpollution": 9164,
      "Ġsearching": 9165,
      "Ġposes": 9166,
      "Ġ255": 9167,
      "article": 9168,
      "Ġfollowers": 9169,
      "Ġsky": 9170,
      "scene": 9171,
      "Ġkil": 9172,
      "Ġsed": 9173,
      "ias": 9174,
      "gression": 9175,
      "language": 9176,
      "piratory": 9177,
      "rem": 9178,
      "catch": 9179,
      "marks": 9180,
      "Ġfees": 9181,
      "ĠSyria": 9182,
      "ĠDataTable": 9183,
      "Ġepisode": 9184,
      "don": 9185,
      "Ġbodies": 9186,
      "Ġmathemat": 9187,
      "Health": 9188,
      "Pack": 9189,
      "apply": 9190,
      "success": 9191,
      "Module": 9192,
      "OREIGN": 9193,
      "Ġcompleting": 9194,
      "Ġfacing": 9195,
      "Ġresc": 9196,
      "card": 9197,
      "eek": 9198,
      "ĠHR": 9199,
      "ĠTRUE": 9200,
      "Any": 9201,
      "Ä±n": 9202,
      "Author": 9203,
      "azine": 9204,
      "ampionship": 9205,
      "LA": 9206,
      "Ġoutdoor": 9207,
      "factor": 9208,
      "Ġrecognize": 9209,
      "itmap": 9210,
      "Ġradiation": 9211,
      "Ġund": 9212,
      "42": 9213,
      "making": 9214,
      "Ġaltern": 9215,
      "Tag": 9216,
      "ignment": 9217,
      "ĠChristian": 9218,
      "Usage": 9219,
      "Ġprioritize": 9220,
      "Generator": 9221,
      "clipse": 9222,
      "Ġblow": 9223,
      "Ġmine": 9224,
      "Ġending": 9225,
      "Pe": 9226,
      "Install": 9227,
      "Ġlayers": 9228,
      "ĠMethod": 9229,
      "ashed": 9230,
      "urface": 9231,
      "ĠVALUES": 9232,
      "Ġbehaviors": 9233,
      "cpan": 9234,
      "Println": 9235,
      "rated": 9236,
      "relation": 9237,
      "Ġapproved": 9238,
      "ĠClean": 9239,
      "ĠAccess": 9240,
      "ĠAnt": 9241,
      "IV": 9242,
      "Tra": 9243,
      "ĠSource": 9244,
      "Ġreservation": 9245,
      "ĠJo": 9246,
      "Ġelim": 9247,
      "ĠRel": 9248,
      "Ġpractic": 9249,
      "Ġvictims": 9250,
      "eto": 9251,
      "Ġprecipitation": 9252,
      "Ġproviders": 9253,
      "Ġhomes": 9254,
      "ifts": 9255,
      "Language": 9256,
      "Ġmusician": 9257,
      "Ġbacteria": 9258,
      "Db": 9259,
      "Ġliquid": 9260,
      "ĠOur": 9261,
      "Ġmechanism": 9262,
      "ĠGreek": 9263,
      "ader": 9264,
      "Ġtrick": 9265,
      "Ġthousands": 9266,
      "iOS": 9267,
      "ĠStudent": 9268,
      "88": 9269,
      "Ġdiss": 9270,
      "Ġanswered": 9271,
      "uten": 9272,
      "features": 9273,
      "ennis": 9274,
      "Ġah": 9275,
      "ete": 9276,
      "chor": 9277,
      "tokens": 9278,
      "peg": 9279,
      "directory": 9280,
      "ario": 9281,
      "Ġspring": 9282,
      "Pattern": 9283,
      "ductivity": 9284,
      "Ġnic": 9285,
      "Ratio": 9286,
      "Ġplenty": 9287,
      "ometer": 9288,
      "Ġhabitat": 9289,
      "ĠPower": 9290,
      "ĠChange": 9291,
      "het": 9292,
      "Ġdefend": 9293,
      "ĠCarol": 9294,
      "DS": 9295,
      "Ġaccused": 9296,
      "CTYPE": 9297,
      "Ġconnections": 9298,
      "inity": 9299,
      "(\\": 9300,
      ">$": 9301,
      "ĠMs": 9302,
      "elly": 9303,
      "Ġboot": 9304,
      "Ġindices": 9305,
      "iced": 9306,
      "Ġshadow": 9307,
      "athered": 9308,
      "BS": 9309,
      "Empty": 9310,
      "bind": 9311,
      "Ġpython": 9312,
      "ĠTheir": 9313,
      "Ġvisitors": 9314,
      "shot": 9315,
      "Ġedi": 9316,
      "Ġconsidering": 9317,
      "Ġpermit": 9318,
      "ĠRepeat": 9319,
      "Ġworkshop": 9320,
      "lywood": 9321,
      "Ġdirected": 9322,
      "Str": 9323,
      "Ġillness": 9324,
      "ĠJer": 9325,
      "Ġprem": 9326,
      "sen": 9327,
      "Ġincenti": 9328,
      "Async": 9329,
      "Ġmarker": 9330,
      "Valid": 9331,
      "Ġworst": 9332,
      "Ġreceiving": 9333,
[...]
